<unk>	0
<s>	0
</s>	0
ന്	-0
ക്	-1
ത്	-2
്‍	-3
▁പ	-4
ക്ക	-5
ന്ന	-6
തി	-7
▁ക	-8
്ട	-9
▁സ	-10
▁വ	-11
ും	-12
ില	-13
▁മ	-14
▁ന	-15
▁അ	-16
പ്	-17
ച്	-18
ായ	-19
ിയ	-20
ങ്	-21
ുന്ന	-22
ര്‍	-23
്യ	-24
്ര	-25
ത്തി	-26
റ്	-27
ട്ട	-28
സ്	-29
ിക്ക	-30
ത്ത	-31
ാണ	-32
പ്പ	-33
ങ്ങ	-34
▁എ	-35
▁ത	-36
ച്ച	-37
ണ്ട	-38
ുക	-39
▁ച	-40
▁ഇ	-41
ടെ	-42
രു	-43
ാണ്	-44
▁ആ	-45
്ല	-46
ായി	-47
റ്റ	-48
രി	-49
ന്‍	-50
▁പ്ര	-51
ല്‍	-52
ാന	-53
ില്‍	-54
▁വി	-55
ള്‍	-56
ാര	-57
റെ	-58
ിച്ച	-59
ുമ	-60
▁ഒ	-61
ള്	-62
ഞ്	-63
▁ര	-64
▁ബ	-65
െയ	-66
ള്ള	-67
▁ഉ	-68
ുന്നു	-69
▁നി	-70
ിക	-71
▁സ്	-72
ക്ക്	-73
ന്റെ	-74
ിൽ	-75
▁ജ	-76
ുടെ	-77
ത്ര	-78
ടു	-79
ന്ന്	-80
മ്	-81
ക്ഷ	-82
ിന	-83
▁ശ	-84
ുള്ള	-85
ങ്ങള	-86
ല്ല	-87
▁ല	-88
വി	-89
ഞ്ഞ	-90
ദ്	-91
▁എന്ന	-92
െന്ന	-93
ാക്ക	-94
ാല	-95
▁ഒരു	-96
ില്ല	-97
പ്പെ	-98
ാവ	-99
▁സം	-100
രിക്ക	-101
ങ്ക	-102
▁മാ	-103
▁മു	-104
റി	-105
ടി	-106
രുന്നു	-107
▁കു	-108
ണ്ട്	-109
യും	-110
▁ദ	-111
▁ചെയ	-112
▁അവ	-113
▁പി	-114
ുവ	-115
▁.	-116
ാര്‍	-117
▁ഗ	-118
▁ഭ	-119
▁നട	-120
ാന്‍	-121
▁യ	-122
ിലെ	-123
മ്മ	-124
ാൻ	-125
ണം	-126
ത്യ	-127
▁പോ	-128
ാം	-129
ുന്നത്	-130
ങ്ങൾ	-131
▁കോ	-132
േഷ	-133
▁ഫ	-134
ിവ	-135
മായ	-136
ന്ത	-137
▁പു	-138
ച്ച്	-139
റ്റ്	-140
▁പറ	-141
നി	-142
സി	-143
ോഗ	-144
ദേ	-145
രെ	-146
▁ഡ	-147
വാ	-148
മായി	-149
▁ഹ	-150
െന്ന്	-151
ത്ത്	-152
തിയ	-153
ണ്	-154
രാ	-155
വും	-156
▁കേ	-157
ംഗ	-158
ുകള	-159
▁ഈ	-160
പ്പോ	-161
ത്തിയ	-162
റിയ	-163
ത്തില	-164
ങ്ങള്‍	-165
ദ്യ	-166
ുട	-167
▁കൊ	-168
ത്തെ	-169
ത്തില്‍	-170
▁കൂ	-171
▁ഏ	-172
ിട്ട	-173
▁നേ	-174
രം	-175
സ്ഥ	-176
തു	-177
ിച്ചു	-178
യ്	-179
▁രാ	-180
ാർ	-181
ട്	-182
ന്ദ	-183
▁റ	-184
മ്പ	-185
▁ഓ	-186
▁സാ	-187
ഡ്	-188
തിന	-189
ാക	-190
▁തി	-191
▁1	-192
▁ട	-193
▁സമ	-194
ദ്ധ	-195
▁സി	-196
ിലും	-197
കള	-198
▁കഴ	-199
ശ്	-200
ായിരുന്നു	-201
െടു	-202
ാമ	-203
ാത	-204
▁2	-205
ത്തിൽ	-206
െങ്ക	-207
െന്നും	-208
നം	-209
ട്ട്	-210
ട്ടി	-211
മാണ്	-212
▁ക്	-213
▁തുട	-214
ുകയ	-215
രിച്ച	-216
▁വെ	-217
ിക്കുന്ന	-218
▁സ്വ	-219
ാപ	-220
▁ചെയ്യ	-221
ഴ്	-222
ീക	-223
യുടെ	-224
ത്തിന്റെ	-225
ന്ധ	-226
▁വീ	-227
▁വ്യ	-228
ടിയ	-229
പ്ര	-230
▁പരി	-231
..	-232
രുന്ന	-233
ികള	-234
▁വേ	-235
▁ചെയ്	-236
ാള	-237
ണ്‍	-238
നു	-239
പോ	-240
യില്‍	-241
ുണ്ട	-242
വര്‍	-243
സ്റ്റ	-244
ാഗ	-245
്യമ	-246
ദേശ	-247
ിമ	-248
ാല്‍	-249
യം	-250
ുകൾ	-251
ഷ്ട	-252
പി	-253
ഞ്ഞു	-254
ലി	-255
നെ	-256
▁ഉപ	-257
▁കാര	-258
ുണ്ട്	-259
▁പ്രതി	-260
ക്കു	-261
രണ	-262
▁സു	-263
ന്നു	-264
സം	-265
പ്പെട്ട	-266
യി	-267
▁സ്ഥ	-268
▁ചി	-269
ത്രി	-270
മി	-271
ാൽ	-272
▁പൊ	-273
്യം	-274
പ്പ്	-275
ടുത്ത	-276
ിയുടെ	-277
ന്നെ	-278
ക്ര	-279
ീസ്	-280
ക്ത	-281
▁വാ	-282
▁പേ	-283
ത്തിന്	-284
ക്കും	-285
രുടെ	-286
ിനെ	-287
ിലേ	-288
▁പോല	-289
▁ബി	-290
ജ്	-291
▁ഇന്	-292
▁ശ്ര	-293
ഞ്ച	-294
ണ്ണ	-295
ുമ്	-296
മാന	-297
ഷ്	-298
▁സെ	-299
ുമായി	-300
രോ	-301
വ്	-302
ാട	-303
ാറ	-304
▁തീ	-305
റ്റി	-306
ന്ദ്ര	-307
സ്ഥാന	-308
ുകള്‍	-309
ോടെ	-310
ല്‍ക	-311
ഫ്	-312
▁ഞ	-313
ിപ്പ	-314
ണമ	-315
വർ	-316
▁നില	-317
▁മൂ	-318
▁ഇന്ത്യ	-319
ത്തു	-320
ര്‍ക്ക	-321
▁രാജ	-322
▁കെ	-323
ന്നും	-324
▁നല്‍ക	-325
00	-326
ിരിക്ക	-327
ിത	-328
യിൽ	-329
▁മോ	-330
ങ്ങളുടെ	-331
ീയ	-332
ധാന	-333
ാസ	-334
▁(	-335
ക്കുന്ന	-336
▁ഷ	-337
ൂപ	-338
ോള	-339
ിയും	-340
ഗ്ര	-341
ജി	-342
▁പറയ	-343
▁തെ	-344
മേ	-345
▁മാത്ര	-346
കു	-347
▁പുറ	-348
ുകയും	-349
ാത്ത	-350
ഭവ	-351
▁പെ	-352
ോട്ട	-353
ിച്ച്	-354
▁ചിത്ര	-355
▁നിയ	-356
ത്സ	-357
പ്പെട	-358
യോഗ	-359
▁കണ്ട	-360
വശ	-361
ങ്ങിയ	-362
▁ജന	-363
ബ്	-364
ന്ത്രി	-365
ക്കി	-366
ാതെ	-367
ന്യ	-368
രും	-369
ദേഹ	-370
▁അതി	-371
▁ജീ	-372
ന്ത്ര	-373
വേ	-374
▁പറഞ്ഞു	-375
▁രൂപ	-376
▁അന	-377
യാണ്	-378
ൂര്‍	-379
ിന്റെ	-380
രള	-381
േണ്ട	-382
▁അത	-383
മാക്ക	-384
▁ചെ	-385
▁നീ	-386
ൊരു	-387
ാരം	-388
▁തന്നെ	-389
▁എല്ല	-390
▁അത്	-391
▁കാണ	-392
▁കാ	-393
ക്കെ	-394
▁ലോ	-395
▁എം	-396
▁ബാ	-397
രീ	-398
▁ജോ	-399
കള്‍	-400
▁ഉണ്ട	-401
ിരുന്നു	-402
▁സഹ	-403
ന്റ്	-404
ിഞ്ഞ	-405
ധ്യ	-406
കൾ	-407
മാ	-408
െയും	-409
ുപ	-410
▁കുറ	-411
▁ലഭ	-412
സ്ത	-413
േഖ	-414
▁മെ	-415
▁സംഘ	-416
▁ഐ	-417
▁ആവശ	-418
▁അഭ	-419
ലിയ	-420
ധിക	-421
▁വൈ	-422
ത്വ	-423
▁-	-424
ധി	-425
ണി	-426
ന്റ	-427
ദ്ദേഹ	-428
ുറ	-429
ോട്	-430
▁രണ്ട	-431
വന	-432
ിക്കുന്നു	-433
ഷ്യ	-434
ഡി	-435
ികള്‍	-436
▁നേത	-437
▁നിര്‍	-438
െങ്കിലും	-439
യെ	-440
കര	-441
▁നിന്ന്	-442
▁റി	-443
▁കേരള	-444
ങ്ങളും	-445
▁അറിയ	-446
▁ഇട	-447
ിലേക്ക്	-448
രിയ	-449
ത്തിന	-450
▁ഉപയോഗ	-451
▁ഡി	-452
ാരി	-453
യിലെ	-454
▁അദ്ദേഹ	-455
▁വള	-456
ത്തിലെ	-457
▁എസ്	-458
ൽക	-459
▁എന്നിവ	-460
ോട	-461
ാസ്	-462
വര	-463
▁ആദ്യ	-464
ുമ്പോ	-465
താണ്	-466
▁ഏറ്റ	-467
ീസ	-468
ിച്ചത്	-469
▁മല	-470
ത്ഥ	-471
▁ട്ര	-472
േഷം	-473
▁20	-474
▁മുഖ	-475
▁നൽക	-476
ക്കാര	-477
▁കൈ	-478
▁കഴിഞ്ഞ	-479
ഴ്ച	-480
▁ചേ	-481
ുകൊ	-482
▁മറ്റ	-483
ൂടെ	-484
ാശ	-485
യില	-486
▁പിന്ന	-487
▁നിയമ	-488
തിന്	-489
▁പല	-490
ികൾ	-491
▁വര്‍	-492
▁ദിവ	-493
വിടെ	-494
മു	-495
▁മന	-496
സ്റ്റ്	-497
യാള	-498
രഞ്ഞ	-499
ര്യ	-500
ക്ട	-501
യ്യ	-502
ിനിമ	-503
▁ബന്ധ	-504
▁ഇത്	-505
ബി	-506
ിയെ	-507
▁ധ	-508
▁ചോ	-509
▁ആശ	-510
▁സൂ	-511
ാത്ര	-512
ലെ	-513
ഗ്	-514
ിട	-515
ൂർ	-516
▁3	-517
ക്ഷേ	-518
ിക്കും	-519
തിരെ	-520
▁യു	-521
രഞ്ഞെടു	-522
▁മുന്ന	-523
െങ്കിൽ	-524
യ്ക്ക്	-525
ഡിയ	-526
ുകയാണ്	-527
▁തോ	-528
സ്സ	-529
▁ചെയ്ത	-530
▁പ്രധാന	-531
▁കാല	-532
പു	-533
ാനും	-534
▁ഇത	-535
▁നിർ	-536
ലം	-537
▁വിജ	-538
▁സംസ്ഥാന	-539
െയാണ്	-540
▁ആവശ്യ	-541
ദി	-542
ടുത	-543
▁കട	-544
▁ഗ്ര	-545
▁സംഭവ	-546
▁നടത്ത	-547
ളി	-548
െന്നാണ്	-549
▁പാ	-550
ക്രമ	-551
▁സിനിമ	-552
പ്പം	-553
▁അനു	-554
▁സ്റ്റ	-555
ിക്കുന്നത്	-556
പ്പോഴ	-557
ർക്ക	-558
കാര	-559
▁പരാ	-560
▁"	-561
▁അല്ല	-562
▁കേന്ദ്ര	-563
പ്പോള്‍	-564
▁സര്‍ക്ക	-565
▁ബോ	-566
ങ്ങി	-567
ഴു	-568
▁കൂടുത	-569
ിക്കാൻ	-570
▁പുതിയ	-571
പാ	-572
നാ	-573
ച്ചു	-574
▁ലക്ഷ	-575
ഷ്ട്ര	-576
▁വില	-577
ിയില്‍	-578
▁അപ	-579
ിട്ടുണ്ട്	-580
▁നിങ്ങൾ	-581
▁വേണ്ട	-582
യ്ക്ക	-583
▁ചില	-584
▁നിന്നും	-585
വേഷ	-586
▁എന്ന്	-587
ാക്കി	-588
▁നാ	-589
ങ്ങളില്‍	-590
▁നിര	-591
ങ്ങനെ	-592
േറ്റ	-593
▁കോട	-594
രുമാന	-595
▁സാധ	-596
ങ്ങളെ	-597
ംഗ്	-598
▁പ്രക	-599
റു	-600
ഹി	-601
▁വിദ്യ	-602
▁രാജ്യ	-603
പ്പെടു	-604
യാ	-605
ുംബ	-606
വിത	-607
ാനുള്ള	-608
▁ഭാഗ	-609
ക്കം	-610
ക്കാ	-611
മാണ	-612
കം	-613
ഷം	-614
തും	-615
ാക്കിയ	-616
▁മേ	-617
▁പൊല	-618
▁നോ	-619
ാവ്	-620
▁വലിയ	-621
എസ്	-622
▁പ്രത്യ	-623
വിധ	-624
▁നടത്തിയ	-625
▁എന്നാൽ	-626
രക്ഷ	-627
▁'	-628
▁മുത	-629
▁അട	-630
▁അവസ	-631
ത്തര	-632
ബന്ധ	-633
▁അദ്ദേഹം	-634
▁ദു	-635
▁വ്യക്ത	-636
▁ശേഷം	-637
▁പറഞ്ഞ	-638
▁വഴ	-639
▁വർ	-640
പ്പോൾ	-641
▁ദേ	-642
▁കള	-643
▁അന്	-644
▁പ്രവര്‍	-645
രിച്ചു	-646
▁പങ്ക	-647
▁യുവ	-648
ര്	-649
▁മത്സ	-650
െയ്	-651
▁201	-652
▁എന്നാല്‍	-653
▁എല്ലാ	-654
ൊഴ	-655
മുള്ള	-656
▁കുട്ട	-657
രണം	-658
▁ഏറ്റവും	-659
▁ഫോ	-660
രേ	-661
ിന്	-662
▁ഉയ	-663
▁ചെയ്തു	-664
▁ആണ്	-665
ാരണ	-666
▁പരിശ	-667
പ്പെടുത്ത	-668
കര്‍	-669
ിക്കാന്‍	-670
▁സൗ	-671
▁തിരു	-672
▁വിശ	-673
ടന	-674
▁ജില്ല	-675
യോ	-676
▁കാര്യ	-677
▁എന്ത	-678
മെ	-679
▁തീരുമാന	-680
▁ഒന്ന	-681
ുകയായിരുന്നു	-682
▁അധിക	-683
...	-684
▁മറ	-685
ജെ	-686
▁കേസ	-687
▁ഗു	-688
▁പര	-689
▁റോ	-690
▁തല	-691
▁ശ്രമ	-692
ുമായ	-693
ഖ്യ	-694
വാസ	-695
▁ലോക	-696
▁കുട	-697
▁നടപ	-698
ഭാഗ	-699
ന്മ	-700
ൃത	-701
ീപ	-702
്യൂ	-703
▁വന്ന	-704
▁ആയി	-705
ര്‍ശ	-706
ാനം	-707
ങ്ങളിൽ	-708
▁കൂട്ട	-709
▁വെള്ള	-710
ോധ	-711
▁കൊണ്ട	-712
തായി	-713
ൈന	-714
▁കല	-715
ണിയ	-716
▁‘	-717
ിലാണ്	-718
ീന	-719
ുകളും	-720
▁മാറ്റ	-721
സാ	-722
േക്ക്	-723
▁ടി	-724
▁കഴിയ	-725
▁റിപ്പോ	-726
▁വിവാ	-727
ീകരിക്ക	-728
▁കണ്ടെ	-729
▁പ്രസി	-730
തിനെ	-731
▁5	-732
▁4	-733
▁ബ്ര	-734
േക	-735
ന്‍റെ	-736
▁വര	-737
▁വീട്ട	-738
ീറ്റ	-739
നും	-740
ടുക്ക	-741
▁തുടങ്ങിയ	-742
ൂട്ട	-743
▁അന്വേഷ	-744
▁നല്‍കിയ	-745
▁പോക	-746
▁താ	-747
▁പാര്‍	-748
▁സോ	-749
ൂഹ	-750
ര്‍ച്ച	-751
▁നടന്ന	-752
▁വിള	-753
ീഷ	-754
▁ന്യ	-755
റിച്ച്	-756
▁ഇതി	-757
ിരുന്ന	-758
▁വളരെ	-759
▁മലയാള	-760
▁രാഷ്ട്ര	-761
▁പ്രവർ	-762
▁അറ	-763
ിനി	-764
▁ഇല്ല	-765
▁തന്റെ	-766
▁യൂ	-767
ഭാ	-768
▁അംഗ	-769
രിപ്പ	-770
▁ഉറ	-771
▁കമ്മ	-772
ംബ	-773
മല്ല	-774
ായിരുന്ന	-775
ക്തി	-776
▁ഡോ	-777
▁ലി	-778
ലോ	-779
ര്‍ത്ത	-780
▁കൃ	-781
ട്ടു	-782
ായക	-783
▁സ്ത്ര	-784
▁,	-785
തീ	-786
ര്‍ന്ന	-787
▁നാല	-788
ുമാണ്	-789
▁കോണ്‍	-790
▁സമ്മ	-791
▁വരെ	-792
മോ	-793
ിലൂടെ	-794
▁നല്ല	-795
▁ബിജെ	-796
ഹ്	-797
▁പ്രത്യേക	-798
▁തട	-799
▁മുഖ്യമ	-800
▁ജീവിത	-801
ികളുടെ	-802
ായ്	-803
▁പഠ	-804
▁പിട	-805
▁ഖ	-806
▁രണ്ട്	-807
തിര	-808
▁അടി	-809
ിനു	-810
ലും	-811
▁ടെ	-812
▁നിന്ന	-813
തോടെ	-814
▁വിജയ	-815
ല്ലാം	-816
ൊപ്പം	-817
▁ഗോ	-818
▁മി	-819
▁തിരിച്ച	-820
ുമെന്ന്	-821
ിക്കുക	-822
ൂര	-823
ിയിൽ	-824
രുത	-825
പ്പോഴും	-826
ബു	-827
ിര	-828
▁ജി	-829
േക്ഷ	-830
▁സഹായ	-831
ിലുള്ള	-832
ീല	-833
▁കണ്ണ	-834
▁റെ	-835
െടുക്ക	-836
ഷേ	-837
▁ഇരു	-838
രീക്ഷ	-839
ീം	-840
▁കുടുംബ	-841
▁മുന്‍	-842
▁വിഷ	-843
നായ	-844
▁വ്യക്തമാക്ക	-845
▁ഭാര	-846
▁ഘ	-847
ഞ്ച്	-848
▁പറയുന്നു	-849
കർ	-850
▁മന്ത്രി	-851
▁പോലീസ്	-852
സിന്റെ	-853
▁ക്ല	-854
പെ	-855
താ	-856
▁പ്രശ്	-857
▁പ്രവര്‍ത്ത	-858
▁ഒഴ	-859
േയും	-860
▁19	-861
ത്തരം	-862
▁കഥ	-863
ച്ചി	-864
▁കൂട	-865
▁സ്വാ	-866
▁മാത്രം	-867
ക്കിയ	-868
▁പൊലീസ്	-869
▁പദ്ധ	-870
▁താര	-871
▁സ്ഥാന	-872
പക്ഷ	-873
ഞ്ഞ്	-874
▁പ്രസിഡ	-875
വെ	-876
ര്‍ന്ന്	-877
▁ആരോ	-878
▁ശ്രദ്ധ	-879
രിക	-880
സമ	-881
ദ്യോഗ	-882
ത്മ	-883
▁കോണ്‍ഗ്ര	-884
െന്നു	-885
ത്തിനു	-886
▁നേതൃ	-887
യുള്ള	-888
▁ഭൂ	-889
▁യാത്ര	-890
രിക്കും	-891
▁വയ	-892
ണ്ടും	-893
▁സര്‍ക്കാര്‍	-894
▁ന്യൂ	-895
ോഷ	-896
ത്തിക്ക	-897
രംഭ	-898
▁നിറ	-899
ാകും	-900
▁രംഗ	-901
ക്രട്ട	-902
ണിക്ക	-903
▁ചെയ്യുന്ന	-904
▁സ്ഥാപ	-905
ളം	-906
▁വിശ്	-907
▁ഹൈ	-908
▁മിക	-909
ധ്യമ	-910
▁ജെ	-911
ഷേധ	-912
▁മുമ്	-913
ദം	-914
ാഹ	-915
കാശ	-916
ുത	-917
▁അമ്മ	-918
▁കണ	-919
ജീ	-920
മുണ്ട	-921
▁കൊണ്ട്	-922
▁മാന	-923
▁അവരുടെ	-924
ിരിക്കുന്നത്	-925
പ്പെട്ടു	-926
▁അവർ	-927
ട്ടിയ	-928
▁നേതൃത്വ	-929
ത്തിയത്	-930
േഖല	-931
▁നമ്മ	-932
രോഗ	-933
കളും	-934
ന്തപു	-935
ർത്ത	-936
▁പൂ	-937
▁ഇറ	-938
ുകൊണ്ട	-939
▁സൈ	-940
ര്‍മ	-941
▁സാഹ	-942
▁യോഗ	-943
▁ദിവസം	-944
▁നിങ്ങളുടെ	-945
▁ബു	-946
▁സെക്രട്ട	-947
ചന	-948
▁കോള	-949
▁സ്വന്ത	-950
▁ക്ര	-951
▁കമ്പ	-952
▁അതിന	-953
▁കി	-954
ാണെന്ന്	-955
റും	-956
ുകാര	-957
എം	-958
െങ്കില്‍	-959
▁പ്ല	-960
▁കാരണം	-961
▁തിരഞ്ഞെടു	-962
▁ഇവിടെ	-963
▁അല്ലെങ്കിൽ	-964
ണ്ഡ	-965
ഷ്ണ	-966
ശ്യ	-967
പ്പു	-968
ാഴ്ച	-969
▁നേരി	-970
▁ഇന്ന	-971
▁സേ	-972
▁രോഗ	-973
▁നെ	-974
▁ഓഫ	-975
ത്തിലാണ്	-976
▁ഇന്ന്	-977
▁അവസാന	-978
▁തന്ന	-979
▁പേര	-980
ക്കള	-981
▁ഉട	-982
റോ	-983
▁കോടതി	-984
ർശ	-985
▁ആര്‍	-986
യായ	-987
▁പരിശോധ	-988
▁പാല	-989
▁ഇവ	-990
യായി	-991
▁ദിവസ	-992
രോധ	-993
വനന്തപു	-994
ുകളില്‍	-995
വണ	-996
ാദ	-997
ർച്ച	-998
ുകളുടെ	-999
വുമായി	-1000
▁ചൂ	-1001
ൊക്കെ	-1002
▁6	-1003
▁വേണ്ടി	-1004
ാജ	-1005
ത്തും	-1006
ർന്ന	-1007
▁ലൈ	-1008
▁തിരുവനന്തപു	-1009
കളുടെ	-1010
▁ദേശ	-1011
▁രാഷ്ട്രീയ	-1012
ങ്ങള്‍ക്ക്	-1013
ദേശം	-1014
▁ഉള്ള	-1015
വിന്റെ	-1016
കാല	-1017
ുമ്പോള്‍	-1018
▁പോലെ	-1019
▁വീണ്ടും	-1020
ല്	-1021
റിന്റെ	-1022
ാര്‍ത്ഥ	-1023
ാക്കള	-1024
▁റിപ്പോര്‍	-1025
ുകളിൽ	-1026
▁പോലും	-1027
നിയ	-1028
▁തുറ	-1029
▁ചോദ്യ	-1030
ാലും	-1031
ികളെ	-1032
▁അടുത്ത	-1033
▁ഭരണ	-1034
ഹന	-1035
▁മേഖല	-1036
പര	-1037
▁ആരംഭ	-1038
ത്തോടെ	-1039
▁എന്റെ	-1040
കൂ	-1041
നോ	-1042
▁ഉത്തര	-1043
ിതി	-1044
▁ആരോപ	-1045
▁സാഹച	-1046
പാട	-1047
ീമ	-1048
േക്ക	-1049
ഭാവ	-1050
▁മികച്ച	-1051
▁മഹ	-1052
▁കയ	-1053
▁മനു	-1054
ിട്ടില്ല	-1055
▁സര്‍	-1056
ട്ര	-1057
െടുത്ത	-1058
▁സമീപ	-1059
ഖ്യാപ	-1060
ശ്ച	-1061
മായിരുന്നു	-1062
▁അതേ	-1063
ുമ്പോൾ	-1064
▁നഷ്ട	-1065
▁ആക്രമ	-1066
ന്തി	-1067
▁സമയ	-1068
▁കഴിയും	-1069
ണമെന്ന്	-1070
പ്പി	-1071
ാണ്ട	-1072
▁അധ്യ	-1073
ഭ്യ	-1074
▁തു	-1075
ോളം	-1076
ിക്കുകയും	-1077
▁തയ്യ	-1078
▁വസ്	-1079
ിക്കാന	-1080
▁കൂടുതൽ	-1081
▁എഴു	-1082
വേശ	-1083
▁രക്ഷ	-1084
ിക്	-1085
ത്രം	-1086
ദ്ര	-1087
▁കീ	-1088
▁വിവിധ	-1089
▁ആള	-1090
പ്പിച്ച	-1091
േഴ്	-1092
▁വാര്‍	-1093
രിച്ച്	-1094
▁നിലവ	-1095
▁അഭി	-1096
▁ഏത	-1097
▁തെരഞ്ഞെടു	-1098
▁ഓരോ	-1099
ദ്ദ	-1100
േറ്റ്	-1101
▁ഞാൻ	-1102
ുകൊണ്ട്	-1103
▁വിഭാഗ	-1104
▁പ്രച	-1105
▁ചു	-1106
കട	-1107
▁മീ	-1108
▁നേര	-1109
വിധാന	-1110
▁വിവാഹ	-1111
▁വിക	-1112
▁തൊഴ	-1113
ുന്നത	-1114
▁രീ	-1115
▁പ്രഖ്യാപ	-1116
▁നഗ	-1117
ഗ്രഹ	-1118
വസ	-1119
▁പിന്നീ	-1120
▁സർക്ക	-1121
▁രണ്ടു	-1122
ന്തര	-1123
▁മനുഷ്യ	-1124
▁ചെയ്തി	-1125
▁ജയ	-1126
▁പുറത്ത	-1127
ാണു	-1128
▁എന്‍	-1129
വധി	-1130
▁ജീവ	-1131
▁അനുവ	-1132
▁ബിജെപി	-1133
▁ആശുപ	-1134
ാതി	-1135
യു	-1136
ഡിയോ	-1137
▁7	-1138
രുത്ത	-1139
മില്ല	-1140
ൂല	-1141
▁കിട്ട	-1142
ീകരിച്ച	-1143
▁മാധ്യമ	-1144
▁അതു	-1145
▁കുറ്റ	-1146
▁നാട്ട	-1147
തിയുടെ	-1148
▁തേ	-1149
കളെ	-1150
▁അവര്‍	-1151
▁മുഖ്യമന്ത്രി	-1152
▁സംവിധാന	-1153
തിയില്‍	-1154
▁പഞ്ച	-1155
▁പ്രതിഷേധ	-1156
▁വൈക	-1157
മന്ത്രി	-1158
▁മുൻ	-1159
ങ്ക്	-1160
▁പട്ട	-1161
▁കൊല്ല	-1162
വം	-1163
▁വിവര	-1164
നേ	-1165
ായത്	-1166
▁വിധ	-1167
പ്പെടുത്തിയ	-1168
▁പ്രവർത്ത	-1169
നങ്ങൾ	-1170
കരണ	-1171
▁മത്സര	-1172
തം	-1173
ത്തിലുള്ള	-1174
മാര	-1175
▁10	-1176
ധ്യത	-1177
▁ഫ്ര	-1178
ികളും	-1179
▁ഭക്ഷ	-1180
▁ശക്ത	-1181
▁പിന്ത	-1182
▁ചിത്രം	-1183
▁സ്ത്രീ	-1184
▁നിരവധി	-1185
▁മൂന്ന	-1186
ാർത്ഥ	-1187
000	-1188
കോ	-1189
▁മനസ്സ	-1190
▁കൂടി	-1191
ത്തിലും	-1192
),	-1193
േഷ്	-1194
▁സുരക്ഷ	-1195
▁പരാതി	-1196
▁അല	-1197
മ്പ്	-1198
▁മൊ	-1199
മല	-1200
ുന്നതിന	-1201
ിയാണ്	-1202
▁തെള	-1203
▁ഉള്‍	-1204
▁ഉദ്യോഗ	-1205
▁ഉണ്ട്	-1206
▁ഉദ്	-1207
▁പ്രാ	-1208
ഹു	-1209
ഷണ	-1210
ൃഷ്ട	-1211
▁പാർ	-1212
▁ഹി	-1213
▁അതിന്റെ	-1214
▁അടിസ്ഥാന	-1215
▁ഞാന്‍	-1216
▁അമേ	-1217
▁ഇതിന	-1218
▁വര്‍ഷ	-1219
തമാന	-1220
▁വിമാന	-1221
▁ദേശീയ	-1222
▁അനുവദ	-1223
▁പദ്ധതി	-1224
തീക്ഷ	-1225
▁അഭിന	-1226
ുണ	-1227
ന്‍സ്	-1228
ാലി	-1229
പ്പെടുന്ന	-1230
▁തിരുവനന്തപുരം	-1231
നിക്ക്	-1232
▁വഴി	-1233
ിയിലെ	-1234
പ്പെട്ട്	-1235
▁സന്ദ	-1236
▁വകു	-1237
ളള	-1238
ുമെന്നും	-1239
▁സെക്രട്ടറി	-1240
▁ഇന്ത്യന്‍	-1241
▁പിന്നീട്	-1242
▁തിര	-1243
▁ചോദ	-1244
േയ	-1245
▁സാഹചര്യ	-1246
▁മുതല്‍	-1247
തെ	-1248
ത്തിക	-1249
▁കൂടുതല്‍	-1250
ഷി	-1251
▁തയ്യാറ	-1252
ിട്ട്	-1253
ിയായ	-1254
ന്നി	-1255
▁അമേരിക്ക	-1256
സഭ	-1257
ബ്ര	-1258
ിരിക്കുന്നു	-1259
േരി	-1260
▁:	-1261
▁തൊ	-1262
സോ	-1263
▁മുഴ	-1264
ിനും	-1265
ബ്ദ	-1266
▁ശതമാന	-1267
ാണെന്നും	-1268
▁പൂര്‍	-1269
റില്‍	-1270
വിട	-1271
▁വ്യത്യ	-1272
സ്യ	-1273
ാര്‍ഥ	-1274
▁സാധാരണ	-1275
ജന	-1276
ട്ടം	-1277
▁സിപി	-1278
▁8	-1279
▁സംബന്ധ	-1280
പരി	-1281
ളു	-1282
ടക്ക	-1283
▁സമയം	-1284
▁അറിയിച്ചു	-1285
▁പതി	-1286
കാര്യ	-1287
നില്‍	-1288
▁മറ്റ്	-1289
▁ബെ	-1290
▁ചെറിയ	-1291
▁ലഭിച്ച	-1292
▁കൊല	-1293
▁ഉദ്യോഗസ്ഥ	-1294
▁അവത	-1295
▁വിമ	-1296
ീഡ	-1297
സാര	-1298
േജ്	-1299
ബാ	-1300
ക്യ	-1301
േജ	-1302
▁നേടിയ	-1303
ിക്കു	-1304
ിമു	-1305
േഷൻ	-1306
▁സ്ഥല	-1307
നിന്ന്	-1308
▁മുസ്	-1309
▁വല	-1310
രിൽ	-1311
▁ജില്ലാ	-1312
▁പരിഹ	-1313
നിടെ	-1314
▁മൂന്ന്	-1315
സിന്	-1316
▁ൽ	-1317
വീ	-1318
ാന്	-1319
▁എത്ത	-1320
▁മറ്റൊരു	-1321
▁ചിക	-1322
▁നടക്ക	-1323
▁നടപ്പ	-1324
▁വാഹന	-1325
തല	-1326
ോദ	-1327
▁കോണ്‍ഗ്രസ്	-1328
▁ഇപ്പോള്‍	-1329
▁നൽകിയ	-1330
▁ആക	-1331
▁ഏക	-1332
▁പ്രസിഡന്റ്	-1333
al	-1334
▁കോഴ	-1335
ഗണ	-1336
▁എക്	-1337
ള്ളി	-1338
ഹമ്മ	-1339
െയുള്ള	-1340
ണമെന്ന	-1341
▁ഉൾ	-1342
േഷന്‍	-1343
ക്കുറിച്ച്	-1344
▁വിശദ	-1345
▁അപകട	-1346
▁മാത്രമല്ല	-1347
▁മാത	-1348
▁അവിടെ	-1349
മാക	-1350
മായും	-1351
▁ഇനി	-1352
ർന്ന്	-1353
വല	-1354
▁പോയി	-1355
▁അഞ്ച	-1356
ടങ്ങ	-1357
തിന്റെ	-1358
ക്കോ	-1359
ിലോ	-1360
▁തുടര്‍ന്ന്	-1361
▁നഗര	-1362
▁കോടി	-1363
തില്‍	-1364
ാണി	-1365
▁സർ	-1366
▁ബ്ല	-1367
പോലെ	-1368
▁ആത്മ	-1369
കൊ	-1370
ുള്ളത്	-1371
▁സൃഷ്ട	-1372
▁ആരോഗ	-1373
▁9	-1374
▁പോയ	-1375
രിക്കുന്ന	-1376
▁രേഖ	-1377
ൈവ	-1378
െയി	-1379
▁ആർ	-1380
▁അയ	-1381
▁സ്വദേശ	-1382
രാധ	-1383
ച്ഛ	-1384
▁കോൺ	-1385
▁ഏറെ	-1386
തിയെ	-1387
▁കണക്ക	-1388
▁ജീവന	-1389
▁ഡ്ര	-1390
ില്ലെന്ന്	-1391
ശ്ര	-1392
▁രാവ	-1393
ഹൃ	-1394
▁നടത്തി	-1395
ിത്സ	-1396
▁സാമ	-1397
്ട്ര	-1398
ിച്ചിരുന്നു	-1399
▁കിട	-1400
▁പഴ	-1401
▁ബാധ	-1402
▁ശ്രീ	-1403
▁നയ	-1404
സില്‍	-1405
▁ശരീ	-1406
▁ചരി	-1407
ീത	-1408
▁സംഘടന	-1409
▁കര	-1410
ോട്ട്	-1411
കല	-1412
▁വിഷയ	-1413
▁ജോലി	-1414
വരെ	-1415
▁സാധ്യത	-1416
▁സ്വന്തം	-1417
▁പ്രതീക്ഷ	-1418
▁സുപ്ര	-1419
▁രണ്ടാം	-1420
▁പൂർ	-1421
▁ചര്‍ച്ച	-1422
ങ്ങളാണ്	-1423
തെന്ന്	-1424
കുമ	-1425
▁എത്തിയ	-1426
▁ഒരാ	-1427
▁നടപടി	-1428
▁ശി	-1429
▁മത	-1430
▁താമ	-1431
സമയം	-1432
ുന്നുണ്ട്	-1433
േള	-1434
▁സാമ്പ	-1435
▁അങ്ങനെ	-1436
ാവുന്ന	-1437
▁12	-1438
▁ചികിത്സ	-1439
▁തര	-1440
▁അന്ത	-1441
▁ഒഴിവ	-1442
▁ഭാര്യ	-1443
ജ്ഞ	-1444
▁15	-1445
ക്കൊ	-1446
ജു	-1447
▁പ്രവേശ	-1448
▁പൊതു	-1449
▁സത്യ	-1450
ക്കാല	-1451
▁തൃ	-1452
▁ബാല	-1453
ങ്ങന	-1454
▁ഊ	-1455
രുവ	-1456
സില	-1457
▁സമൂഹ	-1458
▁വരുന്ന	-1459
സു	-1460
ിക്കാ	-1461
▁എന്നു	-1462
▁വിദേശ	-1463
▁എന്നാണ്	-1464
▁കണ്ടെത്ത	-1465
▁തമ്മ	-1466
▁പ്രദേശ	-1467
▁സംരക്ഷ	-1468
ക്കെതിരെ	-1469
ടിപ്പ	-1470
▁വ്യക്തി	-1471
▁വാര്‍ത്ത	-1472
▁ഹോ	-1473
ൂറ	-1474
▁കൂടാതെ	-1475
▁ക്യാ	-1476
ക്കേ	-1477
ശേഷ	-1478
▁ലീ	-1479
ിക്കേണ്ട	-1480
പ്പെടെ	-1481
കുട്ട	-1482
▁അനുഭവ	-1483
മീ	-1484
▁ഇത്തരം	-1485
▁പിന്തുണ	-1486
ാനി	-1487
ഫോ	-1488
പ്പെടുത്തി	-1489
▁ക്ഷ	-1490
▁മുമ്പ്	-1491
▁പ്രസ	-1492
▁തുടങ്ങി	-1493
▁പക്ഷേ	-1494
തന്ത്ര	-1495
▁അര	-1496
ണമെന്നും	-1497
ിക്കൊ	-1498
▁സന്ത	-1499
▁ആശുപത്ര	-1500
മുഖ	-1501
▁ചെല	-1502
ക്കുള്ള	-1503
ായം	-1504
▁ന്	-1505
▁ആഗ്രഹ	-1506
▁ശേഷ	-1507
ടുവ	-1508
ദന	-1509
▁പരീക്ഷ	-1510
കളില്‍	-1511
ത്തിനും	-1512
▁ഇൻ	-1513
▁ക്രി	-1514
ണു	-1515
▁“	-1516
▁കുമ	-1517
ാന്ധ	-1518
▁വ്യാപ	-1519
പ്പുറ	-1520
ാഫ	-1521
ൗര	-1522
ംഗ്ല	-1523
ത്തിച്ച	-1524
ൽപ്പ	-1525
▁ആരാധ	-1526
▁പക	-1527
ിരിക്കുന്ന	-1528
സിന	-1529
ർമ	-1530
▁മുഴുവ	-1531
ൊന്നും	-1532
ക്കുറ	-1533
▁ക്ഷേ	-1534
▁പുന	-1535
േത	-1536
▁മുതൽ	-1537
▁നടക്കുന്ന	-1538
▁വാങ്ങ	-1539
▁മോഹ	-1540
ീകരണ	-1541
വ്വ	-1542
▁പക്ഷ	-1543
ുമില്ല	-1544
ക്ഷേപ	-1545
ഷൻ	-1546
▁താരം	-1547
▁മക	-1548
▁ഡയ	-1549
ാറ്റ	-1550
സിയ	-1551
▁നിയന്ത്ര	-1552
പ്ല	-1553
▁സാമ്പത്തിക	-1554
ഖ്	-1555
▁മാര്‍	-1556
▁വിവ	-1557
▁താഴ	-1558
തിക	-1559
▁എൻ	-1560
▁കര്‍	-1561
നായി	-1562
▁കാര്‍	-1563
പ്പില്‍	-1564
ങ്ങളിലും	-1565
ഷക	-1566
▁തോന്ന	-1567
▁കമ്മി	-1568
▁ലക്ഷം	-1569
▁ലെ	-1570
ാസ്ത്ര	-1571
▁ആദ്യം	-1572
▁വീഡിയോ	-1573
▁ചെന്ന	-1574
▁ക്യ	-1575
▁മനോ	-1576
സൈ	-1577
ുമെന്ന	-1578
▁200	-1579
തിയിൽ	-1580
▁ചുമ	-1581
▁മരണ	-1582
▁നമ്മുടെ	-1583
ഡോ	-1584
▁ഓഫ്	-1585
▁കൂടിയ	-1586
▁ഇപ്പോൾ	-1587
▁പറയുന്നത്	-1588
ണറ	-1589
ത്തിലേക്ക്	-1590
നില	-1591
യിലും	-1592
▁അന്വേഷണ	-1593
▁അവള	-1594
▁വ്യക്തമാക്കി	-1595
നാണ്	-1596
▁രാവിലെ	-1597
ദിന	-1598
▁തമി	-1599
▁ഫെ	-1600
▁രാഹു	-1601
▁മണിക്ക	-1602
വാദ	-1603
ക്കാര്‍	-1604
▁ഉന്ന	-1605
▁നവ	-1606
▁പണം	-1607
പ്പെടുന്നു	-1608
▁മറുപ	-1609
ട്ടെ	-1610
▁മാസ	-1611
▁സംഗ	-1612
▁അതേസമയം	-1613
▁കേസ്	-1614
▁ടോ	-1615
▁കൗ	-1616
▁അവതരിപ്പ	-1617
▁എങ്ങനെ	-1618
ശ്ശ	-1619
▁കോഴിക്ക	-1620
▁സ്പ	-1621
▁ഫല	-1622
▁തൊഴില	-1623
▁ഔ	-1624
പാട്	-1625
▁ഹെ	-1626
രേന്ദ്ര	-1627
▁മരിച്ച	-1628
▁എതി	-1629
േസ്	-1630
▁നേരത്തെ	-1631
▁ജനറ	-1632
....	-1633
യര്‍	-1634
▁എഫ്	-1635
ാടക	-1636
20	-1637
സേ	-1638
▁സുപ്രീം	-1639
▁വേണം	-1640
ഷന്‍	-1641
ചി	-1642
െയ്യ	-1643
▁വായ	-1644
മസ്	-1645
▁നല്‍കി	-1646
കരമായ	-1647
യിലാണ്	-1648
▁മെഡ	-1649
▁എല്ലാവ	-1650
▁ഉറപ്പ	-1651
ല്യ	-1652
▁ഓഫീസ	-1653
▁സഭ	-1654
▁കരു	-1655
▁മറ്റു	-1656
പാത	-1657
ുകളെ	-1658
ഹമ്മദ്	-1659
ുവരെ	-1660
ായും	-1661
ധു	-1662
▁വസ്തു	-1663
ത്തിനെ	-1664
സ്റ്റി	-1665
ോടതി	-1666
▁റിപ്പോര്‍ട്ട്	-1667
▁അഭിപ്ര	-1668
▁എത്ര	-1669
▁ഫാ	-1670
ക്ഷി	-1671
ൻസ്	-1672
▁റ്റ	-1673
ിലി	-1674
▁സർക്കാർ	-1675
ൻഡ്	-1676
വരുടെ	-1677
▁മൂന്നു	-1678
▁ഇക്കാര	-1679
സ്വ	-1680
രുമ	-1681
പ്പറ	-1682
▁ആരോഗ്യ	-1683
▁പ്രശ	-1684
▁മന്ത്ര	-1685
ില്ലെന്നും	-1686
വരും	-1687
േണ്ടി	-1688
തെന്നും	-1689
ാക്കുന്ന	-1690
▁അധ്യക്ഷ	-1691
ുമുള്ള	-1692
ഘാട	-1693
▁മാറ	-1694
രുദ്ധ	-1695
എഫ്	-1696
▁പ്രൊ	-1697
▁വർഷ	-1698
റിഞ്ഞ	-1699
▁മഴ	-1700
ാവി	-1701
ക്കായി	-1702
ാഭ്യ	-1703
▁കുഞ്ഞ	-1704
▁ചോദ്യം	-1705
▁ആല	-1706
ബൈ	-1707
ാനാണ്	-1708
ല്‍ഹി	-1709
▁എങ്ക	-1710
ഘോഷ	-1711
▁സംസാര	-1712
▁കാർ	-1713
▁ഉപയോഗിച്ച്	-1714
▁സീ	-1715
നങ്ങള്‍	-1716
ിക്കല്‍	-1717
▁കോൺഗ്ര	-1718
ജീവ	-1719
▁പീഡ	-1720
ാവും	-1721
ടുത്തു	-1722
▁വോട്ട	-1723
നീ	-1724
▁പഞ്ചായ	-1725
ഴി	-1726
▁കോട്ട	-1727
▁മണ്ഡ	-1728
▁പ്രോ	-1729
ബരി	-1730
ശേഷം	-1731
▁ചെയ്തത്	-1732
െടുത്തു	-1733
ാക്കള്‍	-1734
▁വെള്ളം	-1735
രാജ	-1736
ായിക	-1737
▁ഇര	-1738
▁വര്‍ഷം	-1739
തിൽ	-1740
▁11	-1741
▁നടപട	-1742
▁എല്‍	-1743
ിയോ	-1744
▁പ്രിയ	-1745
ുവന്ന	-1746
▁ദിന	-1747
ർട്ട്	-1748
മാര്‍	-1749
ത്തേ	-1750
▁ഡോക്ട	-1751
ിക്കെ	-1752
ഗത	-1753
▁ടീമ	-1754
ിട്ടും	-1755
▁നിർമ്മ	-1756
ുപോ	-1757
▁പ്രധാനമന്ത്രി	-1758
ൃഷ്ണ	-1759
▁വീട	-1760
രിക്കുന്നത്	-1761
▁സംശ	-1762
ാരാ	-1763
ിക്കാം	-1764
▁കൊച്ചി	-1765
▁ഗാന്ധ	-1766
ശി	-1767
ിപ്പിച്ച	-1768
ീകരണം	-1769
ത്തിനായി	-1770
▁ഹൈക്ക	-1771
ദ്ദേശ	-1772
▁അവകാശ	-1773
▁സ്വീകരിക്ക	-1774
ീവ്	-1775
▁ചെയ്യും	-1776
▁മാത്രമാണ്	-1777
ത്തിറ	-1778
▁വനി	-1779
▁പിന്നാല	-1780
▁ആദ	-1781
ട്ടോ	-1782
രുത്	-1783
▁സ്വകാര്യ	-1784
▁സോഷ്യ	-1785
ൊന്ന	-1786
▁അര്‍	-1787
▁അപേക്ഷ	-1788
▁ഇന്റ	-1789
▁പുറത്തു	-1790
▁വ്യത്യസ്ത	-1791
▁ഭീക	-1792
▁നേട	-1793
രമായ	-1794
▁അഴ	-1795
ടക	-1796
▁തന്നെയാണ്	-1797
▁പരിശോധന	-1798
▁ഹിന്ദ	-1799
െല്ലാം	-1800
സെ	-1801
▁കീഴ	-1802
▁നേരിട	-1803
▁വികസ	-1804
▁പേര്‍	-1805
റാ	-1806
in	-1807
▁ഒറ്റ	-1808
▁വാർ	-1809
▁എന്നും	-1810
▁വൃ	-1811
▁സംഭവം	-1812
ക്കൾ	-1813
▁പിന്നെ	-1814
ാഗ്	-1815
ടം	-1816
▁ശബരി	-1817
▁ഉദ്ഘാട	-1818
ൽക്ക	-1819
ാവശ്യ	-1820
▁ദൃ	-1821
▁ചെയ്യുന്നു	-1822
▁ഉദ	-1823
▁പെണ്‍	-1824
▁അധികൃത	-1825
ന്ത്	-1826
ുണ്ടായ	-1827
▁മാത്രമേ	-1828
യിലേക്ക്	-1829
▁കാര്യം	-1830
▁നില്‍	-1831
ുമതി	-1832
യർ	-1833
▁കെട്ടി	-1834
▁ചരിത്ര	-1835
▁ഗ്രാമ	-1836
ങ്ങൾക്ക്	-1837
ബര്‍	-1838
▁ചെറു	-1839
▁മനസ്സില	-1840
ുദ്ധ	-1841
▁കാരണ	-1842
▁സംവിധാനം	-1843
ാളി	-1844
▁ചൂണ്ട	-1845
ിക്കൽ	-1846
നിൽ	-1847
▁ചാ	-1848
▁ആന	-1849
ാകുന്ന	-1850
▁കുറഞ്ഞ	-1851
▁പരിഗണ	-1852
▁ഇന്‍	-1853
േദ	-1854
ജ്ജ	-1855
ിരുന്നത്	-1856
ിട്ടുണ്ട	-1857
പ്പെട്ടി	-1858
▁ശബരിമല	-1859
▁മോഡ	-1860
▁നാള	-1861
▁ജല	-1862
▁ഡെ	-1863
▁ഇഷ്ട	-1864
▁എന്നീ	-1865
▁വിവാദ	-1866
▁സാമൂഹ	-1867
▁ശതമാനം	-1868
▁ട്	-1869
▁ഇസ്	-1870
ുമോ	-1871
റിൽ	-1872
കളിൽ	-1873
▁കൂടെ	-1874
▁യഥ	-1875
▁ആയിരുന്നു	-1876
ണ്ണം	-1877
er	-1878
▁വിശ്വാസ	-1879
ത്തേക്ക്	-1880
▁നിങ്ങൾക്ക്	-1881
▁ഇവര്‍	-1882
▁മാസം	-1883
▁റോഡ	-1884
ൗണ്ട	-1885
▁നടത്തുന്ന	-1886
▁വിത	-1887
റ്റിയ	-1888
▁സര്‍ക്കാരി	-1889
▁കമ	-1890
▁വിദ്യാഭ്യ	-1891
ിരിക്കുകയാണ്	-1892
▁ഗ്രൂ	-1893
▁അക	-1894
ക്സ	-1895
ലില്‍	-1896
▁അന്വേഷണം	-1897
ല്ലോ	-1898
ത്വം	-1899
ങ്ങളിലെ	-1900
▁ബന്ധപ്പെട്ട	-1901
▁തമിഴ്	-1902
▁നീക്കം	-1903
▁ശരിയ	-1904
▁കമ്പന	-1905
മാരുടെ	-1906
▁സമര	-1907
▁നമ്പ	-1908
റിന്	-1909
▁ഇടപെ	-1910
▁വെളി	-1911
ായിട്ട	-1912
പ്റ്റ	-1913
▁സ്വയം	-1914
▁ബുദ്ധ	-1915
ിക്കുകയ	-1916
▁സമ്പ	-1917
ാസം	-1918
ധികം	-1919
▁അഭിനയ	-1920
▁ശരീര	-1921
▁തുടങ്ങ	-1922
▁ചൊ	-1923
▁പൗര	-1924
▁മീഡിയ	-1925
▁അവരെ	-1926
▁സംവിധ	-1927
▁തവണ	-1928
ജയ	-1929
ിച്ചും	-1930
▁അറസ്റ്റ്	-1931
▁പോസ്റ്റ	-1932
▁മോദി	-1933
▁പ്രണ	-1934
രന്‍	-1935
▁ഇന്നലെ	-1936
▁സുഹൃ	-1937
▁25	-1938
▁ഷോ	-1939
▁കമ്മീഷ	-1940
ുമു	-1941
▁കോഴിക്കോട്	-1942
▁താമസ	-1943
ബ്ല	-1944
ടുത്ത്	-1945
ഗം	-1946
▁നാല്	-1947
ാവസ്ഥ	-1948
ാക്കൾ	-1949
ലിന്റെ	-1950
▁സഹോദ	-1951
ാലയ	-1952
▁ശക്തമായ	-1953
സ്ട്ര	-1954
▁നൂ	-1955
▁കഴി	-1956
▁നേതാവ്	-1957
ില്ലാത്ത	-1958
▁പട്ടിക	-1959
▁നിന്നു	-1960
തില	-1961
ാപാത്ര	-1962
▁തീരുമാനം	-1963
▁സൂചന	-1964
▁ചീ	-1965
▁കാഴ്ച	-1966
▁ലാ	-1967
▁വർഷം	-1968
▁മാർ	-1969
ീഷ്	-1970
▁രാത്രി	-1971
▁പരിശീല	-1972
▁അവസ്ഥ	-1973
▁മുഹമ്മദ്	-1974
▁മൈ	-1975
ുമ്പോഴ	-1976
യോടെ	-1977
മാക്കി	-1978
ിക്കുകയായിരുന്നു	-1979
ലൈ	-1980
▁പുറത്തിറ	-1981
ികള്‍ക്ക്	-1982
▁പാര്‍ട്ടി	-1983
▁നിര്‍മ്മ	-1984
▁ആൻഡ്	-1985
കെ	-1986
▁അമി	-1987
തിനു	-1988
▁വരു	-1989
▁18	-1990
ൊക്ക	-1991
ങ്ങ്	-1992
ടിച്ച്	-1993
ര്‍ശന	-1994
ിച്ചിട്ടുണ്ട്	-1995
ക്സ്	-1996
▁ഇതു	-1997
സൂ	-1998
ിയത്	-1999
▁മിനി	-2000
▁വിപ	-2001
ശ്വാസ	-2002
▁എണ്ണ	-2003
▁ഭാ	-2004
▁സൗകര	-2005
▁തുടർന്ന്	-2006
▁പുര	-2007
▁ദുര	-2008
ളയ	-2009
ദ്ധ്യ	-2010
ക്കുന്നത്	-2011
ത്തിലൂടെ	-2012
വര്‍ത്ത	-2013
ന്മാര	-2014
ിയായി	-2015
▁ഇല	-2016
ിക്കണം	-2017
▁എല്ലാം	-2018
▁മുംബ	-2019
▁കുറിച്ച്	-2020
ൃദ	-2021
▁എനിക്ക്	-2022
▁കിലോ	-2023
സിൽ	-2024
▁അഞ്ച്	-2025
▁ആയ	-2026
ാക്കാൻ	-2027
▁സംഘം	-2028
ുകൂല	-2029
ിനെതിരെ	-2030
▁സമയത്ത്	-2031
▁കന	-2032
▁ജൂ	-2033
ala	-2034
30	-2035
ഥ്	-2036
ൂട്ടി	-2037
ിക്കാനുള്ള	-2038
▁ഭീഷ	-2039
റ്റില്‍	-2040
ളവ	-2041
▁വന്നു	-2042
സും	-2043
▁ചൈന	-2044
ക്കുന്നു	-2045
▁കരുത	-2046
ക്കാർ	-2047
▁ചെയ്ത്	-2048
▁പിണറ	-2049
പ്പാ	-2050
▁ഇന്ത്യൻ	-2051
▁നായക	-2052
▁രക്ത	-2053
ചെയ്യ	-2054
ക്കാന്‍	-2055
▁നായ	-2056
▁നന്ന	-2057
▁പുല	-2058
ുവെ	-2059
▁അബ്ദ	-2060
ധിപ	-2061
▁ബൈ	-2062
സ്സ്	-2063
▁ഞങ്ങൾ	-2064
▁സംവിധായക	-2065
▁പ്രദ	-2066
തിനാല്‍	-2067
▁വിവരം	-2068
▁വാക്ക	-2069
▁ആവശ്യമ	-2070
മ്പര	-2071
മം	-2072
വിള	-2073
▁മുംബൈ	-2074
▁ഒരിക്ക	-2075
▁പ്രായ	-2076
യാള്‍	-2077
▁കൃത്യ	-2078
,000	-2079
▁ഉടമ	-2080
▁മുഖ്യമന്ത്ര	-2081
▁കഥാപാത്ര	-2082
▁ഫേസ്	-2083
▁അറസ്റ്റ	-2084
▁ഇത്തര	-2085
▁ക്ഷേത്ര	-2086
▁പലപ്പോഴും	-2087
▁എന്നെ	-2088
രാണ്	-2089
▁പ്രതിരോധ	-2090
ഹിത	-2091
▁ഫോട്ട	-2092
രായ	-2093
ർട്ട	-2094
ീര്‍	-2095
▁പാക	-2096
രുന്ന്	-2097
▁പ്രതിക	-2098
▁പണ	-2099
▁പാട	-2100
▁റണ്‍	-2101
▁ദേവ	-2102
ിച്ചുള്ള	-2103
േര്‍	-2104
രിക്കുന്നു	-2105
▁ഇംഗ്ല	-2106
ീർ	-2107
തിരായ	-2108
▁സൂക്ഷ	-2109
▁പത്ത	-2110
ബോ	-2111
▁നിന്നുള്ള	-2112
▁ശിവ	-2113
▁റഷ്യ	-2114
ഗോ	-2115
▁14	-2116
രുന്നത്	-2117
▁മുമ്പ	-2118
▁സമ്മേള	-2119
ുമെന്നാണ്	-2120
▁വഹ	-2121
▁ആണ	-2122
രിത	-2123
▁സ്ഥാപന	-2124
ത്തം	-2125
▁വിട്ട	-2126
▁കഴിയുന്ന	-2127
▁കൂള	-2128
▁ബാങ്ക	-2129
ലാ	-2130
▁സൂപ്പ	-2131
▁ക്രിക്ക	-2132
▁ക്ക	-2133
▁തകര്‍	-2134
േഷന	-2135
▁തീവ	-2136
▁മദ്യ	-2137
▁അക്രമ	-2138
നിര	-2139
▁സ്ഥിര	-2140
▁ഇങ്ങനെ	-2141
ിലായി	-2142
an	-2143
▁പ്രതിപക്ഷ	-2144
▁30	-2145
ക്രിയ	-2146
ഷിക	-2147
എല്‍	-2148
ാര്യ	-2149
ിക്കറ്റ്	-2150
▁ഏത്	-2151
പ്പെട്ടത്	-2152
▁അച്ഛ	-2153
▁അഭിപ്രായ	-2154
▁പെട്ട	-2155
ുകളാണ്	-2156
▁സംസ്	-2157
▁രജി	-2158
▁ആഘോഷ	-2159
▁ദില	-2160
▁വൈദ്യ	-2161
▁ഉദ്ഘാടനം	-2162
▁അമ	-2163
▁നമു	-2164
ഫി	-2165
യുണ്ട	-2166
ാരാഷ്ട്ര	-2167
▁പെൺ	-2168
ളിത	-2169
▁പരിപാ	-2170
▁തോമസ്	-2171
ിയ്	-2172
▁നീണ്ട	-2173
വുമ	-2174
▁തടയ	-2175
▁അല്‍	-2176
ര്‍പ്പ	-2177
▁അക്ക	-2178
▁പകരം	-2179
ക്കള്‍	-2180
▁പരിച	-2181
പ്രദ	-2182
▁പച്ച	-2183
▁വൈറ	-2184
▁ഭാഗമായി	-2185
▁ബിജെപ	-2186
ംസ	-2187
▁പൊലീസ	-2188
▁ഉണ്ടാക	-2189
▁രംഗത്തെ	-2190
മെന്റ്	-2191
യ്ക്കു	-2192
ലക്ഷ	-2193
▁M	-2194
മ്പ്യ	-2195
ിറ	-2196
▁ഉച്ച	-2197
ത്തിനുള്ള	-2198
▁ഒന്നും	-2199
▁ഡയറ	-2200
▁പതിന	-2201
▁എത്തി	-2202
സര്‍	-2203
▁സഞ്ച	-2204
▁തെറ്റ	-2205
▁പേര്	-2206
▁തെളിവ	-2207
▁കാത്തി	-2208
▁സര്‍വ	-2209
▁ബീ	-2210
▁ഭാഷ	-2211
▁പറഞ്ഞത്	-2212
ുന്നതിന്	-2213
ക്കുക	-2214
▁നോട്ട	-2215
സിപ്പ	-2216
ിക്കാനും	-2217
▁പേരില്‍	-2218
▁ചർച്ച	-2219
ാനെ	-2220
ാന്ത	-2221
▁ഹോട്ട	-2222
▁ഒരേ	-2223
ാക്കാന്‍	-2224
▁സങ്ക	-2225
കരണം	-2226
നിന്ന	-2227
ാണെന്ന	-2228
വ്യ	-2229
ട്ടില്‍	-2230
▁മൃത	-2231
▁പഴയ	-2232
ലുകൾ	-2233
▁ഭീകര	-2234
ിച്ചാണ്	-2235
▁അധികാര	-2236
▁പോരാ	-2237
▁മണ്ഡല	-2238
▁മറുപടി	-2239
▁പുസ്ത	-2240
▁വിട	-2241
പ്രവര്‍ത്ത	-2242
ക്ടര്‍	-2243
ടുത്തി	-2244
▁പൈ	-2245
▁ക്രമ	-2246
യുമായി	-2247
തുമ	-2248
▁ഫോണ	-2249
▁വിലയി	-2250
ന്‍ഡ	-2251
ത്തിന്‍റെ	-2252
▁തങ്ങളുടെ	-2253
ല്‍ക്ക	-2254
ാവന	-2255
▁16	-2256
ോടൊപ്പം	-2257
മുണ്ട്	-2258
തന്നെ	-2259
വൈ	-2260
▁പോലീസ	-2261
▁മാറി	-2262
ത്തോളം	-2263
▁ശക്തി	-2264
▁താന്‍	-2265
മന	-2266
▁സീറ്റ	-2267
ാണോ	-2268
▁ജോസ	-2269
▁വിദ്യാഭ്യാസ	-2270
ളിച്ച	-2271
ുകൂ	-2272
▁കേരളത്തിലെ	-2273
പറ	-2274
ുകാര്‍	-2275
▁നിരീക്ഷ	-2276
▁പശ്ച	-2277
മാവ	-2278
▁ജീവിതം	-2279
▁അവൻ	-2280
ോടു	-2281
▁എന്നി	-2282
▁വിദ	-2283
സന്ധ	-2284
▁പിണറായി	-2285
▁അവളുടെ	-2286
▁സൈന	-2287
▁നിരോധ	-2288
യായിരുന്നു	-2289
ിക്കുന്നതിന	-2290
ര്‍ത്തി	-2291
▁ന്യൂഡ	-2292
▁അർ	-2293
▁പ്രകാരം	-2294
▁അവൾ	-2295
നിക	-2296
▁വിദ്യാര്‍ത്ഥ	-2297
▁മുഖ്യ	-2298
കുതി	-2299
▁റിയ	-2300
▁പുറത്ത്	-2301
ടക്കം	-2302
▁പാര്‍ട്ട	-2303
▁കേസില്‍	-2304
▁മുറ	-2305
▁അടിയ	-2306
▁ചെയ്യുന്നത്	-2307
പ്യ	-2308
സ്റ്റര്‍	-2309
▁മാറ്റി	-2310
ികൂ	-2311
ാംഗ	-2312
ക്കാൻ	-2313
ഭൂ	-2314
വര്‍ക്ക്	-2315
▁ചടങ്ങ	-2316
ദാ	-2317
▁വകുപ്പ്	-2318
ുല	-2319
▁രാജ്യത്തെ	-2320
ത്തുന്ന	-2321
▁വധ	-2322
▁പ്രമുഖ	-2323
▁വകുപ്പ	-2324
ക്കാട്	-2325
ളുപ്പ	-2326
▁പത്ര	-2327
▁വികസന	-2328
▁സംശയ	-2329
വസ്ഥ	-2330
▁ആക്രമണ	-2331
ശു	-2332
▁എന്നിവര്‍	-2333
പ്പുഴ	-2334
▁നരേന്ദ്ര	-2335
ബർ	-2336
ിട്ടുള്ള	-2337
▁ഉമ്മ	-2338
▁ഇന	-2339
▁പിന്നാലെ	-2340
▁മാതൃ	-2341
▁മണ	-2342
സർ	-2343
ുതി	-2344
▁മമ്മ	-2345
▁ഫി	-2346
▁ഒപ്പം	-2347
ൃതി	-2348
▁റൂ	-2349
▁ചന്ദ്ര	-2350
ര്‍മ്മ	-2351
സ്മ	-2352
ട്രോ	-2353
▁ഇതിന്	-2354
സരിച്ച്	-2355
ല്‍പ്പ	-2356
▁–	-2357
▁സിപിഎം	-2358
ക്കിട	-2359
▁ഇടപെട	-2360
▁ള	-2361
േറെ	-2362
▁ടാ	-2363
▁പ്രസംഗ	-2364
▁|	-2365
യ്ക്കും	-2366
▁പിടിച്ച	-2367
▁മൃതദേഹ	-2368
▁റാ	-2369
ാപക	-2370
വാസം	-2371
▁13	-2372
പ്പുറം	-2373
▁ടീ	-2374
ട്ടും	-2375
▁ചെയ്യാൻ	-2376
ത്തുട	-2377
▁ഇതുവരെ	-2378
വന്‍	-2379
▁തുക	-2380
).	-2381
▁കണ്ടു	-2382
▁കോടിയ	-2383
▁പരിക്ക	-2384
▁സ്ഥിതി	-2385
ംസ്	-2386
▁നാം	-2387
▁പുരു	-2388
ലിൽ	-2389
▁നേതൃത്വം	-2390
ണാക	-2391
▁എന്നത്	-2392
▁ഹിന്ദു	-2393
ുകളിലും	-2394
▁ഇതോടെ	-2395
▁സജീവ	-2396
വിന്	-2397
ുമായിരുന്നു	-2398
▁മട	-2399
▁്	-2400
▁വന്‍	-2401
▁എടുക്ക	-2402
വുമായ	-2403
▁കയ്യ	-2404
▁സ്കൂ	-2405
ചക	-2406
on	-2407
▁അഡ്	-2408
▁ഇപ്പോഴും	-2409
▁യാ	-2410
▁ഉയർന്ന	-2411
▁കുഴ	-2412
▁പട	-2413
മന്ത്ര	-2414
കാരം	-2415
▁പ്ലാ	-2416
▁യുവതി	-2417
ർമ്മ	-2418
ുവരി	-2419
▁ലൈംഗ	-2420
▁നടപടിയ	-2421
▁പരാജയ	-2422
▁കൊലപാത	-2423
േന്ദ്ര	-2424
▁കാറ	-2425
ിയുള്ള	-2426
ശ്മീ	-2427
▁ബന്ധപ്പെട്ട്	-2428
▁പോസ്റ്റ്	-2429
ാരായ	-2430
ജ്യ	-2431
▁വര്‍ധ	-2432
പ്രതി	-2433
▁പരാമ	-2434
▁ശൈ	-2435
▁...	-2436
ീറ്റർ	-2437
▁ഞെ	-2438
േറിയ	-2439
സ്പ	-2440
▁17	-2441
ഗി	-2442
ിച്ചിരുന്ന	-2443
▁തീവ്ര	-2444
▁പ്രേ	-2445
▁പദ	-2446
▁വരും	-2447
ീപ്	-2448
മാർ	-2449
▁പ്രവ	-2450
ങ്ങുന്ന	-2451
▁സ്ത്രീക	-2452
ാധിപ	-2453
റുകൾ	-2454
▁ശിക്ഷ	-2455
പ്പിൽ	-2456
▁കല്ല	-2457
▁ഉത്	-2458
▁നിശ്ച	-2459
▁നേതാക്കള	-2460
▁സാം	-2461
▁ചൂണ്ടിക്കാ	-2462
▁ധന	-2463
▁രാമ	-2464
ന്‍സ	-2465
▁നടി	-2466
▁നന്ദ	-2467
ഷന	-2468
ായിരിക്കും	-2469
▁നൽകി	-2470
രമ	-2471
▁നിലപാട	-2472
▁ദൈവ	-2473
▁ഇന്ത്യയുടെ	-2474
▁ഭക്ഷണ	-2475
ാമറ	-2476
▁ഒന്നാം	-2477
മിന	-2478
▁ചല	-2479
▁പ്രതിനി	-2480
▁ഉപകരണ	-2481
ഹം	-2482
▁പറയുന്ന	-2483
▁വിധി	-2484
പ്പെടുന്നത്	-2485
ങ്കേ	-2486
ത്തിക്കുന്ന	-2487
▁സേവന	-2488
▁കണ്ടെത്തിയ	-2489
▁സ്വപ്	-2490
്രോ	-2491
നിട	-2492
ാർഥ	-2493
▁മോഹന്‍	-2494
മാറ്റ	-2495
▁വീട്ടിൽ	-2496
▁ഹാജ	-2497
▁സന്	-2498
▁ഷാ	-2499
▁മൂല	-2500
▁യുദ്ധ	-2501
സഭാ	-2502
▁പിടികൂ	-2503
▁നാട	-2504
ക്കിന്	-2505
▁പക്ഷെ	-2506
ാനാവ	-2507
▁തെരഞ്ഞെടുപ്പ്	-2508
▁നേരെ	-2509
ങ്ങനെയ	-2510
▁ഹൃദ	-2511
▁എന്നതാണ്	-2512
ിക്കപ്പെട്ട	-2513
▁ബിസിന	-2514
▁നിലപാട്	-2515
ോഗ്ര	-2516
▁ഉദാഹ	-2517
▁ഉത്ത	-2518
▁കൊച്ച	-2519
▁അത്യ	-2520
പരമായ	-2521
▁ഫോട്ടോ	-2522
ew	-2523
ുളള	-2524
▁റില	-2525
▁ലൈംഗിക	-2526
▁അദ്ദേഹത്തിന്റെ	-2527
▁നോക്ക	-2528
വിശേഷ	-2529
സംഘ	-2530
▁സൈനിക	-2531
▁നീക്ക	-2532
▁ചെലവ	-2533
▁രീതി	-2534
േണ്ടത്	-2535
▁മൊബൈ	-2536
▁ശേഖ	-2537
▁ഘട്ട	-2538
▁ഇതിന്റെ	-2539
▁സ്ഥലം	-2540
ുവര	-2541
▁ആശയ	-2542
ഷണം	-2543
റ്റിൽ	-2544
▁ഏതെങ്കിലും	-2545
▁കസ്റ്റ	-2546
▁വിവാഹം	-2547
▁ഭക്ഷണം	-2548
വിട്ട	-2549
▁തൊഴിലാള	-2550
നത്തില്‍	-2551
തിരേ	-2552
▁മുന്നില്‍	-2553
ികൾക്ക്	-2554
▁വേദ	-2555
തായും	-2556
ാനായി	-2557
▁പുതു	-2558
ുകള്‍ക്ക്	-2559
ar	-2560
ര്‍ന്നു	-2561
▁അബ്ദു	-2562
ലാണ്	-2563
▁വിദ്യാര്‍ഥ	-2564
▁ദി	-2565
▁ബാങ്ക്	-2566
▁ദൃശ്യ	-2567
▁വാർത്ത	-2568
▁അന്ന്	-2569
▁എവിടെ	-2570
ങ്കേതിക	-2571
▁വിജയം	-2572
▁അത്തരം	-2573
▁ലോകക	-2574
▁തള്ള	-2575
▁ഗുരുത	-2576
▁താഴെ	-2577
▁എളുപ്പ	-2578
▁ആറ	-2579
ന്റി	-2580
▁ജനറല്‍	-2581
▁തക	-2582
▁വ്യാജ	-2583
▁എണ്ണം	-2584
▁കടുത്ത	-2585
▁സൂച	-2586
▁നന്നായി	-2587
▁ഇതേ	-2588
ച്ചത്	-2589
പിട	-2590
▁ചുമതല	-2591
▁50	-2592
ട്ടുണ്ട്	-2593
ാമത്തെ	-2594
െടുത്ത്	-2595
▁രഹ	-2596
ത്തല	-2597
▁പ്രസ്ത	-2598
▁വിശ്വസ	-2599
▁രു	-2600
റുടെ	-2601
▁കള്ള	-2602
▁ആവശ്യം	-2603
േക്കും	-2604
-1	-2605
ഞ്ജ	-2606
▁ഇത്ര	-2607
സര	-2608
▁ശു	-2609
▁ഷെ	-2610
▁ഗാന്ധി	-2611
▁ആഭ്യ	-2612
▁മനോഹ	-2613
▁പിന്‍	-2614
▁മണി	-2615
▁മാറിയ	-2616
▁പ്രവര്‍ത്തക	-2617
▁പ്രശസ്ത	-2618
▁സംസാ	-2619
▁പിടിയ	-2620
▁മണ്ണ	-2621
▁കമ്പനി	-2622
വർക്ക്	-2623
ക്കാണ്	-2624
▁പൂര്‍ത്തിയ	-2625
പാല	-2626
▁കോൺഗ്രസ്	-2627
▁ആരോപണ	-2628
ാക്കിയത്	-2629
▁പ്രവര്‍ത്തന	-2630
▁പള്ള	-2631
▁തിക	-2632
ര്‍ജ	-2633
ിപ്പിച്ചു	-2634
▁ഡ്രൈ	-2635
ിപ്പിക്കുന്ന	-2636
▁ശാസ്ത്ര	-2637
▁മൂന്നാം	-2638
മെന്ന്	-2639
ീന്‍	-2640
വഹ	-2641
▁പറ്റ	-2642
▁തെളിയ	-2643
ര്യം	-2644
▁തുടക്ക	-2645
▁വീട്ടില്‍	-2646
മാന്‍	-2647
▁നിക്ഷേപ	-2648
ബോധ	-2649
▁ആഭ്യന്തര	-2650
ഹത്യ	-2651
▁ബന്ധു	-2652
▁അന്ന	-2653
▁”	-2654
▁പുരസ്	-2655
▁തിയ	-2656
▁മോദ	-2657
▁സാങ്കേതിക	-2658
▁കോര്‍	-2659
ുകളിലെ	-2660
▁സന്തോഷ	-2661
ത്താവ	-2662
▁ആവശ്യപ്പെട്ടു	-2663
▁സമരം	-2664
ൻഡ	-2665
▁ജാമ	-2666
▁വിദഗ്	-2667
ിക്കൊണ്ട	-2668
▁ഫേസ്ബു	-2669
▁ഹൈക്കോടതി	-2670
▁നിയമം	-2671
▁അഴിമ	-2672
ിലേക്കു	-2673
വെന്ന്	-2674
ews	-2675
▁മൊഴ	-2676
ങ്ങളായി	-2677
ാള്‍	-2678
▁സമാ	-2679
▁പ്രകട	-2680
ിനുള്ള	-2681
ിച്ചുവ	-2682
▁മുതി	-2683
▁പിഴ	-2684
▁എന	-2685
ായില്ല	-2686
▁തീയ	-2687
▁തൂ	-2688
▁പാകി	-2689
▁വാഗ്	-2690
▁24	-2691
ോടും	-2692
▁ബ്രിട്ട	-2693
ക്കുമ	-2694
ാവകാശ	-2695
റ്റാണ്ട	-2696
▁ഘടക	-2697
▁പറഞ്ഞ്	-2698
ഗ്ഗ	-2699
▁സമു	-2700
▁ഇത്ത	-2701
സിക	-2702
▁വിനോ	-2703
▁കടന്നു	-2704
ീൻ	-2705
പന	-2706
▁ലഭ്യമ	-2707
ുണ്ടായി	-2708
ലോക	-2709
▁സ്നേ	-2710
ഘട്ട	-2711
▁ആയു	-2712
▁വനിതാ	-2713
▁മര	-2714
▁നേടി	-2715
ണാകു	-2716
▁ലോക്	-2717
▁ആശങ്ക	-2718
▁അപ്പ	-2719
▁ഭൂരി	-2720
മാണെന്ന്	-2721
മിക	-2722
▁എറ	-2723
▁ഒടുവ	-2724
▁അനുമതി	-2725
ര്‍ഷ	-2726
കള്‍ക്ക്	-2727
▁പിറ	-2728
▁രാഹുല്‍	-2729
▁പെണ്‍കുട്ട	-2730
▁ഗ്ല	-2731
▁ഗുണ	-2732
▁മലയാളി	-2733
വിയ	-2734
ില്ലെന്ന	-2735
യുണ്ട്	-2736
ൂരി	-2737
ചാര	-2738
▁ആശ്ര	-2739
വർത്ത	-2740
ായാണ്	-2741
ശം	-2742
▁പ്രസിദ്ധ	-2743
ായ്മ	-2744
▁സെന്റ	-2745
▁കിട്ടിയ	-2746
ർണ	-2747
▁ഏജ	-2748
▁കൊടുക്ക	-2749
▁ഭയ	-2750
ഗതി	-2751
▁സ്വദേശി	-2752
▁പ്രതിസന്ധ	-2753
▁സുര	-2754
▁സാക്ഷ	-2755
ിക്കാത്ത	-2756
പം	-2757
▁ടൈ	-2758
▁ഉള്‍പ്പെടെ	-2759
▁ബംഗ	-2760
മാക്കിയ	-2761
ീകരിച്ചു	-2762
ക്കാരുടെ	-2763
ിക്കുകയാണ്	-2764
▁സിസ്റ്റ	-2765
ാഗ്ര	-2766
▁വിമര്‍ശ	-2767
ാലോ	-2768
ദ്യോഗിക	-2769
യാൾ	-2770
▁സംബന്ധിച്ച	-2771
▁യാത	-2772
ീര	-2773
ാശാല	-2774
ികളില്‍	-2775
▁കോളേജ	-2776
ുമുണ്ട്	-2777
▁നാലു	-2778
▁21	-2779
▁നോക്കി	-2780
▁ഗോള	-2781
ർത്തി	-2782
ോഭ	-2783
ശ്വ	-2784
രാശ	-2785
ത്തെയും	-2786
തിനാൽ	-2787
▁സംഗീത	-2788
പൊ	-2789
▁ഉദാഹരണ	-2790
ത്തിന്റെയും	-2791
്യത	-2792
▁ബോള	-2793
▁ജയില	-2794
▁കേരളത്തില്‍	-2795
▁കഴിവ	-2796
നിന്നും	-2797
▁നല്‍കുന്ന	-2798
▁ചാന	-2799
▁പാക്കി	-2800
▁ചീഫ്	-2801
രിക്കാൻ	-2802
▁മുഴുവൻ	-2803
പ്ത	-2804
▁ഉണ്ടായിരുന്നു	-2805
ല്ലു	-2806
▁തിരക്ക	-2807
▁പെരു	-2808
▁ബോര്‍	-2809
▁എറണാകു	-2810
▁യോഗം	-2811
▁കരാ	-2812
▁മധ്യ	-2813
at	-2814
or	-2815
പേ	-2816
▁ഭാവ	-2817
▁വിഭാഗം	-2818
▁വ്യവസ	-2819
നാട്	-2820
▁എന്താണ്	-2821
▁പഞ്ചായത്ത്	-2822
▁മെഡിക്കല്‍	-2823
വരാണ്	-2824
▁എൽ	-2825
▁സമ്മാന	-2826
തോ	-2827
മുറ	-2828
ഫല	-2829
▁ബോധ	-2830
ര്‍ക്ക്	-2831
മൂ	-2832
▁കയറി	-2833
▁ബേ	-2834
മ്പോ	-2835
▁സംബന്ധിച്ച്	-2836
▁വിലയിരുത്ത	-2837
▁ചെയ്യാന്‍	-2838
ിനോട്	-2839
ോഷം	-2840
▁പിത	-2841
▁ഗൂ	-2842
▁വാദ	-2843
▁ത്ര	-2844
ണ്യ	-2845
▁കമ്മിറ്റി	-2846
കളാണ്	-2847
കുട്ടി	-2848
▁കേരളം	-2849
▁ഇത്തവണ	-2850
▁സന്ദർശ	-2851
രിക്കാന്‍	-2852
യിച്ച	-2853
▁മിക്ക	-2854
▁അനുകൂല	-2855
▁പുരുഷ	-2856
▁അതിന്	-2857
▁ബുദ്ധിമു	-2858
▁ഉൽപ്പ	-2859
▁അതിനാൽ	-2860
▁ടീം	-2861
▁സുപ്രീംക	-2862
▁പഠന	-2863
▁സന്ദര്‍ശ	-2864
ാധിപത്യ	-2865
▁ലക്ഷ്യം	-2866
▁സൗകര്യ	-2867
▁ബസ്	-2868
▁എച്ച്	-2869
ങ്ങളില	-2870
ർന്നു	-2871
പൂര്‍	-2872
▁സോഷ്യല്‍	-2873
കി	-2874
▁രംഗത്ത്	-2875
▁പരമ്പര	-2876
▁ചെന്നൈ	-2877
▁അത്ര	-2878
▁സ്ഥാനം	-2879
▁അമ്പ	-2880
▁മുതല	-2881
▁ചുറ്റ	-2882
▁ഇക്കാര്യം	-2883
▁ആരും	-2884
കൃഷ്ണ	-2885
ഭോ	-2886
▁മരിച്ചു	-2887
▁ഫ്	-2888
വാഹ	-2889
ണ്ടി	-2890
മായാണ്	-2891
▁പ്രേക്ഷ	-2892
▁കുറവ	-2893
▁തുടര	-2894
▁ഭൂമി	-2895
▁അതുകൊണ്ട്	-2896
▁ഭേദ	-2897
▁ഒര	-2898
▁ലം	-2899
▁വച്ച	-2900
▁ശ്രമിച്ച	-2901
▁ലിം	-2902
▁നിമി	-2903
കലാശാല	-2904
▁പരസ്യ	-2905
▁സ്വര്‍	-2906
▁സമിതി	-2907
▁കണ്ടെത്തി	-2908
▁എങ്കിൽ	-2909
▁തന	-2910
▁കുട്ടി	-2911
▁നടത്തിയത്	-2912
▁വാഗ്ദ	-2913
▁വിമാനത്താവ	-2914
ിട്ടു	-2915
ായിരിക്ക	-2916
നിന്നു	-2917
▁കെട്ടിട	-2918
ടിപ്പിച്ച	-2919
▁കോട്ടയം	-2920
യിലൂടെ	-2921
ാനോ	-2922
▁ചെയ്തിരുന്നു	-2923
▁പേർ	-2924
ലിന്	-2925
▁റിപ്പോർട്ട്	-2926
ത്താണ്	-2927
▁ദുരന്ത	-2928
ലിം	-2929
▁ലേ	-2930
▁സംഘടിപ്പ	-2931
▁മറ്റുള്ള	-2932
▁പ്രൊഫ	-2933
▁മുന്നറിയ	-2934
▁ജസ്റ്റി	-2935
▁റോഡ്	-2936
▁തന്നെയ	-2937
▁സിറ്റി	-2938
▁തിരിച്ചു	-2939
▁അതുകൊണ്ട	-2940
ശ്വര	-2941
വാദി	-2942
ിക്കുന്നതിന്	-2943
ആര്‍	-2944
▁ഇതില്‍	-2945
സ്തു	-2946
ത്തുള്ള	-2947
▁2019	-2948
▁ഭൂമ	-2949
തിയാണ്	-2950
▁സാമൂഹിക	-2951
രാജ്	-2952
ാസി	-2953
▁പോകുന്ന	-2954
▁പ്രസ്താവന	-2955
▁വ്യാ	-2956
ാപിത	-2957
▁പ്രി	-2958
ാനാക	-2959
▁അവി	-2960
▁ഒന്ന്	-2961
▁വിട്ടു	-2962
▁ഔദ്യോഗിക	-2963
▁വിതരണം	-2964
▁രൂ	-2965
ിവെ	-2966
▁A	-2967
▁തട്ടി	-2968
▁ലളിത	-2969
തുവ	-2970
▁നശ	-2971
▁ഉപേക്ഷ	-2972
▁ക്രിക്കറ്റ്	-2973
▁തമ്മിലുള്ള	-2974
ക്കമുള്ള	-2975
▁പശ്ചാത്ത	-2976
▁അസോ	-2977
▁തുറന്ന	-2978
▁ശ്	-2979
െടുത്തി	-2980
▁ട്രം	-2981
▁ഉയര്‍ന്ന	-2982
▁ആരോപണം	-2983
▁പോലുള്ള	-2984
ക്ഷിണ	-2985
വെന്നും	-2986
ഹിത്യ	-2987
▁യാതൊരു	-2988
▁;	-2989
ാരുടെ	-2990
▁വിദ്യാർത്ഥ	-2991
▁ചുരു	-2992
ഭരണ	-2993
▁വെച്ച	-2994
▁ചിന്ത	-2995
▁അഞ്ചു	-2996
▁രൂപയുടെ	-2997
▁കഴിഞ്ഞു	-2998
▁ബഹ	-2999
രാമ	-3000
▁എടുത്ത	-3001
▁അസ	-3002
▁വിരുദ്ധ	-3003
▁യൂറോ	-3004
▁അവസരം	-3005
▁തൃശ	-3006
.5	-3007
▁ലേഖ	-3008
ുട്	-3009
▁പരിചയ	-3010
▁ചിത്രത്തിന്റെ	-3011
▁ആത്മഹത്യ	-3012
▁നാളെ	-3013
▁പ്രണയ	-3014
േലിയ	-3015
▁നികുതി	-3016
▁ഫലം	-3017
▁സഹോദര	-3018
▁സർക്കാരി	-3019
▁ഉണ	-3020
▁കിലോമ	-3021
▁കാസ	-3022
▁ജോസഫ്	-3023
▁അണ	-3024
▁രൂപം	-3025
▁അതിനു	-3026
▁ല്‍	-3027
▁22	-3028
▁ഭീഷണി	-3029
▁കനത്ത	-3030
▁യോ	-3031
ർപ്പ	-3032
ർഡ്	-3033
▁സീസ	-3034
▁2018	-3035
▁സ്റ്റോ	-3036
നത്തിന്	-3037
ർഭ	-3038
ഭുത	-3039
ിമുഖ	-3040
ാൾ	-3041
▁ഓട	-3042
▁നമുക്ക്	-3043
ഷ്ഠ	-3044
▁ആര	-3045
▁ലംഘ	-3046
ിക്കുന്നുണ്ട്	-3047
▁പരിപാട	-3048
▁പലരും	-3049
▁കണ്‍	-3050
▁വേദന	-3051
▁സ്വാതന്ത്ര	-3052
െടുക്കുന്ന	-3053
▁മുന്നോട്ട	-3054
▁അസോസിയ	-3055
സിനെ	-3056
ധുനിക	-3057
ങ്ങളുമായി	-3058
ിനെയും	-3059
ാവിനെ	-3060
തയും	-3061
▁പാര	-3062
▁കൃഷ്ണ	-3063
▁പങ്കെടുക്ക	-3064
▁റിപ്പോര്‍ട്ട	-3065
െത്തിയ	-3066
സിലെ	-3067
പ്രദേശ	-3068
▁സുധ	-3069
▁ലക്ഷ്യമ	-3070
▁നിലനി	-3071
സ്ഥിതി	-3072
സേന	-3073
▁കൊണ്ടുപോ	-3074
▁ഇതിനെ	-3075
▁ഒഴിവാക്ക	-3076
ക്കാരെ	-3077
ൃഗ	-3078
▁ഇപ്പോഴ	-3079
▁വിളിച്ചു	-3080
▁കാര്യങ്ങള്‍	-3081
ുകു	-3082
▁ആറ്	-3083
▁സമാന	-3084
ാളം	-3085
ദിവ	-3086
ുണ്ടായിരുന്നു	-3087
▁ബന്ധം	-3088
ിച്ചിരിക്കുന്നത്	-3089
▁ക്യാമറ	-3090
▁സ്വഭാവ	-3091
▁തകർ	-3092
▁റെക്കോ	-3093
▁ഉൽപ്പന്ന	-3094
▁വയസ്സ	-3095
▁സാന്നി	-3096
ീറ്റര്‍	-3097
ാണം	-3098
▁ഒരാള	-3099
▁ക്ലാസ്	-3100
▁മെച്ച	-3101
▁ആഗ	-3102
▁യൂണി	-3103
▁ആശുപത്രി	-3104
▁സുരക്ഷാ	-3105
ങ്ങിയത്	-3106
▁നിലയില്‍	-3107
ിവു	-3108
▁വോ	-3109
,,	-3110
ാറുണ്ട്	-3111
ൂരില്‍	-3112
▁ദ്	-3113
▁കേസിൽ	-3114
▁സവിശേഷ	-3115
▁മരണം	-3116
▁ചിന്തി	-3117
▁കൂട്ടിച്ച	-3118
▁ചേര്‍ന്ന	-3119
▁കൊലപാതക	-3120
▁വ്യവസ്ഥ	-3121
▁ഫുട്	-3122
▁പുസ്തക	-3123
▁നടന്നു	-3124
ീല്‍	-3125
▁ക്യാമ്പ	-3126
യായും	-3127
▁രസ	-3128
▁വെളിപ്പെടുത്ത	-3129
▁തിരിച്ചറിയ	-3130
▁തീര	-3131
▁സ്വീകരിച്ച	-3132
▁മതി	-3133
ക്കില്‍	-3134
▁ഛ	-3135
▁വെച്ച്	-3136
▁തരം	-3137
▁മനസില	-3138
റിലെ	-3139
▁ധാര	-3140
▁സുഖ	-3141
ത്തിനിടെ	-3142
ഭോക്ത	-3143
▁രൂക്ഷ	-3144
▁മുഴുവന്‍	-3145
▁െ	-3146
സമ്മ	-3147
▁സ്വാധ	-3148
ര്‍ത്തിയ	-3149
▁തുടര്‍ന്ന	-3150
വാര്‍	-3151
▁ഫോണ്‍	-3152
▁വച്ച്	-3153
▁n	-3154
▁വസ്ത്ര	-3155
▁ഇക്കാര്യ	-3156
▁പ്രളയ	-3157
▁ദക്ഷിണ	-3158
േല്‍	-3159
ഡിഎ	-3160
st	-3161
ടിന്റെ	-3162
പ്പിന്റെ	-3163
തന	-3164
▁മാതാപിത	-3165
ഫ്ര	-3166
▁100	-3167
▁കാരണമ	-3168
ുണ്ടായിരുന്ന	-3169
ായാലും	-3170
തയുടെ	-3171
ക്കാള്‍	-3172
▁അദ്ധ്യ	-3173
സ്റ്റർ	-3174
▁അതിനെ	-3175
ാണിത്	-3176
▁ശ്രമം	-3177
ിപ്പ്	-3178
▁രോഗം	-3179
ീസിന്റെ	-3180
ാനു	-3181
രൂപ	-3182
▁മുട്ട	-3183
സിസി	-3184
ുകാർ	-3185
ങ്ങാ	-3186
▁?	-3187
▁ലീഗ്	-3188
ത്തോട്	-3189
▁നിര്‍മ	-3190
om	-3191
ഡിഎഫ്	-3192
മാണെന്നും	-3193
▁കഴിയില്ല	-3194
ിക്കുമെന്ന്	-3195
▁തിള	-3196
ിക്കെതിരെ	-3197
▁അറി	-3198
മെന്റ	-3199
ലു	-3200
ല്‍ഹ	-3201
▁ന്യൂഡല്‍ഹി	-3202
▁മോഹന്‍ല	-3203
▁ഏഴ	-3204
▁സേവ	-3205
േന	-3206
▁വേഷ	-3207
▁ദൈ	-3208
മ്യ	-3209
▁നടപ്പില	-3210
ില്ലാതെ	-3211
▁വെടി	-3212
▁വെബ്	-3213
▁ആവശ്യമായ	-3214
ക്കണ	-3215
▁ഗത	-3216
▁തനിക്ക്	-3217
ുമ്പ	-3218
യാറ	-3219
▁ഉപയോഗിക്കുന്ന	-3220
ചന്ദ്ര	-3221
▁ഡിസം	-3222
▁ഫയ	-3223
പ്പള്ളി	-3224
പോക	-3225
പ്പോഴാണ്	-3226
ചിത	-3227
▁0	-3228
▁ചെയ്യുക	-3229
കാ	-3230
പാദ	-3231
▁നല്‍കിയത്	-3232
▁199	-3233
▁വില്‍	-3234
▁എന്തു	-3235
രുമായി	-3236
▁കാലം	-3237
പൂ	-3238
▁വെറും	-3239
▁ഇല്ലാത	-3240
▁ചുവ	-3241
ർഡ	-3242
▁നേരിട്ട്	-3243
▁സഹായം	-3244
▁തട്ട	-3245
പ്പും	-3246
ുന്നില്ല	-3247
യ്ക്കുന്ന	-3248
ന്മാർ	-3249
▁നേതൃത്വത്തില്‍	-3250
▁അവസര	-3251
▁എല്ലാവരും	-3252
▁കേട്ട	-3253
▁മൃതദേഹം	-3254
തകൾ	-3255
മെന്ന	-3256
▁ഇടതു	-3257
▁വില്ല	-3258
ൻറെ	-3259
രാള	-3260
▁തിരിക	-3261
▁സുഹൃത്തു	-3262
ാവിന്റെ	-3263
ോളി	-3264
ിനോ	-3265
▁പശ്ചാത്തല	-3266
▁ഫ്ല	-3267
▁S	-3268
ന്മാര്‍	-3269
▁ടൂ	-3270
ങ്കള	-3271
▁ഗതാഗ	-3272
▁പ്	-3273
▁നിര്‍ദേശ	-3274
ാരിക	-3275
▁ഭരണഘ	-3276
ിക്കറ്റ	-3277
▁മണിക്കൂറ	-3278
േര	-3279
ികളായ	-3280
▁വ്യാപക	-3281
▁ജനാധിപത്യ	-3282
ന്‍ഡ്	-3283
ക്കൂ	-3284
▁ബജ	-3285
കുമാര്‍	-3286
▁വേഗ	-3287
ക്കൂട്ട	-3288
▁ഇവരുടെ	-3289
▁ആദ്യമായി	-3290
▁പ്രകടന	-3291
▁സിബി	-3292
യിലുള്ള	-3293
▁ഒപ്പ	-3294
ചെയ്	-3295
▁ഉന്നത	-3296
ുടേയും	-3297
▁കാവ	-3298
നവും	-3299
▁ജില്ലയിലെ	-3300
ഴിഞ്ഞ	-3301
▁പേരിൽ	-3302
▁പിടിച്ചു	-3303
നട	-3304
▁അഴിമതി	-3305
▁ഇരുപ	-3306
▁അധികൃതര്‍	-3307
ിക്കാതെ	-3308
▁റീ	-3309
▁അസാ	-3310
തിനിടെ	-3311
▁മൗ	-3312
▁സുരക്ഷിത	-3313
▁അധികം	-3314
▁ശാ	-3315
സ്ക	-3316
ടുക്കുന്ന	-3317
▁അയ്യ	-3318
▁മതിയ	-3319
▁കൂള്‍	-3320
▁തുറന്നു	-3321
മൊരു	-3322
▁സർവ	-3323
എമ്മ	-3324
▁എടുത്തു	-3325
▁നായിക	-3326
കാര്യം	-3327
▁സൂര്യ	-3328
▁വരുമാന	-3329
വു	-3330
▁കണ്ണൂര്‍	-3331
ര്‍മാര്‍	-3332
ീസിന്	-3333
▁അഭിമുഖ	-3334
▁താല	-3335
▁ആലപ്പുഴ	-3336
▁ഗാന	-3337
▁പരിപാടിയ	-3338
▁മര്‍	-3339
▁കടന്ന	-3340
▁23	-3341
▁ഉണ്ടായ	-3342
▁നിലവില്‍	-3343
ിട്ടുള്ളത്	-3344
▁ഓട്ടോ	-3345
▁വിശേഷ	-3346
▁തള	-3347
ണര്‍	-3348
▁ആശുപത്രിയില്‍	-3349
▁ഇനിയും	-3350
തയ	-3351
▁പ്രമേ	-3352
ണ്ണി	-3353
േഷ്യ	-3354
▁പ്രതിഷേധം	-3355
▁ആരാധക	-3356
▁രോ	-3357
▁അന്താരാഷ്ട്ര	-3358
▁റദ്ദ	-3359
▁മരുന്ന	-3360
▁എഴുതിയ	-3361
ക്ഷന്‍	-3362
▁മാത്യ	-3363
▁ലഭിക്കും	-3364
▁വ്യക്തമാക്കിയ	-3365
▁ആക്രമണം	-3366
ുകൾക്ക്	-3367
ാറിന്റെ	-3368
▁കാലത്ത്	-3369
▁പ്രകടനം	-3370
്രമ	-3371
▁ഇരുവരും	-3372
▁പാർട്ടി	-3373
പ്തി	-3374
സ്ര	-3375
▁കാമ	-3376
പതി	-3377
▁ആധുനിക	-3378
ുകയോ	-3379
▁യെ	-3380
ംഗം	-3381
ുമായുള്ള	-3382
ാണെങ്കിൽ	-3383
▁നടന്നത്	-3384
എല്‍എ	-3385
▁സൂപ്പര്‍	-3386
▁പൂര്‍ണ	-3387
▁ആവശ്യമാണ്	-3388
▁അവന്റെ	-3389
▁സ്വതന്ത്ര	-3390
▁പ്രക്രിയ	-3391
▁സുരേഷ്	-3392
.30	-3393
▁സംസ്ഥാനത്ത്	-3394
ല്ലേ	-3395
▁ഭര്‍ത്ത	-3396
▁അൽ	-3397
ഹരി	-3398
ാക്കും	-3399
പ്രകാരം	-3400
ക്ടർ	-3401
▁നിഷേധ	-3402
ിലായ	-3403
▁രാജ്യത്ത്	-3404
▁കൊണ്ടു	-3405
ടും	-3406
▁വായ്	-3407
▁യഥാർത്ഥ	-3408
▁നിറഞ്ഞ	-3409
▁ടെക്	-3410
ാക്കോ	-3411
▁പൗരത്വ	-3412
ടുപ്പ	-3413
▁പ്രവർത്തിക്ക	-3414
ംബര്‍	-3415
▁മാനസിക	-3416
▁സ്നേഹ	-3417
▁ജോല	-3418
▁ദീപ	-3419
▁കാണാം	-3420
▁എയര്‍	-3421
▁വരുത്ത	-3422
ർമാർ	-3423
▁തുടക്കം	-3424
▁കശ്മീ	-3425
▁പുറമേ	-3426
▁തിരഞ്ഞെടുപ്പ്	-3427
ൻസ	-3428
സ്വാ	-3429
▁ആലോ	-3430
ികളാണ്	-3431
▁മത്സരം	-3432
▁പൂർത്തിയ	-3433
▁ലഭിക്കുന്ന	-3434
▁മേധ	-3435
▁പുരോഗ	-3436
ബിൾ	-3437
ാക്കുന്നു	-3438
▁വ്യക്	-3439
▁നേതാക്കള്‍	-3440
സിസ്	-3441
ിച്ചാല്‍	-3442
ിപ്പിക്ക	-3443
▁നിയന്ത്രണ	-3444
യിട	-3445
ര്‍ജി	-3446
▁ദുബ	-3447
ികളിൽ	-3448
▁എംഎല്‍എ	-3449
ാരും	-3450
ൽഹി	-3451
▁രഹസ്യ	-3452
▁വിമാനത്താവള	-3453
▁കണ്ട്	-3454
്യമുള്ള	-3455
▁പെൺകുട്ട	-3456
▁40	-3457
ുമെ	-3458
▁മുറിയ	-3459
▁പരു	-3460
ുവാന്‍	-3461
▁ഉപഭോക്ത	-3462
ച്ചും	-3463
▁നിങ്ങള്‍	-3464
50	-3465
ൃത്തി	-3466
തുണ്ട്	-3467
▁പ്രശ്ന	-3468
ാൻഡ്	-3469
▁കസ്റ്റഡിയ	-3470
▁നിയമസഭ	-3471
ിലെത്തിയ	-3472
▁ഉദ്ദേശ	-3473
▁ലീഗ	-3474
▁28	-3475
▁കറ	-3476
▁വൈസ്	-3477
▁അശ	-3478
▁''	-3479
▁സഖ	-3480
ുവിനെ	-3481
എന്‍	-3482
▁ക്ലബ്	-3483
▁എപ്പോഴും	-3484
▁നേഹ	-3485
▁2017	-3486
▁മധു	-3487
▁മാവ	-3488
വറ	-3489
ജന്യ	-3490
▁ഏകദേശം	-3491
മത	-3492
▁സിനിമാ	-3493
▁ബുദ്ധിമുട്ട	-3494
▁തയാറ	-3495
▁വർദ്ധ	-3496
േട്ട	-3497
▁ഒട്ട	-3498
▁അക്ഷ	-3499
▁ഞങ്ങള്‍	-3500
വില	-3501
യാത്ര	-3502
▁വിമർശ	-3503
▁മെന്റ്	-3504
▁ട്രെയ	-3505
ബാധ	-3506
ശ്ശേരി	-3507
▁വിര	-3508
▁അനുയോ	-3509
▁കുറയ്ക്ക	-3510
▁ചോദിച്ചു	-3511
▁അച്ച	-3512
▁ഉരു	-3513
ഹാര	-3514
ജോ	-3515
ിയിലേക്ക്	-3516
പ്പന	-3517
രാക	-3518
▁എന്	-3519
▁മഞ്ഞ	-3520
▁ക്രീ	-3521
ണ്ടു	-3522
ിലേക്കുള്ള	-3523
ദേശിക	-3524
ിക്ക്	-3525
▁പ്രവാ	-3526
ങ്ങളിലൂടെ	-3527
ൗണ്ട്	-3528
▁തുടങ്ങിയവ	-3529
▁അതുപോലെ	-3530
റ്റിന്റെ	-3531
ശേഖ	-3532
ീരിയ	-3533
▁മൂലം	-3534
മായത്	-3535
▁ഇന്ത്യയിലെ	-3536
ധന	-3537
▁ഇവരെ	-3538
▁കൊല്ലം	-3539
▁ശ്രദ്ധേയ	-3540
ാകുന്നു	-3541
▁അപ്ര	-3542
▁അരങ്ങ	-3543
ിലേക്കും	-3544
ശാല	-3545
▁കുറച്ചു	-3546
ിലായിരുന്നു	-3547
▁പ്രധാനമന്ത്ര	-3548
▁സെക്രട്ടറിയ	-3549
▁ആഴ്ച	-3550
ത്തിനെതിരെ	-3551
▁മാറ്റം	-3552
▁മക്കള	-3553
വിരുദ്ധ	-3554
▁ക്രൈ	-3555
▁എത്തിച്ച	-3556
▁വെല്ലു	-3557
▁കുമാര്‍	-3558
ുവേണ്ടി	-3559
▁(1	-3560
▁അമിത്	-3561
▁റേ	-3562
▁നേട്ട	-3563
പ്രവർത്ത	-3564
ാനന്ദ	-3565
▁മുന്നിൽ	-3566
ീക്ക	-3567
ിനായി	-3568
െടുത്തത്	-3569
▁അറ്റ	-3570
▁സബ്	-3571
▁വെട്ട	-3572
ഗണിക്ക	-3573
ാക്കുന്നത്	-3574
െയർ	-3575
▁ഹാ	-3576
▁ആവശ്യപ്പെട്ട	-3577
▁മുഖം	-3578
▁ചേര്‍ന്ന്	-3579
▁കോടതിയില്‍	-3580
▁തിരുവനന്തപുര	-3581
▁പ്രവർത്തന	-3582
▁ഉത്തരവാദി	-3583
▁പാസ്	-3584
▁അത്ഭുത	-3585
▁ട്വി	-3586
▁അഭിഭാ	-3587
▁കുട്ടികളുടെ	-3588
▁കുറി	-3589
ാക്കുക	-3590
▁എന്നിവർ	-3591
▁ജസ്റ്റിസ്	-3592
ിലെത്തി	-3593
്വ	-3594
▁മറ്റും	-3595
▁പാവ	-3596
▁എങ്കിലും	-3597
യുടെയും	-3598
▁പാത	-3599
▁വിവരങ്ങള്‍	-3600
▁വിദഗ്ധ	-3601
▁വോട്ട്	-3602
▁അടങ്ങിയ	-3603
▁വിധേയ	-3604
▁കാണാൻ	-3605
▁അതില്‍	-3606
വില്‍	-3607
▁മാതൃക	-3608
▁സമാധാന	-3609
വൻ	-3610
ല്ലി	-3611
കളിലും	-3612
സ്ത്ര	-3613
ങ്ങും	-3614
▁പ്രയോഗ	-3615
▁വാഗ്ദാനം	-3616
▁പേരെ	-3617
▁വിഭവ	-3618
ായുള്ള	-3619
ൂട്ട്	-3620
▁കുള	-3621
▁അയാള	-3622
ഫ്റ്റ്	-3623
▁പ്രാദേശിക	-3624
▁ഏര്‍	-3625
▁അരു	-3626
▁അംഗീക	-3627
▁ഇതിൽ	-3628
▁സംഭവത്തില്‍	-3629
ദേശ്	-3630
▁ഹൃദയ	-3631
ത്തെക്കുറിച്ച്	-3632
▁ഡോള	-3633
ഡറ	-3634
മാറ	-3635
▁എഴുത	-3636
▁പൂർണ്ണ	-3637
▁യൂണിയ	-3638
ുകെ	-3639
▁ഏതാനും	-3640
ഹാ	-3641
ുവാൻ	-3642
വിദ്യ	-3643
ഹ്മ	-3644
▁ഡിജി	-3645
▁സൗദി	-3646
പ്പെടും	-3647
▁ഫൈന	-3648
▁വട	-3649
ുകി	-3650
▁വൈദ്യുതി	-3651
▁പ്രചാരണ	-3652
▁പ്രാധ	-3653
പ്പിന്	-3654
▁പരിക്കേറ്റ	-3655
▁സേന	-3656
▁മലപ്പുറം	-3657
▁സാഹചര്യത്തിൽ	-3658
ലീ	-3659
ശാ	-3660
▁തണു	-3661
▁ഗവേഷ	-3662
▁എഡി	-3663
▁വീട്	-3664
▁ഭൂരിപക്ഷ	-3665
ര്‍ട്ട്	-3666
▁അംഗീകരിക്ക	-3667
ക്ടോ	-3668
re	-3669
▁സാഹിത്യ	-3670
▁ചിത്രത്തില്‍	-3671
▁രമേ	-3672
▁മുസ്ലിം	-3673
ർഷ	-3674
▁ഗുജ	-3675
▁സമര്‍പ്പ	-3676
▁എറണാകുളം	-3677
▁പ്രകൃതി	-3678
െയിം	-3679
ഴുന്ന	-3680
▁തിരികെ	-3681
▁കേന്ദ്രസ	-3682
റ്ററ	-3683
▁വിച	-3684
▁കൃഷി	-3685
▁ശബ്ദ	-3686
▁ഒരിക്കലും	-3687
▁മാല	-3688
▁ശുപ	-3689
▁കെട്ട	-3690
▁കൈകാര്യം	-3691
▁വിവരങ്ങൾ	-3692
▁കവിത	-3693
▁നം	-3694
താര	-3695
▁കാര്യങ്ങൾ	-3696
▁ഉത്തരവ്	-3697
▁കത്ത	-3698
▁ഥ	-3699
▁രാജ്	-3700
▁വരുന്നു	-3701
▁കോളേജ്	-3702
▁വിറ്റ	-3703
▁മുറി	-3704
വെള്ള	-3705
ഞ്ചി	-3706
▁ഗ്രൂപ്പ്	-3707
▁കറു	-3708
▁നീതി	-3709
▁സര്‍ക്കാരിന്റെ	-3710
രിച്ചത്	-3711
ിക്കില്ല	-3712
ളൂ	-3713
ില്	-3714
ാരായണ	-3715
▁ശേഷമാണ്	-3716
▁അതിൽ	-3717
തായിരുന്നു	-3718
ിച്ചില്ല	-3719
▁ഇയാള	-3720
ാലയം	-3721
▁എത്തിയത്	-3722
▁ഭി	-3723
മയ	-3724
ീൽ	-3725
▁വാദം	-3726
▁സുന്ദ	-3727
ത്യം	-3728
▁എന്ത്	-3729
ഡില്‍	-3730
▁മയ	-3731
▁ശ്രീക	-3732
ര്‍ത്ത്	-3733
▁നു	-3734
വത്	-3735
▁വന്നത്	-3736
▁വായി	-3737
▁N	-3738
▁പ്രവര്‍ത്തകര്‍	-3739
▁പ്രകാശ	-3740
▁ക്രൂര	-3741
എൽ	-3742
▁26	-3743
▁ആവേശ	-3744
ജിന	-3745
തോടെയാണ്	-3746
▁ക്രിസ്	-3747
വയ	-3748
▁വീണ	-3749
▁താൻ	-3750
▁സിപിഐ	-3751
ബല	-3752
▁ഗുജറാ	-3753
▁ജോര്‍	-3754
▁ഇവർ	-3755
ര്‍ഭ	-3756
▁കയറ	-3757
ുന്നുണ്ട	-3758
▁ആന്റ	-3759
▁കാട്ട	-3760
▁പരാമര്‍ശ	-3761
ാമെന്ന്	-3762
▁ഞായ	-3763
▁അഭ്യ	-3764
സ്തി	-3765
▁അഡ്വ	-3766
സ്റ്റിക്	-3767
▁എയർ	-3768
▁ബ്ലാ	-3769
▁ധോ	-3770
am	-3771
en	-3772
▁സെന്റ്	-3773
▁അങ്ങ	-3774
▁നൈ	-3775
▁എന്നിവിട	-3776
▁പിൻ	-3777
▁നൂറ്റാണ്ട	-3778
ങ്ങളായ	-3779
▁2016	-3780
▁ഏഷ്യ	-3781
ലുകള്‍	-3782
▁സമ്മതി	-3783
ad	-3784
▁ഇതിനു	-3785
▁ബാബു	-3786
▁കാണാന്‍	-3787
പര്യ	-3788
ുമൊക്കെ	-3789
▁ലക്ഷ്യ	-3790
▁കരി	-3791
ിത്തല	-3792
▁കുറച്ച്	-3793
ിവേഴ്	-3794
സ്ഥാന്‍	-3795
ഭാവിക	-3796
▁എന്തെങ്കിലും	-3797
▁സോഷ്യൽ	-3798
ദ്ദേശം	-3799
ഡ്ര	-3800
▁പ്രത്യക്ഷ	-3801
ിക്കാര	-3802
▁ഉണ്ടായിരുന്ന	-3803
▁ഇള	-3804
ാമി	-3805
നുസരിച്ച്	-3806
▁അധ്യാപക	-3807
▁മാനേജ്	-3808
▁വിനോദ	-3809
▁കൗണ്‍	-3810
▁നടപടികള്‍	-3811
▁ജന്മ	-3812
ക്കൊപ്പം	-3813
▁27	-3814
▁ഉടന്‍	-3815
▁അറിഞ്ഞ	-3816
▁ചെന്നിത്തല	-3817
ക്കാൾ	-3818
ാന്‍സ്	-3819
▁ഒരുക്കിയ	-3820
▁കൺ	-3821
▁ഭാഗം	-3822
▁ആയുധ	-3823
▁മുകളിൽ	-3824
▁വൻ	-3825
▁ബല	-3826
▁ചെറ	-3827
്യൂണി	-3828
▁ഇസ്ല	-3829
▁ക്ലാസ	-3830
▁ശമ്പ	-3831
▁തന്ത്ര	-3832
▁നിന്നാണ്	-3833
ീവ	-3834
▁ജോസ്	-3835
▁ഗോള്‍	-3836
▁സ്ട്ര	-3837
ഞ്ജു	-3838
.1	-3839
▁വസ്തുത	-3840
▁P	-3841
ത്താന്‍	-3842
ങ്കിലും	-3843
തൊ	-3844
േകം	-3845
ങ്ങനെയാണ്	-3846
▁മുരള	-3847
ത്തിലേ	-3848
▁പോളി	-3849
രോട്	-3850
▁പത്ത്	-3851
▁അഭിമ	-3852
▁news	-3853
▁ഞങ്ങളുടെ	-3854
▁കേന്ദ്രം	-3855
▁എഴുത്ത	-3856
▁അലങ്ക	-3857
▁ഗുരുതര	-3858
▁എന്നിവരാണ്	-3859
ിക്കി	-3860
▁വെറു	-3861
്മ	-3862
▁ഉദാഹരണത്തിന്	-3863
▁ഉൾപ്പെടെ	-3864
▁ഘടന	-3865
▁വ്യവസായ	-3866
▁ഇന്ത്യയില്‍	-3867
ിവാസ	-3868
▁മത്സ്യ	-3869
▁അടക്കമുള്ള	-3870
▁സഹകരണ	-3871
ോറി	-3872
▁താല്‍	-3873
ാത്മ	-3874
▁ആറു	-3875
ത്സവ	-3876
▁സ്ഥാനാര്‍ത്ഥ	-3877
ങ്ങളെയും	-3878
▁മൃഗ	-3879
▁ജനുവരി	-3880
▁സഭാ	-3881
▁ദുരി	-3882
▁!	-3883
▁സമീപം	-3884
മായിരുന്ന	-3885
ില്ലി	-3886
▁സിങ്	-3887
പന്ന	-3888
▁സാമൂഹ്യ	-3889
▁കൊല്ലപ്പെട്ട	-3890
ഗ്ന	-3891
▁നന്ദി	-3892
ാര്‍ഡ്	-3893
റ്റം	-3894
▁ജൂല	-3895
മില്ലാത്ത	-3896
റ്റർ	-3897
ാൻഡ	-3898
▁നോക്കിയ	-3899
ിച്ചത	-3900
▁അധ	-3901
▁മരുന്ന്	-3902
▁വിഷയം	-3903
ോപ	-3904
ങ്ങളുടെയും	-3905
ാണ്ടി	-3906
▁സ്ത്രീകള്‍	-3907
▁ഉപയോ	-3908
▁രാജ്യം	-3909
▁റെയില്‍	-3910
▁പ്രയ	-3911
▁സെന്‍	-3912
▁എഴുതി	-3913
▁തിരി	-3914
▁ഗവ	-3915
പോലും	-3916
▁തരത്തിലുള്ള	-3917
▁കപ്പ	-3918
▁കേള്‍	-3919
▁സീസണ	-3920
േശ	-3921
▁സിനിമയുടെ	-3922
ക്കിൽ	-3923
▁നാടക	-3924
▁31	-3925
▁യുഎ	-3926
ടുള്ള	-3927
▁ജീവനക്കാര	-3928
▁ഒമ്പ	-3929
ചനം	-3930
ർക്ക്	-3931
▁കിഴ	-3932
▁മുത്ത	-3933
▁നിൽക്ക	-3934
▁ക്യാപ്റ്റ	-3935
ക്ടറ	-3936
▁പാർട്ട	-3937
പ്പെടുത്തിയത്	-3938
▁നിര്‍മാണ	-3939
പിച്ച്	-3940
▁ഇയാള്‍	-3941
ന്ത്യ	-3942
ീറ്റ്	-3943
ൂരിലെ	-3944
▁ലഭിച്ചത്	-3945
▁2014	-3946
▁ജനറൽ	-3947
വുമാണ്	-3948
▁മറിക	-3949
ടിഞ്ഞ	-3950
കന്‍	-3951
▁രീതിയ	-3952
ങ്ങള്‍ക്കും	-3953
▁സുപ്രീംകോടതി	-3954
▁ബോളിവു	-3955
ദു	-3956
▁വെളിച്ച	-3957
ച്ചിത്ര	-3958
▁വെള്ളിയ	-3959
▁കാലാവസ്ഥ	-3960
▁ഭരണകൂ	-3961
▁തീർച്ച	-3962
നയ	-3963
▁അലി	-3964
വെന്ന	-3965
ക്കിടെ	-3966
th	-3967
▁നാമ	-3968
▁മെഡിക്കൽ	-3969
ുമ്പോഴും	-3970
▁ഇല്ലാത്ത	-3971
▁സാഹചര്യത്തില്‍	-3972
▁മുന്നോട്ട്	-3973
കാലത്ത്	-3974
ങ്ങളോട്	-3975
▁അക്കൗണ്ട	-3976
▁വനിത	-3977
▁പാലക്കാട്	-3978
റ്റിക്	-3979
ചേ	-3980
▁ലോകം	-3981
നത്തിൽ	-3982
മാകും	-3983
▁പാന	-3984
ധാരണ	-3985
▁പങ്കെടുത്തു	-3986
▁അക്കാ	-3987
▁ധാരാളം	-3988
ലിപ്പ	-3989
ച്ചവ	-3990
▁ഓപ്	-3991
ിയുമായി	-3992
ര്‍ക്കും	-3993
▁വക	-3994
റിനെ	-3995
▁സൗജന്യ	-3996
▁ഭർത്ത	-3997
▁വരുന്നത്	-3998
▁വൈകുന്ന	-3999
▁ഫെബ്ര	-4000
▁പച്ചക്ക	-4001
▁ഇല്ലാതെ	-4002
▁നടക്കും	-4003
▁ഹാജര	-4004
ിപ്പിക്കുന്നു	-4005
ാർഡ്	-4006
▁ഭാരത	-4007
▁വരിക	-4008
ിയം	-4009
▁ട്രോ	-4010
ട്ടിന്റെ	-4011
▁ഉപയോക്ത	-4012
▁കലാപ	-4013
രൻ	-4014
▁C	-4015
രുടെയും	-4016
▁കിരീ	-4017
േണ്ടിവ	-4018
ക്സി	-4019
▁മുന്‍പ്	-4020
▁ജാ	-4021
പ്പെട്ടിരുന്നു	-4022
▁കുരു	-4023
ക്ട്	-4024
▁R	-4025
ൻറ	-4026
▁പാര്‍ല	-4027
▁ചേർക്ക	-4028
▁താഴ്	-4029
ോളജി	-4030
▁സജ്ജ	-4031
▁കാരം	-4032
▁നടക്കുന്നത്	-4033
വകു	-4034
ണ്ണ്	-4035
ാൻസ്	-4036
ുണ്ടാക	-4037
▁പന്ത	-4038
ർത്ത്	-4039
▁വിജില	-4040
▁നഴ്	-4041
ാന്റെ	-4042
▁നൽകുന്ന	-4043
▁സ്കൂള	-4044
▁പണി	-4045
തൃ	-4046
▁പുറമെ	-4047
മാറിയ	-4048
▁ഫെയ്	-4049
▁ശരീരം	-4050
ിക്കുന്നില്ല	-4051
▁സംരക്ഷണ	-4052
▁കുട്ടികളെ	-4053
▁അജ	-4054
▁ധാരണ	-4055
▁പ്രവൃത്തി	-4056
സഹ	-4057
▁തൊട്ട	-4058
il	-4059
▁സന്ദേശ	-4060
ജ്ജ്	-4061
▁റൺ	-4062
ർജ	-4063
ടുക്കി	-4064
▁ആരംഭിച്ച	-4065
▁സുരേന്ദ്ര	-4066
▁വല്ല	-4067
ഞ്ചു	-4068
▁ഭേദഗതി	-4069
▁രാത്ര	-4070
▁സംസാരിച്ചു	-4071
ണമെന്നാണ്	-4072
▁തീയതി	-4073
▁കുട്ടികള്‍	-4074
▁അനുയോജ്യ	-4075
▁യാഥ	-4076
ഥമിക	-4077
▁അബ	-4078
▁അമിത	-4079
▁ഹൗ	-4080
▁സംസ്ഥാനത്തെ	-4081
ലിക	-4082
▁കണ്ടെത്തിയത്	-4083
പ്ലിക്ക	-4084
▁ഏഴ്	-4085
▁ക്ഷണ	-4086
ക്കട	-4087
▁ശരിയായ	-4088
ഖല	-4089
▁തീർച്ചയായും	-4090
പോയ	-4091
മനം	-4092
▁കയറിയ	-4093
ാദ്	-4094
▁(2	-4095
റ്റുകൾ	-4096
▁പരിഗണിക്ക	-4097
ർത്ഥ	-4098
▁പാക്	-4099
▁കാര്യത്തില്‍	-4100
▁പാട്ട	-4101
▁തമ്മില്‍	-4102
തല്ല	-4103
വോ	-4104
▁തേടി	-4105
േറ	-4106
▁കൊണ്ടുവ	-4107
▁സെക്ക	-4108
▁വായന	-4109
▁നല്‍കാന്‍	-4110
ൈസ	-4111
▁കാര്യമ	-4112
▁s	-4113
▁ഡിസ്	-4114
▁നില്‍ക്കുന്ന	-4115
▁പ്രഖ്യാപിച്ച	-4116
▁കര്‍ണ	-4117
▁സിംഗ	-4118
▁കമ്പ്യ	-4119
മിച്ച്	-4120
ുകൊണ്ടാണ്	-4121
പൂർ	-4122
▁വാഹ	-4123
▁ലൂ	-4124
ിക്കണമെന്ന്	-4125
▁പ്രോഗ്ര	-4126
▁പകര്‍	-4127
▁രീതിയില്‍	-4128
▁നേരിട്ട	-4129
ക്കൊള്ള	-4130
▁ലഭിച്ചു	-4131
▁തീവ്രവാദ	-4132
യുക്ത	-4133
▁സിബിഐ	-4134
ത്തന്നെ	-4135
ിക്കോ	-4136
ൊപ്പ	-4137
▁താൽ	-4138
േഴ്സ്	-4139
▁ർ	-4140
റ്റര്‍	-4141
▁എട്ട	-4142
▁വിഷയത്തില്‍	-4143
▁ആളുകൾ	-4144
ബാദ്	-4145
▁നിയമസഭാ	-4146
ലിനെ	-4147
▁വര്‍ഗ	-4148
▁ഫോൺ	-4149
▁പ്രാഥമിക	-4150
രിക്കണം	-4151
▁വാങ്ങിയ	-4152
▁കുട്ടികൾ	-4153
ാബ	-4154
ിനൊപ്പം	-4155
ഘാത	-4156
▁ഷി	-4157
▁അഭിഭാഷക	-4158
ഹാരം	-4159
▁കഴിഞ്ഞ്	-4160
▁കുടുംബം	-4161
ര്‍ത്ഥ	-4162
▁ഗർഭ	-4163
▁ചൂണ്ടിക്കാട്ടി	-4164
▁ചലച്ചിത്ര	-4165
▁നിലനില്‍	-4166
▁ഐക്യ	-4167
▁ഗതാഗത	-4168
ക്ഷൻ	-4169
റ്റിംഗ്	-4170
ചിത്ര	-4171
▁പറഞ്ഞിരുന്നു	-4172
ാന്ത്	-4173
▁പോവ	-4174
ദായ	-4175
ിത്	-4176
▁നല്	-4177
ർത്തു	-4178
▁ഞെട്ട	-4179
▁ചാമ്പ്യ	-4180
▁സിപിഎമ്മ	-4181
ട്ടിഫ	-4182
▁ദ്ര	-4183
▁ഒള	-4184
▁ലഭ്യ	-4185
▁ഉപയോഗം	-4186
മായിരിക്കും	-4187
▁നേതാവ	-4188
▁മൊഴി	-4189
▁പ്രസിഡന്റ	-4190
കൾക്ക്	-4191
ിയുടെയും	-4192
▁ഏതു	-4193
▁അടിയന്തര	-4194
▁ചെയ്തിട്ട	-4195
▁കുടി	-4196
▁1.	-4197
▁ഇമ	-4198
രില്‍	-4199
ഡ്ജ	-4200
▁അനി	-4201
▁മനോഹരമായ	-4202
▁പൂജ	-4203
▁ശുദ്ധ	-4204
മിതി	-4205
▁ഇലക്ട	-4206
ണല്‍	-4207
▁കൂടിക്ക	-4208
▁ഒരുക്ക	-4209
കളിലെ	-4210
▁നിറം	-4211
ാട്ട	-4212
▁ഒരാള്‍	-4213
ര്‍മാന്‍	-4214
▁ഡിവ	-4215
▁വിക്കറ്റ്	-4216
റ്റു	-4217
▁ബംഗ്ല	-4218
▁ഇതിനകം	-4219
▁അവള്‍	-4220
▁തികച്ചും	-4221
▁ലണ്ട	-4222
ർക്കും	-4223
▁/	-4224
ാടി	-4225
▁ബിരു	-4226
▁കമ്പ്യൂട്ട	-4227
ുവിന്റെ	-4228
▁നിർദ്ദേശ	-4229
▁നിര്‍ബന്ധ	-4230
രാഷ്ട്ര	-4231
▁റിപ്പോർട്ട	-4232
▁അസി	-4233
▁ഓൺ	-4234
▁>	-4235
ക്ല	-4236
▁ടൂറി	-4237
വാള	-4238
▁മുടി	-4239
▁ശ്രീല	-4240
▁ഇന്റർ	-4241
▁ന്യായ	-4242
▁ശ്രീന	-4243
▁വസ	-4244
▁ലു	-4245
▁മറുപടിയ	-4246
▁യൂണ	-4247
▁സ്വാധീന	-4248
▁ഫേസ്ബുക്ക്	-4249
▁കാണുന്ന	-4250
ാക്കളുടെ	-4251
െയോ	-4252
▁പ്രശ്നം	-4253
▁തങ്ങള്‍	-4254
▁സ്വാഭാവിക	-4255
മ്പതി	-4256
പോല	-4257
ഭാഗം	-4258
▁ആലോച	-4259
▁ആവശ്യപ്പെട്ട്	-4260
▁പ്രവർത്തനം	-4261
▁നിങ്ങളെ	-4262
▁അവലോക	-4263
തിട്ട	-4264
ക്ഷോഭ	-4265
▁കല്യ	-4266
▁നിലയിൽ	-4267
▁ശനിയ	-4268
▁വയ്ക്ക	-4269
മിന്റെ	-4270
കൃ	-4271
▁ഗവര്‍	-4272
ന്നത്	-4273
▁സിദ്ധ	-4274
▁പ്രവര്‍ത്തിക്ക	-4275
▁ആയിര	-4276
ിക്കുമ്പോൾ	-4277
▁താപ	-4278
▁രമേശ്	-4279
▁മുല	-4280
▁സേവനം	-4281
ക്കുറിച്ചുള്ള	-4282
▁ലോകത്തെ	-4283
▁വിജയ്	-4284
▁മെയ്	-4285
▁വെളു	-4286
പ്രദമായ	-4287
▁പ്രതികരണം	-4288
▁അപകടം	-4289
▁പാറ	-4290
▁പ്രത്യേകിച്ച്	-4291
▁സ്ഥാനാര്‍ഥ	-4292
▁നടത്തുന്നത്	-4293
▁അമേരിക്കന്‍	-4294
ന്‍സി	-4295
പ്പൊ	-4296
▁അവസാനം	-4297
▁ആദ്യത്തെ	-4298
ടനാ	-4299
റാണ്	-4300
▁മോശ	-4301
യെന്ന്	-4302
▁ഗണ	-4303
▁തിരക്കഥ	-4304
▁സംയുക്ത	-4305
▁അക്കാദ	-4306
▁പരമാവ	-4307
▁പീഡന	-4308
ഴ്ച്ച	-4309
▁ലാഭ	-4310
▁മുന്നറിയിപ്പ്	-4311
▁തിങ്കള	-4312
▁ഞാന	-4313
ാധിക	-4314
▁ശാര	-4315
▁നൽകാൻ	-4316
▁ഡല്‍ഹി	-4317
▁പ്രവർത്തനങ്ങൾ	-4318
തുപോലെ	-4319
കേ	-4320
▁മാറ്റിയ	-4321
ീകരിച്ച്	-4322
▁നൂറ	-4323
▁പഠനം	-4324
▁സീറ്റ്	-4325
▁അള	-4326
ക്കുറി	-4327
▁വിശുദ്ധ	-4328
▁പോരാട്ട	-4329
▁വടക്ക	-4330
ക്കളും	-4331
▁റിലീസ്	-4332
▁രി	-4333
▁ആകർ	-4334
▁കൊള്ള	-4335
ഭാവന	-4336
ുമെല്ലാം	-4337
ഴിഞ്ഞു	-4338
വിക	-4339
▁അഭിനന്ദ	-4340
▁ഓപ്പറ	-4341
▁)	-4342
സ്ഥാപ	-4343
ാന്യ	-4344
▁29	-4345
ന്മാരുടെ	-4346
▁പിന്തുട	-4347
▁മത്സരത്തില്‍	-4348
▁പന്തി	-4349
ിച്ചിട്ടില്ല	-4350
ക്കളുടെ	-4351
എസ്എസ്	-4352
▁ഇന്റര്‍	-4353
ങ്കി	-4354
രിക്കുകയാണ്	-4355
ക്രോ	-4356
▁പ്രവാസ	-4357
▁മരിച്ചത്	-4358
ിക്കുമ്പോള്‍	-4359
▁ശശ	-4360
▁ത്രി	-4361
▁പേരും	-4362
റ്റിന്	-4363
ധികൃത	-4364
▁കൊടുത്ത	-4365
▁വഴിയ	-4366
▁സസ്	-4367
▁എത്തിക്ക	-4368
▁സ്ല	-4369
▁അപ്	-4370
▁മുകള	-4371
▁നിയന്ത്രണം	-4372
▁മേല്‍	-4373
ംശ	-4374
▁നിലവിലെ	-4375
▁ഹൈക്കോട	-4376
▁തള്ളി	-4377
▁നിര്‍ദേശം	-4378
▁ദിവസവും	-4379
▁അടുത്തി	-4380
ാണെന്നാണ്	-4381
▁തീരുമാനിച്ചു	-4382
▁പരമാവധി	-4383
▁കൂടിക്കാഴ്ച	-4384
ർജി	-4385
▁ഇൻസ്റ്റ	-4386
▁അബു	-4387
▁ഇടം	-4388
▁പാകിസ്ത	-4389
യുന്ന	-4390
▁മിനിറ്റ്	-4391
െയിൽ	-4392
▁ഒക്കെ	-4393
▁H	-4394
വിട്ടു	-4395
▁യി	-4396
ിനാണ്	-4397
ാരംഭ	-4398
േത്	-4399
▁പിന്നില്‍	-4400
െയര്‍	-4401
▁ബുക്ക്	-4402
▁മുതിര്‍ന്ന	-4403
▁വാഹനം	-4404
▁അല്	-4405
▁അത്യാവശ്യ	-4406
ത്തുന്നത്	-4407
alay	-4408
ത്സാഹ	-4409
റാഴ്ച	-4410
▁ബിഷ	-4411
▁പരിപാടി	-4412
ഹൃദ	-4413
▁ജാതി	-4414
▁പൊട്ട	-4415
പ്പെടുകയും	-4416
▁സിസ്റ്റം	-4417
നീയ	-4418
പരമായി	-4419
▁അവധി	-4420
കൊണ്ട്	-4421
▁നില്‍ക്ക	-4422
▁മാനേജ	-4423
▁സൗന്ദ	-4424
ാലാണ്	-4425
▁ആഴ	-4426
▁എട്ട്	-4427
▁പങ്കുവ	-4428
ാണെങ്കില്‍	-4429
▁ഡേ	-4430
ൊന്ന്	-4431
▁പാചക	-4432
▁ഓഫീസ്	-4433
▁പ്രയോ	-4434
▁യോഗത്തില്‍	-4435
▁ഫിലി	-4436
▁കൈമാറ	-4437
▁അവര്‍ക്ക്	-4438
േറ്റം	-4439
▁കാണാത	-4440
▁മുദ്ര	-4441
▁പരിസ്ഥിതി	-4442
▁ബ്ലോ	-4443
ഡിന്റെ	-4444
പരിശ	-4445
▁ഭരണഘടന	-4446
▁മഹാരാഷ്ട്ര	-4447
▁ഉയര	-4448
▁പേജ	-4449
▁ബ്രാ	-4450
▁ഉന്നയ	-4451
▁പരിശീലനം	-4452
▁വശ	-4453
▁ബിസിനസ്	-4454
▁മടങ്ങ	-4455
ാന്യം	-4456
▁മകന്‍	-4457
▁സല	-4458
▁രൂപയാണ്	-4459
▁ഏകദിന	-4460
▁ഗ്രാം	-4461
▁നെറ്റ്	-4462
▁ഞായറാഴ്ച	-4463
ാതിരുന്ന	-4464
▁രാധ	-4465
▁ചെയര്‍മാന്‍	-4466
വള	-4467
▁ആകെ	-4468
ബെ	-4469
▁കന്യ	-4470
▁താത്	-4471
കൻ	-4472
▁അംബ	-4473
▁യൂണിവേഴ്	-4474
▁ഓണ്‍	-4475
ോറ	-4476
▁ചരിത്രം	-4477
▁198	-4478
▁കേരളത്തിൽ	-4479
▁കട്ട	-4480
▁കുവൈ	-4481
ാർശ	-4482
▁വളര	-4483
▁വ്യാഴ	-4484
ഷണല്‍	-4485
്രാ	-4486
▁കായിക	-4487
തെന്ന	-4488
▁വിളിച്ച	-4489
മറ	-4490
▁മാലി	-4491
▁ഓണ	-4492
ുണ്ടെന്ന്	-4493
▁വായ്പ	-4494
▁ഒരുപാട്	-4495
ുവീ	-4496
ജീവിത	-4497
▁അടുക്ക	-4498
▁അവനെ	-4499
▁അധ്യക്ഷത	-4500
▁m	-4501
▁ഒരുമ	-4502
▁വെള്ളിയാഴ്ച	-4503
ന്യം	-4504
േക്കാം	-4505
ാനിയ	-4506
▁മൊബൈല്‍	-4507
പുര	-4508
▁ഒക്ടോ	-4509
▁അനുസരിച്ച്	-4510
▁പരസ്പ	-4511
▁ബസ	-4512
▁ന്യൂന	-4513
കോട്	-4514
▁ഗ്രൂപ്പ	-4515
▁മ്യൂ	-4516
▁ജനങ്ങള്‍	-4517
▁സൊ	-4518
▁ക്ലി	-4519
▁ഓസ്	-4520
▁അയാള്‍	-4521
▁കേസിലെ	-4522
തെന്നാണ്	-4523
ിക്കുമെന്നും	-4524
▁എത്തുന്നത്	-4525
▁കര്‍ണാടക	-4526
▁വിപണ	-4527
▁പാസ	-4528
ഷണൽ	-4529
പ്പെടുത്തുന്ന	-4530
ദാസ്	-4531
▁ക്വാ	-4532
ണായക	-4533
▁മോഹൻ	-4534
▁വരുമ്പോ	-4535
▁വാര്‍ത്തകള്‍	-4536
ങ്ങളിലേക്ക്	-4537
▁വികാര	-4538
▁അന്തി	-4539
▁ഇന്നത്തെ	-4540
ടുത്തെ	-4541
▁പ്രചാര	-4542
▁പരസ്പരം	-4543
യേ	-4544
▁മാത്യു	-4545
▁വൈറല	-4546
▁കമ്മീഷന്‍	-4547
▁കുടിയ	-4548
▁കൃത്യമായി	-4549
▁സ്റ്റേ	-4550
▁കളി	-4551
▁ഇന്നും	-4552
▁വൈകിട്ട്	-4553
▁K	-4554
▁ചെലവഴ	-4555
▁ലാമ	-4556
▁പരിഹാരം	-4557
ലിസ്	-4558
▁എക്സ്	-4559
▁അതില	-4560
ുന്നതിനായി	-4561
▁മുള	-4562
▁യുവാവ്	-4563
ാവുന്നതാണ്	-4564
▁ഹൈദ	-4565
▁ദിലീപ്	-4566
▁നീല	-4567
▁സിംഗ്	-4568
റുകള്‍	-4569
▁തൊഴില്‍	-4570
▁സംവിധായകന്‍	-4571
▁സിവ	-4572
▁ഡല്‍ഹ	-4573
▁ദുരിതാ	-4574
ുവും	-4575
ക്കാലത്ത്	-4576
▁മേഖലയില്‍	-4577
ത്താ	-4578
▁കൃഷ	-4579
▁തെരുവ	-4580
ആർ	-4581
▁നിര്‍ദ്ദേശ	-4582
▁പൊള	-4583
ാതിരിക്ക	-4584
▁സ്ഥി	-4585
പ്പർ	-4586
▁മാര്‍ച്ച്	-4587
മിത	-4588
▁അദ്ദേഹത്തെ	-4589
▁ആയിരിക്കും	-4590
▁ഉടൻ	-4591
ക്കര്‍	-4592
201	-4593
ൽപ്പന	-4594
▁രീതിയിൽ	-4595
ിതം	-4596
▁ടു	-4597
▁വിപണിയ	-4598
ധാര	-4599
▁പുനഃ	-4600
▁ചിത്രങ്ങള്‍	-4601
▁ഇദ്ദേഹ	-4602
▁നഗരസഭ	-4603
▁2015	-4604
ാമെന്ന	-4605
▁പകർ	-4606
മ്പി	-4607
99	-4608
▁കാസര്‍	-4609
▁നിമിഷ	-4610
▁അടച്ച	-4611
▁രാഹുൽ	-4612
യ്ക്കായി	-4613
ിയര്‍	-4614
േണ്ടതുണ്ട്	-4615
▁പൃ	-4616
▁പിന്‍വല	-4617
ഴ്സ്	-4618
▁അടക്കം	-4619
▁ബുധ	-4620
▁നിയോഗ	-4621
▁പരിഷ്	-4622
▁ചോദിച്ച	-4623
▁ടെസ്റ്റ്	-4624
റ്റോ	-4625
▁പ്രചരിപ്പ	-4626
പിന്റെ	-4627
ുള്ളൂ	-4628
▁റവ	-4629
▁പ്രതികരണ	-4630
▁കേരളത്തിന്റെ	-4631
▁കുടു	-4632
▁പ്രസ്ഥാന	-4633
▁അത്തര	-4634
▁വ്യക്തമായ	-4635
▁ഭാരവാഹ	-4636
▁സിനിമയില്‍	-4637
ന്തരം	-4638
di	-4639
തില്ല	-4640
▁ജൂലൈ	-4641
▁രംഗത്തെത്തിയ	-4642
നംതിട്ട	-4643
▁അഖ	-4644
▁പദ്ധതിയ	-4645
▁60	-4646
-2	-4647
യോട്	-4648
▁അഭിപ്രായം	-4649
നാഥ്	-4650
ൽക്കുന്ന	-4651
മാരും	-4652
▁സൂപ്പർ	-4653
ാകെ	-4654
▁രണ്ടാമത്തെ	-4655
ോല	-4656
രുക	-4657
▁പ്രതിനിധ	-4658
▁കുഞ്ഞു	-4659
▁അപ്പോൾ	-4660
ക്കല്‍	-4661
▁മുൻപ്	-4662
▁സഖ്യ	-4663
▁വിശദീകരണം	-4664
▁ഉപയോഗിക്കുന്നു	-4665
▁സംഭാവന	-4666
വാര	-4667
▁ആരോപിച്ചു	-4668
പ്രവര്‍ത്തക	-4669
▁വൈദ	-4670
▁ശബ്	-4671
▁കേൾ	-4672
ർത്തിയ	-4673
es	-4674
▁മേനോ	-4675
▁മാര	-4676
▁റഷ്യൻ	-4677
ുന്നതെന്ന്	-4678
ായു	-4679
▁മോട്ടോ	-4680
▁വാങ്ങി	-4681
▁അരി	-4682
▁ദമ്പതി	-4683
▁തോട്ട	-4684
▁ചെയ്യാം	-4685
യില്ല	-4686
ുന്നതിനും	-4687
വരില്‍	-4688
കാലം	-4689
▁തേടിയ	-4690
വേദ	-4691
▁വെല്ലുവിള	-4692
▁നിഗ	-4693
▁ഗി	-4694
▁സ്വാതന്ത്ര്യ	-4695
ുകാരുടെ	-4696
ീതി	-4697
▁ആഗോള	-4698
ാണെങ്കിലും	-4699
കേന്ദ്ര	-4700
▁കുതി	-4701
േരിയ	-4702
രുട	-4703
ുപേ	-4704
▁നൽകുന്നു	-4705
ശ്വാസം	-4706
▁ദുരിതാശ്വാസ	-4707
▁അനധികൃത	-4708
▁ഉണ്ടാവ	-4709
ികൊ	-4710
▁തൈ	-4711
▁സ്പീക്ക	-4712
ത്തിലായിരുന്നു	-4713
ദിവസം	-4714
▁അടിച്ച	-4715
▁സമി	-4716
▁പ്രഭ	-4717
▁സംഘടിപ്പിച്ച	-4718
▁പത്തനംതിട്ട	-4719
▁നടന്‍	-4720
▁ഇത്രയും	-4721
▁കെഎസ്	-4722
▁നിരക്ക്	-4723
സുഖ	-4724
▁കൊട്ട	-4725
▁ശനിയാഴ്ച	-4726
പ്പറ്റി	-4727
ിയർ	-4728
▁ഡാറ്റ	-4729
▁വര്‍ദ്ധ	-4730
▁ഗുരു	-4731
ചെ	-4732
യളവ	-4733
▁റണ്‍സ	-4734
▁പരിസര	-4735
▁ഉപയോഗിക്കാൻ	-4736
▁പൂർണ	-4737
▁തിങ്കളാഴ്ച	-4738
ാകുന്നത്	-4739
ശ്രീ	-4740
ന്റെയും	-4741
▁ഇരട്ട	-4742
ോടുള്ള	-4743
▁യുഎസ്	-4744
▁എത്തുന്ന	-4745
▁കൂടിയാണ്	-4746
▁പ്രക്ഷോഭ	-4747
ത്രിക	-4748
പുല	-4749
▁ഉപയോഗിച്ച	-4750
രുത്തി	-4751
▁പ്രേക്ഷക	-4752
▁ബില്ല	-4753
▁തിരഞ്ഞെടുക്ക	-4754
▁പാഠ	-4755
▁പിള്ള	-4756
▁നടത്തും	-4757
▁സ്ത്രീകൾ	-4758
▁റെഡ്	-4759
▁നദ	-4760
▁റൈ	-4761
▁നാലാം	-4762
▁മണിയ	-4763
▁സ്ക	-4764
▁ഏറ്റുമു	-4765
്യ്	-4766
▁പ്രിയങ്ക	-4767
▁പതിവ	-4768
ംബർ	-4769
▁ശുപാർശ	-4770
സ്യം	-4771
▁വിമാനം	-4772
▁ബിജു	-4773
▁ഇടപാട	-4774
പ്പോലെ	-4775
▁ചെയ്യണം	-4776
ന്‍പ	-4777
▁വാടക	-4778
▁നടപ്പാക്ക	-4779
ജിത്ത്	-4780
▁ഉമ്മന്‍	-4781
ീയം	-4782
പഞ്ച	-4783
ധ്യം	-4784
▁പത്തു	-4785
▁ബൗ	-4786
മാരെ	-4787
▁അമ്മയുടെ	-4788
കരമായി	-4789
ട്ടിൽ	-4790
▁ജനങ്ങളുടെ	-4791
▁വിവേ	-4792
ക്കര	-4793
▁ഓപ്പ	-4794
▁ബോര്‍ഡ്	-4795
തുക	-4796
▁ദുരിത	-4797
▁പ്രിയപ്പെട്ട	-4798
വ്വാ	-4799
▁സ്റ്റേഷന	-4800
▁രാജ്യത്തിന്റെ	-4801
▁ഐപി	-4802
രംഗ	-4803
▁കണ്ടത്	-4804
ർശന	-4805
പ്പാട	-4806
കര്‍ക്ക്	-4807
വേള	-4808
▁ന്ന	-4809
ോയി	-4810
ിക്കൂ	-4811
▁തോല്‍	-4812
ിമി	-4813
മാറി	-4814
▁നിർബന്ധ	-4815
▁സഹക	-4816
ോഹ	-4817
▁ഫോറ	-4818
ട്ടാണ്	-4819
▁സ്റ്റേഷ	-4820
▁സമുദായ	-4821
▁തേട	-4822
ക്രമണ	-4823
▁പുത്ത	-4824
▁പിടികൂടിയ	-4825
ക്തിയ	-4826
▁കോളജ	-4827
▁കേന്ദ്രസര്‍ക്ക	-4828
മൊ	-4829
▁ഒന്നു	-4830
▁സുഗ	-4831
▁അതിനാല്‍	-4832
▁F	-4833
▁നേടിയത്	-4834
ുവാ	-4835
▁ഖത്ത	-4836
ഫിയ	-4837
▁തോന്നി	-4838
േര്‍ത്തു	-4839
▁പിതാവ്	-4840
▁ആഗ്രഹിക്കുന്ന	-4841
",	-4842
▁സീന	-4843
▁തടസ്സ	-4844
▁മാണി	-4845
യെയും	-4846
▁അഫ്	-4847
▁ഗോപ	-4848
▁ബാക്കി	-4849
ക്കുറിച്ചും	-4850
ാണെന്നു	-4851
ുമാര്‍	-4852
▁വര്‍ഷത്തെ	-4853
യെന്ന	-4854
▁യുടെ	-4855
▁അപമാന	-4856
ിക്കാനാണ്	-4857
മെന്നും	-4858
ഡുകൾ	-4859
▁കാമുക	-4860
▁2.	-4861
▁പ്രധാനപ്പെട്ട	-4862
ുകൂടി	-4863
ാന്‍ഡ്	-4864
▁കൊള	-4865
▁ഇതിനായി	-4866
മ്പു	-4867
▁നാട്	-4868
ാധ	-4869
▁നീള	-4870
െയില്‍	-4871
▁35	-4872
ാഭ	-4873
േരം	-4874
േഡ്	-4875
▁പത	-4876
നൊ	-4877
▁തര്‍ക്ക	-4878
▁ചിത്രങ്ങൾ	-4879
▁തോന്നിയ	-4880
ിയിലും	-4881
സീ	-4882
സ്വദ	-4883
▁പൃഥ്	-4884
▁വിചാരണ	-4885
▁ഫെബ്രുവരി	-4886
▁ഖു	-4887
▁സയ	-4888
▁പൊട്ടി	-4889
▁കഴു	-4890
▁മേധാവി	-4891
▁സല്‍	-4892
▁പ്രശ്നങ്ങൾ	-4893
ാലോചന	-4894
▁വ്യത്യാസ	-4895
▁അധ്യാപ	-4896
▁കുത്ത	-4897
▁വരെയുള്ള	-4898
▁മന്ത്രിസഭ	-4899
ir	-4900
▁അയാൾ	-4901
▁I	-4902
▁യാദ	-4903
▁തുടര്‍ച്ച	-4904
▁ക്ക്	-4905
▁പേരു	-4906
ാമത്	-4907
▁തെറ്റി	-4908
▁നിരീക്ഷണ	-4909
▁ഇംഗ്ലീഷ്	-4910
▁ഡയറക്ടര്‍	-4911
▁ട്രേലിയ	-4912
നെറ്റ്	-4913
▁ഇന്നി	-4914
ത്തിച്ചു	-4915
▁ലോകകപ്പ്	-4916
▁കര്‍ഷക	-4917
▁കൂടുതല	-4918
▁മിശ്ര	-4919
ായിര	-4920
▁ചൂട	-4921
നായിരുന്നു	-4922
ാറെ	-4923
▁ചട്ട	-4924
▁സമ്മേളനം	-4925
▁പ്രകടിപ്പ	-4926
▁പുറത്തുവന്ന	-4927
▁ഗൗ	-4928
▁സൌ	-4929
▁അതിഥ	-4930
▁ടെസ്റ്റ	-4931
ഭാവം	-4932
▁വംശ	-4933
▁അവസാനിപ്പ	-4934
നിറ	-4935
▁ശങ്ക	-4936
▁ഫെഡറ	-4937
▁യുഡിഎഫ്	-4938
▁കർ	-4939
ാലം	-4940
▁വിസ	-4941
▁ട്രംപ്	-4942
▁തറ	-4943
രൊ	-4944
▁നിലവിൽ	-4945
▁ഉണ്ടായി	-4946
▁പ്രഖ്യാപിച്ചു	-4947
▁പങ്ക്	-4948
ുന്നതിനുള്ള	-4949
▁മേൽ	-4950
▁ശര	-4951
വിശ്വാസ	-4952
▁പെട്ടെന്ന്	-4953
ുന്നതെന്നും	-4954
േറ്റു	-4955
▁രോഹി	-4956
▁കാലാവ	-4957
▁ശ്രീലങ്ക	-4958
▁സന്ന	-4959
▁ആരംഭിച്ചു	-4960
▁യൂത്ത്	-4961
▁പങ്കാള	-4962
▁സാഹചര്യം	-4963
▁ആപ്പി	-4964
▁പ്രത	-4965
▁അടുത്തിടെ	-4966
▁പാടില്ല	-4967
▁ഉണ്ടാക്ക	-4968
▁ജാഗ്ര	-4969
▁ആശുപത്രിയിൽ	-4970
റ്റിയുടെ	-4971
▁സംശയം	-4972
▁ഉത്തരം	-4973
ഹാസ	-4974
ാണ്ട്	-4975
▁ആസ്വദ	-4976
▁ജേക്ക	-4977
▁കറുത്ത	-4978
▁വേഗം	-4979
െറ	-4980
▁കോർ	-4981
ടിച്ച	-4982
ശാസ്ത്ര	-4983
▁കൈവ	-4984
ിലേയ്ക്ക്	-4985
ര്‍ണ	-4986
▁പത്മ	-4987
ഗു	-4988
▁സാധ്യമ	-4989
▁നൃ	-4990
▁പര്യ	-4991
ാക്കളെ	-4992
▁കൃത്യമായ	-4993
▁നേരിടുന്ന	-4994
▁യോഗ്യത	-4995
മുള	-4996
▁അതായത്	-4997
നുമായ	-4998
▁സഹായത്തോടെ	-4999
▁തുടര്‍ന്നാണ്	-5000
ാദ്യ	-5001
▁നമ്മള്‍	-5002
▁ബംഗ്ലാ	-5003
▁ജോണ്‍	-5004
▁വഹിച്ചു	-5005
▁ഒടുവില്‍	-5006
▁ഏറ്റെടുക്ക	-5007
▁തൊഴിൽ	-5008
▁ലൈസ	-5009
▁മൂല്യ	-5010
ാഫി	-5011
മാണിത്	-5012
▁പ്രവര്‍ത്തനം	-5013
റാം	-5014
▁രൂപയും	-5015
▁പോര്‍	-5016
▁ആസൂ	-5017
▁ശത്	-5018
le	-5019
▁അംഗം	-5020
▁ഇസ്ലാമ	-5021
▁അസം	-5022
▁ഇതാണ്	-5023
പരിശോധ	-5024
▁ഇതിനിടെ	-5025
▁ഫു	-5026
▁എന്നായിരുന്നു	-5027
▁ജോര്‍ജ്	-5028
▁വന	-5029
▁ഡിവൈ	-5030
alam	-5031
▁സമാനമായ	-5032
▁സര്‍വ്വ	-5033
▁ഓര്‍	-5034
സിക്യ	-5035
▁തലമുറ	-5036
▁മണിക്ക്	-5037
▁മണിക്കൂർ	-5038
നാട	-5039
്രിക്ക	-5040
▁മാണ	-5041
-0	-5042
ക്കുകയും	-5043
ലക്ഷം	-5044
▁അന്യ	-5045
ന്ഥ	-5046
▁പേരാണ്	-5047
ിയുമായ	-5048
▁റണ്‍സ്	-5049
മില്ലാതെ	-5050
▁വരി	-5051
ശ്യം	-5052
ുകൂട്ട	-5053
ാബ്	-5054
▁ഓഫി	-5055
▁കുറച്ച	-5056
▁ചടങ്ങില്‍	-5057
▁മാലിന്യ	-5058
▁പരിധ	-5059
▁ശാരീ	-5060
▁നിരാശ	-5061
▁മമ്മൂട്ട	-5062
സ്ക്	-5063
െയിന്‍	-5064
ക്രമം	-5065
നോട്	-5066
ഡിഎഫ	-5067
▁നടത്താന്‍	-5068
▁ഹരി	-5069
▁പങ്കെടുത്ത	-5070
▁അത്യാവശ്യമാണ്	-5071
ക്കിയത്	-5072
സ്വം	-5073
ോടെയാണ്	-5074
▁വ്യോ	-5075
▁തലസ്ഥാന	-5076
▁പ്രശസ്തമായ	-5077
ംബര	-5078
▁ആരെ	-5079
ികെ	-5080
▁കാര്യത്തിൽ	-5081
▁ഏപ്ര	-5082
▁പങ്കുവെ	-5083
▁മലബ	-5084
▁റെയ്	-5085
▁ചെറുപ്പ	-5086
▁കഴിയാത്ത	-5087
▁നിർമ	-5088
▁ഇടുക്കി	-5089
▁സത്യം	-5090
▁ബുധനാ	-5091
▁പൊതുമ	-5092
▁അട്ടി	-5093
▁സഹായി	-5094
▁ആളുകള്‍	-5095
▁അളവ	-5096
▁പുഴ	-5097
▁കൊണ്ടാണ്	-5098
▁വിഭ	-5099
ക്കെതിരായ	-5100
റ്റും	-5101
ടാ	-5102
▁വിന	-5103
തിനും	-5104
▁പരിഹാര	-5105
▁ജില്ലയില്‍	-5106
▁വേറെ	-5107
▁കഠ	-5108
ന്യൂ	-5109
▁നിശ്ചയ	-5110
▁ഗെയിം	-5111
▁ആസ്ഥാന	-5112
▁രവി	-5113
ാവു	-5114
▁കുട്ടിയുടെ	-5115
▁നാരായണ	-5116
▁ജ്യ	-5117
▁കണക്കിലെ	-5118
▁അസുഖ	-5119
▁പുക	-5120
▁നിര്‍വഹ	-5121
45	-5122
ക്കാരും	-5123
▁വെടിയ	-5124
▁വാര	-5125
ത്തിനിട	-5126
▁മേഖലയിലെ	-5127
ാന്തര	-5128
▁സംരംഭ	-5129
▁വിജയന്‍	-5130
ല്ല്	-5131
കുന്ന	-5132
▁സമര്‍	-5133
▁മുപ്പ	-5134
▁സവിശേഷത	-5135
▁ടേ	-5136
▁ദേവസ്വം	-5137
▁വൃത്തിയ	-5138
▁ഏർ	-5139
▁പ്രസാ	-5140
തുമായ	-5141
▁വിദ്യാർഥ	-5142
▁കൂട്ടായ്മ	-5143
പ്പിച്ചു	-5144
ലിലെ	-5145
ിരുന്നില്ല	-5146
▁സാധാരണയായി	-5147
▁ഗ്യ	-5148
റിഞ്ഞു	-5149
▁ജമ്മ	-5150
ഗ്രി	-5151
▁ശബ്ദം	-5152
▁ആസി	-5153
സ്തവ	-5154
രെയും	-5155
▁അടയാള	-5156
▁ദൗ	-5157
കഥ	-5158
▁ബോള്‍	-5159
▁കച്ചവ	-5160
▁ആക്ഷേപ	-5161
▁കക്ഷ	-5162
▁സാംസ്	-5163
▁സൈന്യ	-5164
▁മംഗ	-5165
ായിരം	-5166
▁ജോലിയ	-5167
▁T	-5168
മര്‍	-5169
▁ഇതില	-5170
▁ആള്‍	-5171
▁കാരിക	-5172
▁നോട്ടീസ്	-5173
ലാത്സ	-5174
ാകാര	-5175
നെതിരെ	-5176
▁പുറത്തെ	-5177
▁പണിയ	-5178
പട	-5179
▁മമ്മൂട്ടി	-5180
▁ശാരീരിക	-5181
▁ഉള്‍പ്പെടെയുള്ള	-5182
▁അവളെ	-5183
ുകളുമായി	-5184
മാധ്യമ	-5185
ബന്ധിച്ച്	-5186
ിക്കണമെന്നും	-5187
ഡും	-5188
▁വയസ	-5189
ക്കണക്കിന്	-5190
ിയില	-5191
▁അയച്ച	-5192
▁സന്ദേശം	-5193
ിയോട്	-5194
▁കൈവശ	-5195
ാറില്ല	-5196
▁സ്ഥലത്ത്	-5197
▁നാശ	-5198
ൻസി	-5199
ജിത്	-5200
ികമായി	-5201
്ക്ക്	-5202
ഞ്ചേരി	-5203
▁ഡിസൈ	-5204
▁ചേർന്ന	-5205
▁ചിത്രത്തിലെ	-5206
▁ഓവ	-5207
▁റെയില്‍വേ	-5208
▁സഹായിക്കും	-5209
തമ	-5210
▁ചൊവ്വാ	-5211
ുകിട	-5212
▁തിരുവ	-5213
വുമില്ല	-5214
▁ഭിന്ന	-5215
റ്റഡ്	-5216
▁നാട്ടില്‍	-5217
ഭാഷ	-5218
െതിരെ	-5219
▁അണിയ	-5220
▁D	-5221
▁500	-5222
▁ഈട	-5223
ത്തിക്കൊ	-5224
▁ശ്രമിക്കുന്ന	-5225
▁വൈറസ്	-5226
▁വാട്	-5227
രുതെന്ന്	-5228
▁ഉദ്യോഗസ്ഥര്‍	-5229
▁ബാറ്റ്	-5230
▁ബാലകൃഷ്ണ	-5231
▁കിടക്ക	-5232
ത്താൻ	-5233
▁ഇടതുപക്ഷ	-5234
നത്തിന്റെ	-5235
▁രസകരമായ	-5236
ിക്കണമെന്ന	-5237
▁ന്യൂനപക്ഷ	-5238
▁പരാതിയ	-5239
▁കുറവ്	-5240
▁പ്രതിയ	-5241
▁ജാമ്യ	-5242
▁ഒന്നാണ്	-5243
▁നരേന്ദ്രമോ	-5244
▁നോട്ട്	-5245
ുമാന	-5246
▁പൊതുവ	-5247
▁കാണുന്നത്	-5248
▁ഹു	-5249
▁തുടർന്ന	-5250
▁ഇന്നു	-5251
▁ഭക്ത	-5252
▁മെട്രോ	-5253
െത്തി	-5254
െടുക്കും	-5255
▁മല്‍	-5256
▁സ്വന്തമാക്ക	-5257
▁ജു	-5258
▁വിതരണ	-5259
▁ശക്തമായി	-5260
ികളുമായി	-5261
സ്ഥല	-5262
ോഗ്	-5263
▁197	-5264
ക്കാര്‍ക്ക്	-5265
റ്റിങ്	-5266
▁കുന്ന	-5267
▁സൗദ	-5268
▁മലയാളം	-5269
▁ഹൈദരാ	-5270
ങ്ങുന്നത്	-5271
▁L	-5272
▁എന്നിവരുടെ	-5273
▁വർധ	-5274
40	-5275
▁ഏഴു	-5276
ടിയായി	-5277
▁പീ	-5278
▁കുമ്	-5279
▁അല്ലെങ്കില്‍	-5280
▁നിലവിലുള്ള	-5281
▁മർ	-5282
▁പ്രവർത്തക	-5283
▁സമാപ	-5284
▁അഭിമാന	-5285
▁ഉപകരണങ്ങൾ	-5286
▁ഇറ്റ	-5287
▁ടെലി	-5288
▁കത്ത്	-5289
തിലും	-5290
ഷ്യല്‍	-5291
്മി	-5292
▁ക്രിമിന	-5293
കീയ	-5294
റിംഗ്	-5295
▁തൃശൂര്‍	-5296
ാഥ	-5297
▁ചെയ്തിട്ടുണ്ട്	-5298
▁കാലയളവ	-5299
ാനായ	-5300
▁അയ്യപ്പ	-5301
▁കുത്തി	-5302
്യു	-5303
ഗ്രാമ	-5304
ന്‍റ്	-5305
േൽ	-5306
▁റഫ	-5307
▁ആനുകൂല	-5308
ാഫ്രിക്ക	-5309
വിൽ	-5310
▁വലു	-5311
▁പറ്റിയ	-5312
തയെ	-5313
▁വേന	-5314
▁പ്രത്യേകം	-5315
ോഷ്	-5316
▁ലക്ഷണ	-5317
▁സിറിയ	-5318
▁കുട്ടിയെ	-5319
▁സുമ	-5320
ങ്ങളെല്ലാം	-5321
▁സദ	-5322
ിലായത്	-5323
▁പ്രാധാന്യം	-5324
▁ഭാഗത്ത്	-5325
ധരന്‍	-5326
ാണ്ഡ	-5327
▁താമസിക്കുന്ന	-5328
ക്കെതിര	-5329
▁മന്ത്രാലയം	-5330
ിപ്പിക്കുന്നത്	-5331
▁വീഴ്	-5332
ുണ്ടെന്നും	-5333
കളായ	-5334
▁നങ്ങള്‍	-5335
പ്പിക്കുന്ന	-5336
▁വളര്‍ച്ച	-5337
▁ത്വ	-5338
▁റൊ	-5339
▁വൈകുന്നേരം	-5340
▁കുറയ	-5341
ന്റിന്റെ	-5342
▁മുട	-5343
▁ഉടനെ	-5344
▁മുതിർന്ന	-5345
▁ദൂ	-5346
▁ഫീ	-5347
▁ഗൗര	-5348
▁സംഭവിച്ച	-5349
ാട്	-5350
▁മിനു	-5351
▁െൻറ	-5352
ാച	-5353
▁ഫൈ	-5354
ശിക്ഷ	-5355
▁സില്‍	-5356
▁ചിത്രമാണ്	-5357
▁അനുസ	-5358
ണർ	-5359
ിക്കപ്പെട	-5360
▁സര്‍വകലാശാല	-5361
ക്കൽ	-5362
alayalam	-5363
▁ഒളി	-5364
രാജ്യ	-5365
▁മായ	-5366
▁മഞ്ജു	-5367
▁ജയരാജ	-5368
ാലിയ	-5369
▁പ്രോത്സാഹ	-5370
രായി	-5371
▁ആഹ്	-5372
▁ഫോട	-5373
യ്ക്കുള്ള	-5374
മാറ്റം	-5375
▁നിര്‍ത്തി	-5376
ഭാഷണം	-5377
ളൂരു	-5378
▁സന്തോഷം	-5379
രാഗത	-5380
▁ചേർന്ന്	-5381
ഹ്ല	-5382
▁ത്തി	-5383
▁പാത്ര	-5384
▁സെപ്റ്റ	-5385
▁ജയം	-5386
▁വീഴ്ച	-5387
യെല്ലാം	-5388
▁ഷൂട്ടി	-5389
ാവാ	-5390
നാഥ	-5391
ിന്റെയും	-5392
▁പരമ്പ	-5393
ടിയില്‍	-5394
▁നൽകിയത്	-5395
▁കണ്ടെത്താൻ	-5396
ബ്ബ	-5397
▁ചെലവ്	-5398
▁എനിക്ക	-5399
▁നാണ	-5400
▁പരിഗണന	-5401
വഴ	-5402
ബിള്‍	-5403
▁ഉടമസ്ഥ	-5404
▁അഗ	-5405
▁ഒന്നര	-5406
▁പരാമർശ	-5407
ലൈൻ	-5408
▁റിസോ	-5409
▁നഷ്ടപ്പെട്ട	-5410
▁ഗൂഢ	-5411
▁നിഷ്	-5412
▁വിശാല	-5413
▁നിരന്തരം	-5414
യിച്ച്	-5415
▁സാധിക്കും	-5416
തിരി	-5417
▁പ്രവേശനം	-5418
ാരു	-5419
▁രക്ഷാ	-5420
it	-5421
▁രൂപക	-5422
▁പ്രവേശന	-5423
▁ദിലീപ	-5424
െടുപ്പ്	-5425
▁തുല്യ	-5426
▁കഠിന	-5427
▁യൂറോപ്യ	-5428
▁നിത്യ	-5429
▁അന്തരീക്ഷ	-5430
▁നേട്ടം	-5431
▁’	-5432
ദ്ദം	-5433
▁താലൂ	-5434
ൊഴില	-5435
േക്കാള്‍	-5436
▁ഒടുവിൽ	-5437
▁തീരുമാനമ	-5438
ുതന്നെ	-5439
വക	-5440
▁80	-5441
▁ഇറങ്ങി	-5442
യല്‍	-5443
▁അങ്ക	-5444
ായിട്ടില്ല	-5445
ട്ടിന്	-5446
▁ഡ്രൈവ	-5447
▁ഭരണം	-5448
ുകളിലേക്ക്	-5449
▁മസ്	-5450
ുന്നതിനു	-5451
▁ചിലപ്പോൾ	-5452
പ്രി	-5453
▁ട്വ	-5454
▁ഹര്‍ജ	-5455
▁വെച്ചു	-5456
ുമ്പോഴാണ്	-5457
ടക്കമുള്ള	-5458
ത്തീ	-5459
▁പ്രായം	-5460
▁പുനര	-5461
▁പരിഹരിക്ക	-5462
പ്പടെ	-5463
ുടമ	-5464
▁മൊബൈൽ	-5465
▁വലിച്ച	-5466
▁വേഗത	-5467
▁ജേക്കബ്	-5468
ീതം	-5469
▁ആകാശ	-5470
▁പിടി	-5471
ിതമായ	-5472
ാശ്	-5473
ാരെ	-5474
ചകം	-5475
▁മൊത്തം	-5476
ുകളില	-5477
▁ടിവി	-5478
▁എഴുത്തുകാര	-5479
▁ബുധനാഴ്ച	-5480
▁നേതൃത്വത്തിൽ	-5481
▁സ്ഥാനത്ത്	-5482
▁ജയ്	-5483
റിഞ്ഞ്	-5484
▁സാധ്യ	-5485
▁വിപുല	-5486
▁രജിസ്റ്റര്‍	-5487
▁വരാ	-5488
▁ശരാശ	-5489
▁പൃഥ്വി	-5490
▁മോഹന്‍ലാല്‍	-5491
▁പ്ലാസ്റ്റിക്	-5492
▁മെറ്റ	-5493
▁ഇംഗ്ലണ്ട	-5494
▁നടപടികൾ	-5495
ഡിന്	-5496
▁ആകുന്നു	-5497
▁കമ്പനിയുടെ	-5498
ുമല്ല	-5499
▁പരമ്പരാഗത	-5500
▁ലോകത്തിലെ	-5501
▁പ്രദേശത്ത്	-5502
▁എന്തിന	-5503
▁സ്ക്ര	-5504
ic	-5505
▁ബാന	-5506
▁ഭക്ഷ്യ	-5507
▁അറിയിച്ച	-5508
ing	-5509
▁വ്യാഴാഴ്ച	-5510
▁ഒരാൾ	-5511
ടിന്	-5512
▁ഇപ്പോഴത്തെ	-5513
▁ദക്ഷിണാഫ്രിക്ക	-5514
▁മാധ	-5515
▁വ്യാപാര	-5516
▁വീഴ	-5517
▁സസ്യ	-5518
▁പെണ്ണ	-5519
▁തുടരുന്നു	-5520
▁ആം	-5521
▁ഭാരം	-5522
▁ഒതു	-5523
▁അധ്യക്ഷന്‍	-5524
ീണ	-5525
▁യോജ	-5526
▁കഞ്ച	-5527
▁മയക്കുമ	-5528
▁ട്രെയിന	-5529
60	-5530
▁മുല്ല	-5531
▁സൈന്യം	-5532
ാംപ	-5533
ൂരിൽ	-5534
▁അന്തിമ	-5535
▁ഗൂഗി	-5536
▁നമ്പര്‍	-5537
▁ഏതാണ്ട്	-5538
▁ഉണ്ടാകും	-5539
▁വെട്ടി	-5540
▁തദ്ദേശ	-5541
ര്‍ഡ്	-5542
▁ചാര്‍	-5543
▁അസ്വ	-5544
▁താപനില	-5545
മേഖല	-5546
▁ഭവന	-5547
▁2013	-5548
▁മീറ്റർ	-5549
▁p	-5550
▁കേരളാ	-5551
▁സമര്‍പ്പിച്ച	-5552
ണോ	-5553
▁നല്‍കും	-5554
▁ബ്രിട്ടീഷ്	-5555
ത്തോട	-5556
▁ദിനം	-5557
▁പ്രയാസ	-5558
▁പ്രവാസി	-5559
▁മോശം	-5560
തുര	-5561
▁ബിജെപിയുടെ	-5562
▁കോളജ്	-5563
▁1,	-5564
▁കഴിഞ്ഞില്ല	-5565
ഭൂമി	-5566
ടിയും	-5567
▁നായര്‍	-5568
സംഖ്യ	-5569
▁വന്ന്	-5570
റ്റീവ്	-5571
▁ഉം	-5572
▁നാട്ടുകാര്‍	-5573
▁സ്വർ	-5574
▁തമ്മിൽ	-5575
▁സ്ഥാനാർത്ഥ	-5576
▁പുറം	-5577
ക്കളെ	-5578
▁സംഘര്‍ഷ	-5579
ഞ്ഞത്	-5580
▁പ്രേമ	-5581
▁തിയേറ്റ	-5582
ിപ്പിച്ച്	-5583
▁അല്പം	-5584
ദിനം	-5585
ടുന്ന	-5586
▁എഴുന്ന	-5587
▁സ്പോ	-5588
▁പിന്നാലെയാണ്	-5589
ണമെ	-5590
പ്പെടുത്താൻ	-5591
▁ചായ	-5592
▁കോടതിയെ	-5593
തിലൂടെ	-5594
റ്റേ	-5595
ിലധികം	-5596
▁ബോധ്യ	-5597
▁ഉപദേശ	-5598
▁പേര്‍ക്ക്	-5599
ദേവ	-5600
▁സര്‍വീസ്	-5601
▁കുറിച്ചു	-5602
▁ഹോം	-5603
▁ഇത്തരത്തില്‍	-5604
ങ്ങളുണ്ട്	-5605
▁സങ്കീർ	-5606
ന്ദ്	-5607
▁ആശംസ	-5608
▁ന്റെ	-5609
▁തയ്യാറെ	-5610
▁32	-5611
▁ജോർ	-5612
▁പ്രതികളെ	-5613
▁ഉത്പാദ	-5614
▁ബൂ	-5615
▁70	-5616
▁ഓര്‍മ്മ	-5617
തീഷ്	-5618
▁കഷ്ട	-5619
▁കരിയ	-5620
▁ശസ്ത്ര	-5621
ാറിനെ	-5622
▁സിം	-5623
ക്കാന	-5624
െടുക്കാന്‍	-5625
▁രാധാക	-5626
▁പിറന്ന	-5627
▁അനുയോജ്യമായ	-5628
▁സൗഹൃദ	-5629
▁മോദിയുടെ	-5630
ുകയായിരുന്ന	-5631
▁ബഹു	-5632
▁മന്ത്രാലയ	-5633
▁സമർപ്പ	-5634
ങ്ങള്‍ക്കു	-5635
എൽഎ	-5636
▁ആക്	-5637
▁നിലവാര	-5638
▁അങ്ങനെയ	-5639
▁ആന്‍ഡ്	-5640
▁മര്‍ദ്ദ	-5641
▁പലത	-5642
▁പ്ലേ	-5643
▁പാക്കിസ്ഥാന	-5644
▁ഡിസംബര്‍	-5645
ഒരു	-5646
േക്കുള്ള	-5647
▁എഫ	-5648
▁ഇനിയ	-5649
▁പുസ്തകം	-5650
▁അവാര്‍ഡ്	-5651
മ്മി	-5652
▁ട്വീ	-5653
▁നല്ക	-5654
▁ബിഗ്	-5655
നിര്‍	-5656
▁പറയാന്‍	-5657
▁ഒട്ടേറെ	-5658
ക്കുകൾ	-5659
ങ്ങൾക്കും	-5660
▁ഇന്ധ	-5661
ിപ്പിക്കാൻ	-5662
വിന്‍	-5663
▁നിൽക്കുന്ന	-5664
വേദന	-5665
▁വേണമ	-5666
▁അവർക്ക്	-5667
▁പോള	-5668
രുന്നില്ല	-5669
ഭൂമ	-5670
വൽ	-5671
ിക്കുന്നുണ്ട	-5672
ാംശ	-5673
▁അധികൃതർ	-5674
▁മുന്‍പ	-5675
▁അനുവദിച്ച	-5676
▁45	-5677
▁ഗുരുതരമായ	-5678
▁പരീക്ഷണ	-5679
▁ആവി	-5680
▁ദശ	-5681
▁വീതം	-5682
▁നടത്താൻ	-5683
▁സ്വദേശിയായ	-5684
▁ഇസ്ര	-5685
പ്പുകൾ	-5686
▁കടല	-5687
ുര	-5688
തുകൊണ്ട്	-5689
▁അവതരിപ്പിച്ച	-5690
▁ഗെയ	-5691
▁സ്മാര്‍	-5692
▁അദ്ദേഹത്തിന്	-5693
കുമാർ	-5694
▁ബജറ്റ്	-5695
▁പോകുന്നത്	-5696
▁ഫണ്ട്	-5697
▁അമേരിക്കൻ	-5698
▁എംപ	-5699
▁നല്‍കുന്നത്	-5700
▁കാലാവധി	-5701
ാമം	-5702
▁ദുബായ്	-5703
▁കാലഘട്ട	-5704
▁സ്വാമി	-5705
▁പെട്രോ	-5706
▁വിശ്വ	-5707
▁ക്രോ	-5708
▁ഹര്‍ജി	-5709
ക്യം	-5710
ണ്ഠ	-5711
▁അപ്പോള്‍	-5712
▁കോടിയേരി	-5713
▁കുടിവെള്ള	-5714
▁ശശി	-5715
ങ്ങുന്നു	-5716
▁കൊണ്ടുവന്ന	-5717
ാത്മക	-5718
▁പുഷ്	-5719
റിയും	-5720
▁കയറ്റ	-5721
ോസ്	-5722
▁പ്രത്യേകത	-5723
▁ചിലര്‍	-5724
ാവശ്യപ്പെട്ട്	-5725
എസ	-5726
▁ഇക്കാര്യത്തില്‍	-5727
ക്കെട്ട	-5728
▁വിരമ	-5729
ല്ലാതെ	-5730
▁ചൈനീസ്	-5731
ങ്ങളിലാണ്	-5732
പ്പിട	-5733
▁വിമര്‍ശന	-5734
▁അടിസ്ഥാനത്തില്‍	-5735
▁അറിയിച്ചത്	-5736
▁ഡോക്ടർ	-5737
▁ഇറങ്ങിയ	-5738
▁ബഹി	-5739
ൽഹ	-5740
▁കൈയ	-5741
▁ഹോട്ടൽ	-5742
▁മുരളീ	-5743
▁വിക്കറ്റ	-5744
ിക്കിട	-5745
▁G	-5746
▁രാമചന്ദ്ര	-5747
▁മണ്ഡലം	-5748
▁ഡിവി	-5749
േതര	-5750
▁ടീച്ച	-5751
ിലൂടെയാണ്	-5752
ിക്കുന്നതും	-5753
▁ബെംഗ	-5754
വാദം	-5755
▁എംഎൽഎ	-5756
▁പോയിന്റ്	-5757
▁Malayalam	-5758
▁c	-5759
ഭാഷണ	-5760
▁കാൽ	-5761
▁വിരാ	-5762
▁പമ്പ	-5763
▁നല്‍കിയിരുന്നു	-5764
ക്കിന്റെ	-5765
ഡിൽ	-5766
ou	-5767
▁കൊഴു	-5768
▁മഹാ	-5769
▁സാഹചര്യത്തിലാണ്	-5770
▁വൈകീ	-5771
ത്തറ	-5772
▁നീണ്ടു	-5773
▁ഏറ്റുമുട്ട	-5774
▁ടൗ	-5775
▁ചൂട്	-5776
െയിൻ	-5777
▁വരുമാനം	-5778
ിക്കാനായി	-5779
▁നേതാക്കൾ	-5780
▁എന്നറിയ	-5781
പ്പെടുവ	-5782
▁കമ്പനിയ	-5783
▁ആവ	-5784
ങ്ങളിലായി	-5785
▁ഭഗ	-5786
▁പകു	-5787
ില്യ	-5788
▁ലാല	-5789
▁വേട്ട	-5790
▁ശസ്ത്രക്രിയ	-5791
ലിശ	-5792
ദെ	-5793
സല	-5794
ത്തുടര്‍ന്ന്	-5795
▁ഉപകരണം	-5796
▁തോന്നുന്നു	-5797
▁B	-5798
ജിന്റെ	-5799
▁വൈദിക	-5800
ാറും	-5801
▁എന്തുകൊണ്ട്	-5802
ഷറ	-5803
ൂബ	-5804
▁എഞ്ച	-5805
▁ജനങ്ങളെ	-5806
ിക്കേണ്ടത്	-5807
▁ചാല	-5808
▁ഓഹരി	-5809
ികളെയും	-5810
▁കാന	-5811
ജിയ	-5812
മാരായ	-5813
▁ഉപയോഗിക്ക	-5814
ഴ്സ	-5815
▁അവന്‍	-5816
▁O	-5817
▁പരുക്ക	-5818
റ്റിലെ	-5819
▁നാട്ടിലെ	-5820
ത്തോടെയാണ്	-5821
ംഭ	-5822
സ്ഥാൻ	-5823
▁മാര്‍ക്ക	-5824
▁സോള	-5825
പ്പിലെ	-5826
ിക്കാണ	-5827
ിപ്പിച്ചത്	-5828
▁d	-5829
▁വയനാട്	-5830
▁ചിത്രത്തിൽ	-5831
ിട്ടുണ്ടെന്നും	-5832
▁ഉണ്ണ	-5833
▁സോഫ്റ്റ്	-5834
ാകട്ടെ	-5835
▁ചൊവ്വാഴ്ച	-5836
▁സാര	-5837
▁ബലാത്സ	-5838
▁മകൻ	-5839
▁ആധ	-5840
▁കോമ	-5841
▁ബോളിവുഡ്	-5842
▁നിശ	-5843
ത്തുക	-5844
▁ഗോവ	-5845
തുട	-5846
ദാന	-5847
▁ആന്റണി	-5848
ിലുണ്ട്	-5849
▁അതെ	-5850
▁മറക്ക	-5851
.2	-5852
▁നിർദേശ	-5853
▁അയാളുടെ	-5854
▁ഭരണകൂട	-5855
▁∙	-5856
റിങ്	-5857
▁തുടങ്ങിയവര്‍	-5858
▁മോഹൻല	-5859
സമിതി	-5860
േബ	-5861
ുകയാണെന്നും	-5862
ാഫിക്	-5863
▁ഓഗ	-5864
▁പ്രതിഭ	-5865
ഹ്യ	-5866
▁എതിര	-5867
▁ക്ഷമ	-5868
▁അസിസ്റ്റ	-5869
ണിയുടെ	-5870
▁പാക്ക	-5871
ൂസ്	-5872
ടിച്ചു	-5873
▁ശരിക്കും	-5874
▁(3	-5875
▁സിനിമയിലെ	-5876
ാക്കുകയും	-5877
തേ	-5878
ൻറ്	-5879
▁ആവര്‍	-5880
▁ചിക്ക	-5881
ത്തായ	-5882
▁കൊറിയ	-5883
▁കരുതിയ	-5884
ൈസ്	-5885
▁സ്കൂൾ	-5886
ാറ്റ്	-5887
▁വിശ്വാസം	-5888
പെട്ട	-5889
രേഖ	-5890
▁കൂട്ടിച്ചേ	-5891
▁ചാർ	-5892
പ്രദേശ്	-5893
▁രാധാകൃഷ്ണ	-5894
▁വിളിച്ച്	-5895
ക്കിടയില്‍	-5896
▁വസ്തുക്കൾ	-5897
▁സ്മ	-5898
▁സ്വി	-5899
ion	-5900
▁എന്നിവര	-5901
▁ലോകത്ത്	-5902
എൻ	-5903
▁രണ്ടാമ	-5904
▁പരിശീലന	-5905
നെയും	-5906
ിയായിരുന്നു	-5907
▁ആരാധകര്‍	-5908
എച്ച്	-5909
▁പന്ത്	-5910
▁നൗ	-5911
▁ഡിജിറ്റ	-5912
ത്തായി	-5913
▁നേരത്തേ	-5914
▁കോടതിയിൽ	-5915
▁അഥ	-5916
▁ഇം	-5917
ിച്ചുകൊണ്ട	-5918
▁ഉത്തര്‍	-5919
▁നിന്റെ	-5920
ുന്നതും	-5921
▁അവഗണ	-5922
▁മധുര	-5923
▁ടിക്കറ്റ്	-5924
▁സംസാരിച്ച	-5925
▁വ്യക്തമായി	-5926
▁മുന്നോട്ടു	-5927
▁രുച	-5928
വ്വം	-5929
ഫെ	-5930
ഷീ	-5931
റൂ	-5932
▁വീണു	-5933
▁ട്വീറ്റ്	-5934
▁ഹാള	-5935
▁ഞാനും	-5936
▁ആഹ്വ	-5937
▁ദയ	-5938
▁താന	-5939
േല	-5940
▁37	-5941
ാമെന്നും	-5942
▁തുടരുന്ന	-5943
ലൈന്‍	-5944
▁അതോറി	-5945
ൊക്കെയ	-5946
▁അതിനിടെ	-5947
▁നാഗ	-5948
▁നഷ്ടം	-5949
▁തയ്യാറാക്കിയ	-5950
▁ജാമ്യം	-5951
▁രാജീവ്	-5952
▁യേ	-5953
ഡിന	-5954
▁മോഷ്ട	-5955
ുമെന്നു	-5956
▁ദൂര	-5957
▁രണ്ടും	-5958
▁പിന്നിൽ	-5959
പിന്ന	-5960
ന്തു	-5961
▁പദ്ധതിയുടെ	-5962
▁ദുരൂഹ	-5963
▁കിടക്കുന്ന	-5964
ര്‍ഷം	-5965
▁മദ	-5966
▁മനുഷ്യാവകാശ	-5967
▁രഞ്	-5968
▁സ്വപ്നം	-5969
ൊന്നുമില്ല	-5970
▁ആചാര	-5971
▁ഒത്തു	-5972
▁സ്റ്റാ	-5973
▁ഇവിട	-5974
ve	-5975
രഹിത	-5976
▁നമ്മൾ	-5977
താം	-5978
സംഘടന	-5979
ര്യമ	-5980
▁ആപ്ലിക്ക	-5981
പര്യം	-5982
▁പുറത്തിറങ്ങിയ	-5983
▁വളർച്ച	-5984
ലുകളും	-5985
പ്രിയ	-5986
▁രാജി	-5987
▁എമ്മ	-5988
▁പള്ളി	-5989
ചൊ	-5990
▁ക്ലിക്ക്	-5991
ക്കെതിരേ	-5992
▁യൂണിറ്റ്	-5993
യുമാണ്	-5994
▁വിൻ	-5995
▁ഉൾപ്പെടുന്നു	-5996
▁കവ	-5997
▁ജനം	-5998
▁പേരി	-5999
▁വക്ത	-6000
▁മറികട	-6001
▁പോയത്	-6002
ക്കാലം	-6003
▁കൂട്ടി	-6004
▁മേഖലയിൽ	-6005
ല്ലാ	-6006
▁പാള	-6007
▁90	-6008
▁ഇറങ്ങ	-6009
▁ജ്	-6010
▁അഗ്	-6011
▁പങ്കാളി	-6012
▁തസ്	-6013
▁ണ	-6014
▁നര	-6015
▁ഡീസ	-6016
ാണുള്ളത്	-6017
പ്പെടുത്താന്‍	-6018
▁നടൻ	-6019
▁സമ്മര്‍	-6020
▁വീണ്ട	-6021
▁ഉയര്‍ത്ത	-6022
▁രചന	-6023
▁എട്ടു	-6024
▁ധൈ	-6025
ിക്കുള്ള	-6026
▁വലി	-6027
▁വിയ	-6028
▁ബ്ലോക്ക്	-6029
▁ഡിഗ്രി	-6030
വിഭാഗ	-6031
▁ഗര്‍ഭ	-6032
പോയി	-6033
▁ജനകീയ	-6034
▁നല്ലത്	-6035
▁മിന	-6036
▁മേള	-6037
as	-6038
വീന	-6039
▁ആഭ	-6040
വിളി	-6041
നോട്ട	-6042
▁എതിരാള	-6043
ഡു	-6044
ര്‍ഥ	-6045
▁തട്ടിയ	-6046
▁ഉണ്ടാക്കിയ	-6047
▁ശാന്ത	-6048
ലൊ	-6049
▁നിർമ്മാത	-6050
▁അടുപ്പ	-6051
ത്തിരി	-6052
▁കീഴട	-6053
ുകാരും	-6054
▁ആദി	-6055
▁മില്ല	-6056
▁ശരി	-6057
▁ഹെഡ്	-6058
മാകുന്നു	-6059
▁തുറന്ന്	-6060
▁തുടങ്ങിയത്	-6061
▁ഗ്രന്ഥ	-6062
▁ഘടകങ്ങൾ	-6063
ുവരുന്ന	-6064
▁തകര്‍ക്ക	-6065
യിലായിരുന്നു	-6066
ിക്കര	-6067
യൽ	-6068
േണ്ടതില്ല	-6069
▁ഇയാളെ	-6070
▁തമിഴ	-6071
▁കണ്ണൂർ	-6072
ിച്ചാൽ	-6073
▁സംഘപരി	-6074
പിള്ള	-6075
▁വസ്ത്രം	-6076
▁ഗാനം	-6077
ുണ്ടോ	-6078
▁അതും	-6079
▁എന്നിവരും	-6080
▁കൗൺ	-6081
▁അഡ	-6082
▁ദുര്‍	-6083
▁ബോട്ട	-6084
▁നവംബര്‍	-6085
യിലേ	-6086
▁വിശ്രമ	-6087
▁പെന്‍	-6088
▁പ്രധാനമാണ്	-6089
▁ദിവസത്തെ	-6090
ല്‍ക്കത്ത	-6091
▁കോടതിയ	-6092
െന്നായിരുന്നു	-6093
▁വ്യാപകമായി	-6094
ുകാല	-6095
▁എംപി	-6096
▁യന്ത്ര	-6097
▁സ്റ്റേഡിയ	-6098
▁പ്രഖ്യാപനം	-6099
▁പയ്യ	-6100
ന്മാരും	-6101
▁അക്കൗണ്ട്	-6102
▁ഇന്ത്യയിൽ	-6103
▁വെങ്ക	-6104
സൈന	-6105
▁മോഡൽ	-6106
▁നിലനിൽ	-6107
▁സന്നദ്ധ	-6108
▁വനം	-6109
▁കുറ്റം	-6110
▁സ്പെ	-6111
▁ഭാഗത്തു	-6112
▁കം	-6113
▁കപ്പ്	-6114
ിക്കുമെന്ന	-6115
ണ്ണയ	-6116
▁വിശദീകരിക്ക	-6117
സമയ	-6118
ിഡ്	-6119
▁ഉള്ളത്	-6120
യൊരു	-6121
▁ഓടി	-6122
▁സമ്മർ	-6123
ച്യ	-6124
▁അശോ	-6125
▁നിലനിർത്ത	-6126
▁ചോദ്യത്തിന്	-6127
▁കാര്യമായ	-6128
▁ന്യൂഡൽഹി	-6129
▁ഫോർ	-6130
▁കുമാർ	-6131
▁മകള്‍	-6132
▁അഞ്ചാം	-6133
▁നിന്നെ	-6134
▁ഷാജ	-6135
ക്കന്‍	-6136
ൊരാള	-6137
▁സംഗീതം	-6138
കളെയും	-6139
പ്പെടുത്തുന്നു	-6140
നാട്ട	-6141
▁ക്കു	-6142
▁ന്യൂസ്	-6143
▁സന്തോഷ്	-6144
▁പുറപ്പെടുവ	-6145
▁അഫ്ഗ	-6146
▁റൂമ	-6147
കളുമായി	-6148
▁ലളിതമായ	-6149
▁പൂര്‍ണ്ണ	-6150
റായി	-6151
▁പലിശ	-6152
മാണു	-6153
▁അഭയ	-6154
പ്പന്‍	-6155
▁അടുക്കള	-6156
▁പുലര്‍ച്ച	-6157
▁ബ്ലാസ്റ്റ	-6158
ർഗ	-6159
ബിയ	-6160
▁രേഖപ്പെടുത്തിയ	-6161
▁ഇറക്ക	-6162
രിയില്‍	-6163
▁നഷ്ടപരി	-6164
▁*	-6165
▁നേരം	-6166
▁അംഗീകാരം	-6167
▁കരാര്‍	-6168
▁വാഴ	-6169
പ്പര്‍	-6170
▁ജൂണ്‍	-6171
▁കലാകാര	-6172
▁ഇന്ത്യയെ	-6173
▁പ്രയോജന	-6174
▁രച	-6175
നിലെ	-6176
്യൂട്ട്	-6177
▁അധി	-6178
ാഖ	-6179
▁ഫീസ്	-6180
▁ഉപരി	-6181
▁ഒരുപ	-6182
▁എടുത്ത്	-6183
വരു	-6184
▁തെലു	-6185
▁ജാഗ്രത	-6186
▁ആഗ്രഹം	-6187
▁ഗ്ലാസ്	-6188
▁വിഷയത്തിൽ	-6189
▁യുദ്ധം	-6190
▁ഭീകരാ	-6191
▁അതുകൊണ്ടു	-6192
▁ജൈവ	-6193
▁കുറെ	-6194
യോഗം	-6195
▁വിപ്ല	-6196
ച്ചില്‍	-6197
▁പഞ്ചസാര	-6198
ൂഷ	-6199
വീപ	-6200
▁ആളുകളെ	-6201
▁പെൺകുട്ടി	-6202
▁നിർമ്മാണ	-6203
▁എന്നിവയാണ്	-6204
▁തോമ	-6205
▁പ്രവർത്തകർ	-6206
ക്വ	-6207
▁സർക്കാരിന്റെ	-6208
ണൽ	-6209
▁കഴുക	-6210
▁വരുമ	-6211
▁കിലോമീറ്റര്‍	-6212
ഷ്ണു	-6213
▁അക്കാദമി	-6214
▁കീഴിൽ	-6215
▁സഞ്ചാരി	-6216
ുകാരി	-6217
▁പോകുന്നു	-6218
ശ്യമ	-6219
ുവെന്ന്	-6220
▁മുന്നറിയിപ്പ	-6221
▁പ്രദർശ	-6222
▁ഡ്യൂ	-6223
▁സെൻ	-6224
▁കുഞ്ഞിനെ	-6225
ിരുന്നാലും	-6226
▁അടിസ്ഥാനത്തിൽ	-6227
▁ചുറ്റും	-6228
▁ചര	-6229
തന്ന	-6230
▁വീട്ടിലെ	-6231
▁പ്രതിസന്ധി	-6232
▁അന്നത്തെ	-6233
▁കമ്മ്യൂണി	-6234
▁ഫോര്‍	-6235
ന്റേയും	-6236
▁ഇടയ	-6237
▁കത്തി	-6238
▁കൊലപ്പെടുത്തിയ	-6239
ട്ടര്‍	-6240
ാന്‍ഡ	-6241
വരെയും	-6242
▁ഗൂഢാലോചന	-6243
ായുധ	-6244
ൂൺ	-6245
▁നമ്പർ	-6246
▁പോയിന്റ	-6247
▁മലിന	-6248
ന്മാരെ	-6249
▁ജപ്പ	-6250
രിക്കുക	-6251
▁അവധ	-6252
▁പീഡിപ്പിച്ച	-6253
ാവില്ല	-6254
▁ഓർമ്മ	-6255
▁കുറഞ്ഞത്	-6256
▁ഒഴുക	-6257
▁ദിലീ	-6258
ബുക്ക്	-6259
▁വെടിവ	-6260
▁മാർക്ക	-6261
നിന്നുള്ള	-6262
▁ആസൂത്ര	-6263
▁കര്‍ശന	-6264
▁ഒരിക്കൽ	-6265
▁എഞ്ചിന	-6266
▁മറിച്ച്	-6267
▁ഏരിയ	-6268
▁പതിവ്	-6269
▁സുധാക	-6270
▁ശരാശരി	-6271
▁വാര്‍ഷിക	-6272
10	-6273
ിയ്ക്ക്	-6274
മാൻ	-6275
▁ശമ്പളം	-6276
▁ആന്റി	-6277
erala	-6278
▁നെഞ്ച	-6279
▁പെണ്‍കുട്ടി	-6280
▁മെഷ	-6281
ിപ്പറ	-6282
വകുപ്പ്	-6283
ഴുതിയ	-6284
▁യുവതിയെ	-6285
▁ഇന്ദ	-6286
▁ഹര	-6287
▁റിപ്പ	-6288
▁ബാറ്റ	-6289
പുഴ	-6290
▁അസാധാരണ	-6291
ക്കിംഗ്	-6292
▁തീരുമാനിച്ച	-6293
മിനി	-6294
ുകാരെ	-6295
ഡിറ്റ്	-6296
▁പ്രകാശ്	-6297
▁ബാഗ	-6298
ക്കാരായ	-6299
▁ജ്യോ	-6300
▁വേർ	-6301
▁2012	-6302
▁കരുതി	-6303
▁ഉറപ്പ്	-6304
ഗെ	-6305
ബാദ	-6306
▁എന്നിരുന്നാലും	-6307
▁വിഷമ	-6308
▁അബുദാ	-6309
▁കൊന്ന	-6310
ാരോ	-6311
▁സ്വര്‍ണ	-6312
▁പൊന്ന	-6313
▁ഉപയോഗിക്കുന്നത്	-6314
ാമോ	-6315
▁പരാതിയില്‍	-6316
▁ആച	-6317
▁കാല്‍	-6318
▁കാത്തു	-6319
ോഗം	-6320
▁ഗവേഷണ	-6321
▁സംരക്ഷണം	-6322
▁ജീവിതത്തിൽ	-6323
▁ബില്‍	-6324
റ്റുകള്‍	-6325
▁സെല്‍	-6326
ദണ്ഡ	-6327
േബ്യ	-6328
▁വിട്ട്	-6329
ാളും	-6330
▁അപ്രതീക്ഷ	-6331
ിപ്പിക്കാന്‍	-6332
▁ബാധ്യത	-6333
▁ഇടവേള	-6334
ുണ്ടായത്	-6335
▁കര്‍ഷ	-6336
▁വെടിവെ	-6337
ണില്‍	-6338
▁ആശുപത്രിയിലെ	-6339
െയില	-6340
▁J	-6341
▁ഭീഷണിയ	-6342
▁ഉറപ്പുവ	-6343
ഗതം	-6344
▁പ്രീ	-6345
▁കണക്ക്	-6346
ട്രോള	-6347
▁അസോസിയേഷന്‍	-6348
ാനാവില്ല	-6349
സ്സി	-6350
▁കബ	-6351
▁കൊടുത്തു	-6352
ദ്ദി	-6353
ടകം	-6354
വതി	-6355
ീർഘ	-6356
▁കന്ന	-6357
▁t	-6358
▁അതിശ	-6359
:00	-6360
▁പൂട്ട	-6361
▁മാവോയി	-6362
▁വരുത്തിയ	-6363
റായ	-6364
▁പ്രാര്‍ത്ഥ	-6365
▁ആശ്രയ	-6366
ുമാര	-6367
▁എന്തായാലും	-6368
▁ഏപ്രില്‍	-6369
▁ഗോൾ	-6370
▁ജീവന്‍	-6371
▁വ്യായ	-6372
▁ഗവർ	-6373
▁സന്ധ	-6374
ക്ഷണ	-6375
ക്കുഴ	-6376
▁നിറഞ്ഞു	-6377
പ്പിനെ	-6378
▁സൗകര്യം	-6379
▁കാര്‍ഷിക	-6380
''	-6381
▁ഓൺലൈൻ	-6382
സ്കോ	-6383
▁തുടർച്ച	-6384
▁നാവ	-6385
▁പൂച്ച	-6386
▁മൈക്രോ	-6387
▁മറു	-6388
▁മനസ്സിലാക്ക	-6389
ുകളായി	-6390
▁ശത്രു	-6391
ോടി	-6392
▁ക്രിസ്ത്യ	-6393
▁ആശയം	-6394
▁നാസ	-6395
▁സംഭവത്തിൽ	-6396
▁അനുഭവം	-6397
▁നാര	-6398
ുകൂടിയ	-6399
▁കന്യാസ്ത്ര	-6400
ൊഴിലാള	-6401
▁കൈയ്യ	-6402
▁സഹായിക്കുന്നു	-6403
▁ത്	-6404
▁ചെയര്‍	-6405
▁കുടുംബാംഗ	-6406
സംഘം	-6407
ള്‍പ്പെടെ	-6408
▁കളിക്ക	-6409
റേ	-6410
ണിക്	-6411
▁സ്ത്രീകളുടെ	-6412
തായാണ്	-6413
▁നിര്‍മ്മാണ	-6414
▁ദൃശ്യങ്ങള്‍	-6415
▁വിദ്യാഭ്യാസം	-6416
▁മാർഗ	-6417
ണിന്റെ	-6418
▁രൂപത്തിൽ	-6419
▁നന്മ	-6420
▁വഞ്ച	-6421
▁ഗൗരവ	-6422
ിലെയും	-6423
▁അധികാരം	-6424
ഴുത	-6425
▁ഇടി	-6426
▁താരങ്ങള്‍	-6427
▁രാജ്യാന്തര	-6428
▁പറയാം	-6429
▁നിര്‍ദ്ദേശം	-6430
▁സ്റ്റേറ്റ്	-6431
▁സച്ചി	-6432
▁ആവശ്യമില്ല	-6433
▁മത്സരത്തിൽ	-6434
80	-6435
ിക്കപ്പെടുന്ന	-6436
▁വള്ള	-6437
▁സിന്റെ	-6438
▁കൊണ്ടുപോക	-6439
നങ്ങളും	-6440
ന്നൂര്‍	-6441
▁പ്രവര്‍ത്തിച്ച	-6442
▁കൊല്‍ക്കത്ത	-6443
▁നിര്‍ണായക	-6444
▁ബാധക	-6445
▁ആന്ധ	-6446
▁പറയാൻ	-6447
is	-6448
▁സമനില	-6449
▁സോണിയ	-6450
ട്ടർ	-6451
ക്ഷത്ര	-6452
രുടേയും	-6453
▁അറേബ്യ	-6454
▁വിരാട്	-6455
▁വളരെയ	-6456
മാശ	-6457
ുണ്ടാകും	-6458
▁മദ്യപ	-6459
▁സന്നി	-6460
ില്ലെങ്കില്‍	-6461
▁പദവി	-6462
▁പ്രചാരണം	-6463
▁വിജിലന്‍സ്	-6464
▁ഇടത്	-6465
▁രക്തം	-6466
▁നിർമാണ	-6467
▁കോം	-6468
▁ട്യൂ	-6469
▁കുറിച്ചുള്ള	-6470
▁പടിഞ്ഞ	-6471
സമ്മേള	-6472
▁താക്ക	-6473
ുകയാണെന്ന്	-6474
▁കാസര്‍കോട്	-6475
ഹോ	-6476
റുകളും	-6477
▁കൂട്ടിയ	-6478
▁സൗന്ദര്യ	-6479
ബ്ലിക്	-6480
▁2020	-6481
▁ബാക്കിയ	-6482
▁സര്‍ക്കാര	-6483
ത്തിര	-6484
▁2011	-6485
▁അഭാവ	-6486
ബ്രഹ	-6487
▁അനിവ	-6488
ഡീ	-6489
▁അവര	-6490
▁നിക	-6491
നമാണ്	-6492
▁എന്നിവരെ	-6493
ങ്ങൾക്കു	-6494
▁പിരി	-6495
▁പോകാൻ	-6496
ഡുകള്‍	-6497
▁വെറുതെ	-6498
▁ആകാം	-6499
▁ടൂറിസം	-6500
▁പശ്ചിമ	-6501
▁വൈകീട്ട്	-6502
▁കിലോമീറ്റർ	-6503
ബന്ധന	-6504
ണമേ	-6505
▁എട	-6506
▁ആവർ	-6507
▁നിശ്ചിത	-6508
▁അര്‍ഹ	-6509
▁പ്രദര്‍ശ	-6510
▁കോടതിയുടെ	-6511
▁അണു	-6512
▁സമ്പന്ന	-6513
▁പന്തില്‍	-6514
▁ദില്ലി	-6515
പ്യൂട്ടി	-6516
▁കേന്ദ്രമന്ത്രി	-6517
ക്കാർക്ക്	-6518
വര്‍ക്കും	-6519
47	-6520
റിയുടെ	-6521
▁പ്രീമ	-6522
▁പൂര്‍ണമായും	-6523
▁പകുതി	-6524
▁കവി	-6525
ക്കുട	-6526
▁ഐഎസ്	-6527
▁ആകര്‍	-6528
▁ദുബൈ	-6529
▁പുരോഗമ	-6530
▁തെറ്റായ	-6531
▁വാങ്ങാൻ	-6532
▁മീറ്റ	-6533
▁എന്നിങ്ങനെ	-6534
▁ഔട്ട്	-6535
▁ജോസഫ	-6536
പത്രം	-6537
▁അബ്ദുല്‍	-6538
െയായിരുന്നു	-6539
▁മീറ്റര്‍	-6540
▁രാം	-6541
ജന്‍	-6542
▁ദീർഘ	-6543
▁മുന്നോ	-6544
ൻപ	-6545
പാദന	-6546
▁കെപി	-6547
▁യുഎഇ	-6548
▁അറിയാം	-6549
▁കുറിച്ച	-6550
▁ഇങ്ങനെയ	-6551
▁വധശിക്ഷ	-6552
ിയായിരുന്ന	-6553
▁ൻ	-6554
▁രക്ഷിത	-6555
▁സ്വാഗതം	-6556
▁ബംഗാള	-6557
▁തക്ക	-6558
▁ചാര	-6559
▁ശോഭ	-6560
▁ച്ച	-6561
വസ്തു	-6562
▁ഡോക്ടര്‍	-6563
▁പെരുമ	-6564
ay	-6565
▁അക്ഷര	-6566
▁ന്യൂസില	-6567
▁മാനദണ്ഡ	-6568
▁മുസ്ല	-6569
▁കാറ്റ	-6570
▁വച്ചു	-6571
ട്സ്	-6572
ch	-6573
▁f	-6574
വല്‍	-6575
മുണ്ടായിരുന്നു	-6576
▁സീത	-6577
▁എളുപ്പത്തിൽ	-6578
▁ആഗ്രഹിക്കുന്നു	-6579
ുപറ	-6580
▁ബാധിച്ച	-6581
▁നിമിഷം	-6582
േഷന്റെ	-6583
▁വലിയൊരു	-6584
ങ്ങളോ	-6585
▁ജോൺ	-6586
െടുക്കാൻ	-6587
▁വേണു	-6588
▁ഫ്രാന്‍	-6589
▁വെള്ളാ	-6590
ിക്കരുത്	-6591
▁ചെയ്യേണ്ട	-6592
▁b	-6593
▁ദൈവം	-6594
ഫറ	-6595
മാണെന്ന	-6596
▁യുവതിയുടെ	-6597
▁അവലോകനങ്ങൾ	-6598
▁കുട്ടികള	-6599
▁അംഗീകരിച്ച	-6600
▁കലാ	-6601
ാത്തത്	-6602
▁ചുവന്ന	-6603
▁മീഡിയയില്‍	-6604
കുറ	-6605
▁സ്മാർ	-6606
▁ഉണ്ടായത്	-6607
▁പ്രധാനമായും	-6608
▁കാണിച്ച	-6609
ന്റീന	-6610
▁കൊടു	-6611
▁അവിട	-6612
▁ആത്മീയ	-6613
ഭി	-6614
സണ്‍	-6615
▁അടിമ	-6616
▁പിൻവല	-6617
▁ശിവസേന	-6618
▁തെറ്റിദ്ധ	-6619
▁ഡൽഹി	-6620
▁ഭാവി	-6621
▁പിടികൂടി	-6622
▁അറിയില്ല	-6623
▁ഭൂരിപക്ഷം	-6624
പ്പിച്ച്	-6625
▁ഭര്‍ത്താവ്	-6626
ങ്കോ	-6627
ികള്‍ക്കും	-6628
▁ഉൽ	-6629
▁രംഗത്ത	-6630
▁സാന്നിധ്യം	-6631
▁ആശ്വാസ	-6632
ിക്കൊണ്ട്	-6633
▁രവീ	-6634
ാകാം	-6635
▁പ്രസംഗം	-6636
മാസം	-6637
പ്പണ	-6638
ൃതിയ	-6639
▁മണിക്കൂര്‍	-6640
▁പച്ചക്കറി	-6641
.3	-6642
▁Re	-6643
▁മുദ്രാവാ	-6644
▁യേശു	-6645
െണ്ണ	-6646
▁കോര്‍പ്പറ	-6647
▁അറിവ	-6648
▁എതിരെ	-6649
▁വികസനം	-6650
ല്ലെന്ന്	-6651
▁പ്രതികരിച്ചു	-6652
▁ഫ്രഞ്ച്	-6653
▁വിഭാഗത്തില്‍	-6654
തിഒ	-6655
റിയാം	-6656
▁തിരിച്ചടി	-6657
▁ആവശ്യമുള്ള	-6658
ൻഷൻ	-6659
▁പോലീസിന്റെ	-6660
ംഗലം	-6661
ന്തോ	-6662
▁പ്രസിദ്ധീകരിച്ച	-6663
ിക്കുന്നതിനുള്ള	-6664
രിയ്	-6665
▁അക്	-6666
▁ക്യാപ്റ്റന്‍	-6667
ജിനീയ	-6668
▁പ്രേരിപ്പ	-6669
▁റെയിൽ	-6670
ന്തം	-6671
വാസ്	-6672
▁ഗുജറാത്ത്	-6673
▁ഇയാൾ	-6674
്യമന്ത്രി	-6675
▁ഫ്രാ	-6676
ാവൂ	-6677
എന്ന	-6678
▁ചിത്രത്തിന്	-6679
▁പുറത്തുവിട്ട	-6680
ഗാ	-6681
ടിയിൽ	-6682
▁തൃശ്ശ	-6683
േക്കാൾ	-6684
▁ആരാധകർ	-6685
▁സുപ്രീംകോട	-6686
▁തൊട്ടു	-6687
▁വെളുത്ത	-6688
▁സമഗ്ര	-6689
▁നിസ്സ	-6690
▁വിൻഡോ	-6691
ാർട്ട്	-6692
പദ	-6693
▁പ്രതികള്‍	-6694
ച്ചില	-6695
▁സ്വഭാവം	-6696
തിനിട	-6697
▁പ്രമാണ	-6698
്റെ	-6699
െയുടെ	-6700
▁കേരളത്തിന്	-6701
ണയ	-6702
▁കസ്റ്റഡിയിലെ	-6703
▁സെമി	-6704
ുകളുടെയും	-6705
▁സ്ഥാപിച്ച	-6706
വെന്നാണ്	-6707
▁ഐസ	-6708
▁മക്കൾ	-6709
▁നൊ	-6710
വര്‍ഷം	-6711
▁ജയിലില്‍	-6712
▁ഭാഗ്യ	-6713
▁വണ്ട	-6714
ദിന്റെ	-6715
▁കൈമാറിയ	-6716
▁അപകടത്തില്‍	-6717
▁അനുമ	-6718
▁പന്ത്ര	-6719
▁എന്നിവയുടെ	-6720
▁ഇന്ത്യക്ക്	-6721
ുമാ	-6722
▁ഓണ്‍ലൈന്‍	-6723
▁പറ്റി	-6724
ടിയുടെ	-6725
▁ബഹ്	-6726
▁ഒത്ത	-6727
▁ബോംബ	-6728
▁ചെയ്യുകയും	-6729
▁രോഹിത്	-6730
ome	-6731
▁ബോർഡ്	-6732
▁മോഹന്‍ലാല	-6733
▁സന	-6734
▁ഓഫീസര്‍	-6735
▁പശു	-6736
▁മാധ്യമങ്ങള്‍	-6737
▁ഗുരുവ	-6738
▁അല്ലാഹ	-6739
പത്ര	-6740
ിരിക്കെ	-6741
▁ബദ	-6742
കത്ത്	-6743
▁വിജ്ഞ	-6744
▁കാഞ്ഞ	-6745
▁ജമ്മു	-6746
▁കൗണ്‍സില	-6747
ുവഴി	-6748
▁മെമ്മ	-6749
ല്ലെ	-6750
▁ആഹ്വാനം	-6751
▁നടത്തിയിരുന്നു	-6752
ിനിടെ	-6753
ഫോൺ	-6754
▁തർക്ക	-6755
▁പ്രോഗ്രാം	-6756
▁തണുത്ത	-6757
▁വേഗത്തിൽ	-6758
▁തട്ടിപ്പ്	-6759
▁മാര്‍ഗ	-6760
▁സമ്മാനം	-6761
ക്കുകയാണ്	-6762
▁വൃത്ത	-6763
▁ന്യൂയോ	-6764
▁പ്ലസ്	-6765
▁ഡിസൈൻ	-6766
ിലാ	-6767
▁പ്രതിമ	-6768
▁യഥാര്‍ത്ഥ	-6769
കക്ഷ	-6770
ക്കർ	-6771
▁ഫിലിം	-6772
▁പാര്‍ട്ടിയ	-6773
▁300	-6774
▁ആസ്	-6775
ിതമായി	-6776
മുണ്ടായ	-6777
▁ഓസ്ട്ര	-6778
▁വേണ്ടത്	-6779
▁പൊള്ള	-6780
യ്ക്കിടെ	-6781
▁ധോണി	-6782
▁മുകളില്‍	-6783
▁36	-6784
ില്ലെങ്കിൽ	-6785
▁ഒരുമിച്ച്	-6786
ങ്ങാട്	-6787
▁സിന്ധ	-6788
▁സര്‍ക്കാരിന്	-6789
▁പിടിച്ച്	-6790
▁പ്രായോഗ	-6791
▁ജോയി	-6792
▁ഖാന്‍	-6793
തക	-6794
വിഡ്	-6795
▁ജെയ്	-6796
ണക്കിന്	-6797
▁സ്ത്രീകളെ	-6798
▁മന്ദ	-6799
▁ഉറപ്പു	-6800
▁ശമ്പള	-6801
്യാ	-6802
▁ലയ	-6803
പുരം	-6804
▁നമ്മള	-6805
ിനിര	-6806
▁ആരെങ്കിലും	-6807
▁പാർല	-6808
▁ശാസ്ത്രജ്ഞ	-6809
▁അട്ടിമറ	-6810
▁പ്രോസിക്യ	-6811
▁സംവിധായകൻ	-6812
▁ടീമിന്റെ	-6813
▁ലിസ്റ്റ	-6814
▁കുണ്ണ	-6815
▁പകര	-6816
ാഗോ	-6817
വ്വഹ	-6818
ായിട്ടുണ്ട്	-6819
ങ്കര	-6820
▁വാണി	-6821
▁പ്രമേയ	-6822
▁കാണാതായ	-6823
വിട്ട്	-6824
ുവെന്നും	-6825
▁കൗണ്‍സില്‍	-6826
▁മുന്‍ക	-6827
സിറ്റി	-6828
േറ്റർ	-6829
▁തുടരുകയാണ്	-6830
▁മൃദ	-6831
▁വമ്പ	-6832
ുകയാണെങ്കിൽ	-6833
▁ലഹരി	-6834
▁മനോജ്	-6835
▁ചാണ്ടി	-6836
ിയെയും	-6837
▁വികസിപ്പ	-6838
സിയുടെ	-6839
▁സഭയുടെ	-6840
▁വ്യത്യസ്തമായ	-6841
▁മജി	-6842
▁വിസ്മ	-6843
ഗോപ	-6844
കുളം	-6845
▁ഫലമായി	-6846
വേഷണ	-6847
▁ടെലിവി	-6848
▁നായകന്‍	-6849
▁പറയും	-6850
പ്പൂ	-6851
▁ആവിഷ്	-6852
▁ഗള്‍	-6853
▁ഞെട്ടി	-6854
നിർ	-6855
ാവിന്	-6856
▁പാചകം	-6857
▁മദ്യം	-6858
▁മിന്ന	-6859
സിഡ	-6860
ാനാകും	-6861
▁നായകന	-6862
▁ക്ഷേത്രം	-6863
▁വെസ്റ്റ്	-6864
▁ഒഴു	-6865
oo	-6866
ഫലം	-6867
▁മൂല്യം	-6868
▁സ്ത്രീയ	-6869
▁കിരീട	-6870
▁എതിര്‍	-6871
ുക്ക	-6872
ത്തിനുള്ളില്‍	-6873
ളിത്	-6874
െന്നത്	-6875
▁അണിയറ	-6876
▁ഡൽഹ	-6877
▁വില്‍പ്പന	-6878
▁രാജിവെ	-6879
ത്രെ	-6880
▁ഉചിത	-6881
▁അതാണ്	-6882
▁കൊണ്ടുപോയി	-6883
▁തന്‍റെ	-6884
യുള്ളൂ	-6885
ീത്	-6886
▁പന	-6887
▁ചില്ല	-6888
▁പല്ല	-6889
▁സുവ	-6890
▁അവയ	-6891
▁ബ്യൂ	-6892
ിയിലാണ്	-6893
▁മുൻപ	-6894
ിലേറെ	-6895
ില്ലേ	-6896
ികളുടെയും	-6897
▁ചാണ്ട	-6898
ാണല്ലോ	-6899
▁ദോഷ	-6900
▁കിരീടം	-6901
▁പട്ടികയില്‍	-6902
ഭേദ	-6903
▁പ്രചരണ	-6904
▁രാഷ്ട്രീയം	-6905
▁രൂപീകരിക്ക	-6906
ed	-6907
▁പരിധി	-6908
തിനുള്ള	-6909
▁ഓർക്ക	-6910
ക്ഷമ	-6911
▁മാറുന്നു	-6912
▁പൗ	-6913
▁ഏജന്‍സ	-6914
താണെന്ന്	-6915
ാമ്പ	-6916
▁ജനസംഖ്യ	-6917
▁തകരാ	-6918
▁സിറ്റ	-6919
▁തല്ല	-6920
▁ലഭിക്കാന്‍	-6921
ാക്കളും	-6922
▁ഒരുപക്ഷേ	-6923
▁in	-6924
▁സമൂഹം	-6925
രിക്കാം	-6926
ിക്കുന്നതാണ്	-6927
ദാസ	-6928
▁കോഹ്	-6929
▁ഡ്രൈവര്‍	-6930
▁മനോഹര	-6931
▁കളിച്ച	-6932
▁കിടന്നു	-6933
▁മതം	-6934
▁ഭരണാധിക	-6935
സഞ്ച	-6936
സാമ	-6937
രുതെന്നും	-6938
ിമുഖ്യ	-6939
▁തിരിച്ചടിയ	-6940
▁കവര്‍	-6941
▁അളവ്	-6942
ായുടെ	-6943
▁അതീവ	-6944
ദ്ധ്യമ	-6945
▁രാജേഷ്	-6946
മർ	-6947
▁ഉൽപ്പന്നങ്ങൾ	-6948
▁പാൽ	-6949
▁ലഭിക്കുന്നത്	-6950
▁ഇതര	-6951
ര്‍ട്ട	-6952
▁ആര്‍ക്കും	-6953
ത്സവം	-6954
ുപോക	-6955
ഭാഗ്യ	-6956
▁വിറ	-6957
▁ചുണ്ട	-6958
▁ക്ഷേമ	-6959
▁സൃഷ്ടിച്ച	-6960
ചെയ്ത	-6961
പര്യമ	-6962
▁ഉണ്ടെങ്കിൽ	-6963
▁പിരിച്ചു	-6964
▁രാഷ്ട്രപതി	-6965
▁എന്നിട്ടും	-6966
▁തിരിച്ചറിഞ്ഞ	-6967
ത്തോ	-6968
▁ഖുര്‍	-6969
▁സ്ഥലത്തെ	-6970
▁ശ്വാസ	-6971
ർജ്ജ	-6972
▁ജഡ്ജ	-6973
▁സഹോദരി	-6974
▁ലഭ്യമാണ്	-6975
▁വ്യാപാരി	-6976
▁അനുഗ്രഹ	-6977
ഗര്‍	-6978
▁ഹര്‍ത്ത	-6979
▁പൊലീസിന്റെ	-6980
▁ക്രിസ്റ്റ	-6981
ീര്‍ഘ	-6982
▁2000	-6983
ൊരാ	-6984
▁ആര്യ	-6985
▁വാഷി	-6986
ുവാനും	-6987
▁അർത്ഥ	-6988
ak	-6989
▁സണ്‍	-6990
▁സീരിയ	-6991
പ്പുറത്ത്	-6992
ാഹി	-6993
▁ബ്രസ	-6994
▁തള്ളിയ	-6995
▁അറിയപ്പെടുന്ന	-6996
▁ധരിച്ച	-6997
▁ഉപരോധ	-6998
▁വിലക്ക്	-6999
ൈൻ	-7000
▁വേഷം	-7001
▁കൂടിയായ	-7002
▁വീടിന്റെ	-7003
ൃഹ	-7004
ടിവി	-7005
ർമാൻ	-7006
ല്ലാത്ത	-7007
▁ഞങ്ങളെ	-7008
▁പെയ്	-7009
ാറില്‍	-7010
ളിയ	-7011
▁റു	-7012
▁ആനുകൂല്യ	-7013
▁അലങ്കാര	-7014
▁ഉണ്ടാക്കി	-7015
▁ഹീ	-7016
ല്ലെന്നും	-7017
▁പദ്ധതികള്‍	-7018
▁കൈമാറി	-7019
ദ്ദീന്‍	-7020
▁ക്കെതിരെ	-7021
ൻെറ	-7022
▁കാർഡ്	-7023
▁രക്ഷപ്പെട	-7024
▁കൊലപാതകം	-7025
▁ചേട്ട	-7026
▁നെയ്	-7027
ണ്ടര്‍	-7028
▁തടവ	-7029
▁വെയ്	-7030
▁ഇലക്ട്ര	-7031
▁വേള	-7032
▁കൃത്രി	-7033
കയ	-7034
ലോഡ്	-7035
▁അനില്‍	-7036
▁തസ്തിക	-7037
▁ഇത്തരമൊരു	-7038
▁ഗവര്‍ണര്‍	-7039
▁പോരാട്ടം	-7040
റിയില്‍	-7041
ങ്കം	-7042
▁പ്രതിഫല	-7043
▁തിരഞ്ഞെടുത്ത	-7044
തിനാലാണ്	-7045
▁ചെങ്ങ	-7046
▁അദ്ധ്യക്ഷ	-7047
▁കായ	-7048
▁കാര്‍ഡ്	-7049
▁നാഷണല്‍	-7050
▁മക്കള്‍	-7051
▁പ്രദേശത്തെ	-7052
▁സ്കോ	-7053
ക്കിടയിൽ	-7054
▁പാര്‍ട്ടിയുടെ	-7055
മേള	-7056
▁നെഹ്	-7057
ബറ	-7058
▁അതിക്രമ	-7059
▁ജീവിതത്തില്‍	-7060
ജനം	-7061
▁ഷെയ്	-7062
▁വായിച്ച	-7063
▁വാഹനങ്ങള്‍	-7064
▁മതേതര	-7065
▁പ്രതീക	-7066
▁150	-7067
കമായ	-7068
▁ഫോമ	-7069
▁ചേര്‍ത്ത	-7070
▁വിവാഹിത	-7071
▁ചൂണ്ടിക്കാട്ട	-7072
ന്തിര	-7073
▁സുക	-7074
▁ഉപ്പ്	-7075
▁സമ്മേളനത്തില്‍	-7076
▁മടങ്ങി	-7077
▁കൂളില്‍	-7078
▁സ്ഫ	-7079
▁വിശകല	-7080
▁196	-7081
ഡിംഗ്	-7082
ക്കാരൻ	-7083
▁പ്രതിപക്ഷം	-7084
ടിസി	-7085
▁നിന	-7086
ഡിപി	-7087
▁3.	-7088
സമൂഹ	-7089
റങ്ങിയ	-7090
▁പ്രസവ	-7091
റോണ	-7092
▁ആലുവ	-7093
ലികോ	-7094
ക്കാരന്‍	-7095
▁വേണ്ടിയാണ്	-7096
▁തകര്‍ന്ന	-7097
▁ചിറ	-7098
▁കുര്യ	-7099
▁ഓഗസ്റ്റ്	-7100
▁ആൾ	-7101
▁ആന്റ്	-7102
തായ	-7103
മോഹ	-7104
ക്കുറിച്ച	-7105
ിക്കുന്നതിനായി	-7106
▁പ്രചോദ	-7107
▁ഉത്പന്ന	-7108
നഷ്ട	-7109
▁അസ്വസ്ഥ	-7110
▁വർഗ	-7111
രിക്കുകയും	-7112
▁എങ്ങ	-7113
ഃഖ	-7114
▁അം	-7115
ര്സ്	-7116
▁സരിത	-7117
▁ചന്ദ്രശേഖ	-7118
▁ബിരുദ	-7119
▁ഉറപ്പുവരുത്ത	-7120
▁സാന്നിധ്യ	-7121
▁ലഭിക്ക	-7122
ദിവസ	-7123
▁അദ്	-7124
മ്പര്യ	-7125
ഴല	-7126
▁വരുത്തി	-7127
15	-7128
▁അറസ്റ്റിലായ	-7129
▁നിർത്തി	-7130
മാല	-7131
സംഗ	-7132
ഘോഷം	-7133
▁ഇടയിൽ	-7134
▁ഒരാഴ്ച	-7135
രാതന	-7136
▁ഡിസൈന	-7137
പ്പോയി	-7138
▁പൂർണ്ണമായും	-7139
▁പൊലീസിന്	-7140
▁പ്രഥ	-7141
ാകാത്ത	-7142
▁വര്‍ഗീയ	-7143
▁ഇട്ടു	-7144
▁സ്ഥിരം	-7145
▁മെന്റ	-7146
▁രംഗത്തെത്തി	-7147
▁സൈസ്	-7148
ത്തിനകം	-7149
ായിരുന്നില്ല	-7150
▁അനുവദിക്കുന്നു	-7151
▁ആദിത്യ	-7152
▁പഞ്ചായത്ത	-7153
▁ഉപയോഗിക്കാം	-7154
▁ഉയര്‍ത്തി	-7155
▁ഇംഗ്ലണ്ട്	-7156
ഹൈ	-7157
തര	-7158
▁സെൽ	-7159
▁കല്യാണ	-7160
▁സ്മാര	-7161
വിന്ദ	-7162
ൂലം	-7163
▁നിലനിര്‍ത്ത	-7164
▁സ്വീക	-7165
ാതെയാണ്	-7166
എല്ല	-7167
▁വാര്‍ത്താ	-7168
▁മുഹമ്മ	-7169
▁നല്ലൊരു	-7170
▁അമ്പല	-7171
▁തിരിച്ച്	-7172
▁ഹിമ	-7173
രുണ്യ	-7174
▁ജിയോ	-7175
▁വേര്‍	-7176
▁ഗംഭ	-7177
▁ജേത	-7178
▁തീരുമാനിച്ചത്	-7179
▁ബൈക്ക്	-7180
▁സിനിമയിൽ	-7181
▁കൂൾ	-7182
▁രാജിവ	-7183
മാകുന്ന	-7184
▁നിയമനം	-7185
▁യുവാവിനെ	-7186
▁തട്ടിക്കൊണ്ട	-7187
െത്ത	-7188
▁വർഷത്തെ	-7189
നൈ	-7190
വിനിമ	-7191
▁ആന്‍ഡ	-7192
കൂടി	-7193
ഷ്യൽ	-7194
▁ഉമ്മന്‍ച	-7195
▁രാസ	-7196
പ്രശ്	-7197
വിട്ടി	-7198
▁പൊതുജന	-7199
▁പിടികൂട	-7200
▁ഇരി	-7201
▁കരാറ	-7202
പഞ്ചായ	-7203
ുണ്ടാകുന്ന	-7204
▁തുണ	-7205
ുമാത്ര	-7206
▁ശ്രമിച്ചു	-7207
▁തിരിഞ്ഞു	-7208
ചരി	-7209
▁പങ്കെടുക്കുന്ന	-7210
മാത്രം	-7211
ത്തിലെത്തിയ	-7212
▁രമ	-7213
▁മരുന്നുകൾ	-7214
ുമ്പ്	-7215
▁സര്‍വീസ	-7216
▁മാർച്ച്	-7217
ത്തിനാണ്	-7218
▁ഉദ്ധ	-7219
▁നിർദ്ദേശം	-7220
▁സര്‍ട്ടിഫ	-7221
ലൈന	-7222
ത്തിലധികം	-7223
▁ഗെയിമ	-7224
▁നിരോധനം	-7225
ന്ദു	-7226
▁ബട്ട	-7227
▁ശാഖ	-7228
▁ഫയൽ	-7229
▁കെട്ടിടം	-7230
▁ദീര്‍ഘ	-7231
▁വാക്കുകള്‍	-7232
▁നൽകും	-7233
ങ്ങള്	-7234
ഡ്യൂ	-7235
▁ജനത	-7236
▁പലതും	-7237
▁കരാർ	-7238
▁കൊച്ചു	-7239
▁പെണ്‍കുട്ടിയെ	-7240
മറിയ	-7241
കുറ്റ	-7242
▁ട്രോള	-7243
▁ശശിക	-7244
▁ടൊ	-7245
▁ക്ലോ	-7246
▁പ്രതിയെ	-7247
lin	-7248
ൊടുവ	-7249
▁ക്ലബ്ബ	-7250
▁ചേർത്ത്	-7251
▁പ്രോട്ട	-7252
ാലിറ്റി	-7253
▁ഡൊ	-7254
▁33	-7255
▁കാശ്മീ	-7256
▁ജോർജ്	-7257
▁ശൈല	-7258
▁രജിസ്ട്ര	-7259
▁മകൾ	-7260
▁സംവ	-7261
▁ചെയ്യുമ്പോൾ	-7262
▁അപൂർ	-7263
▁പിടികൂടിയത്	-7264
യ്യി	-7265
▁തടഞ്ഞ	-7266
▁എന്നിവയും	-7267
▁ചാവ	-7268
ap	-7269
▁ആദിവ	-7270
▁ഋ	-7271
▁രവീന്ദ്ര	-7272
▁ഉണ്ടാകുന്ന	-7273
▁സെമിന	-7274
കളില	-7275
▁ചങ്ങ	-7276
നുബന്ധിച്ച്	-7277
▁ക്രീം	-7278
മുണ്ടാക	-7279
▁പ്രവാചക	-7280
▁റിസര്‍	-7281
ീനം	-7282
un	-7283
പാര്‍	-7284
ബന്ധം	-7285
ിക്കുന്നതിനും	-7286
പ്പള്ള	-7287
▁ബിജെപിക്ക്	-7288
കേരള	-7289
▁75	-7290
ക്കിങ്	-7291
▁പോകാന്‍	-7292
▁വന്നിരുന്നു	-7293
ിറങ്ങിയ	-7294
▁തുടര്‍	-7295
▁യുഡിഎഫ	-7296
▁വകുപ്പിന്റെ	-7297
യാക	-7298
▁ഹിറ്റ്	-7299
▁ഉറക്ക	-7300
▁എടുത്തി	-7301
▁ആയിരം	-7302
▁പ്രവണ	-7303
▁സിവില്‍	-7304
കൊണ്ട	-7305
▁പോഷക	-7306
▁അസിസ്റ്റന്റ്	-7307
▁ജീവനക്കാരുടെ	-7308
ജയം	-7309
മായിട്ട	-7310
▁ഇലക്ട്രോ	-7311
ക്കയ	-7312
ിച്ചിരുന്നത്	-7313
▁വീട്ടമ്മ	-7314
▁സ്വാഗത	-7315
നുസ	-7316
▁ഷാജി	-7317
▁ആദിവാസി	-7318
▁സുനില്‍	-7319
▁മത്സരിക്ക	-7320
▁ന്യൂദ	-7321
▁കാവ്യ	-7322
▁കൊണ്ടുവര	-7323
▁വീട്ടിലേക്ക്	-7324
മൂല	-7325
▁പോള്‍	-7326
▁കർശന	-7327
▁പുത	-7328
ീന്ദ്ര	-7329
ത്തേയും	-7330
ക്കൻ	-7331
▁ആവശ്യപ്പെട	-7332
▁സമൂഹമാധ്യമ	-7333
സൗ	-7334
പരിശോധന	-7335
▁മുസ്ലീം	-7336
യുട	-7337
▁വെള്ളി	-7338
▁ക്വ	-7339
▁പേരുടെ	-7340
ാസ്ത്രം	-7341
▁സ്മാര്‍ട്ട്	-7342
▁വാല	-7343
▁ബോക്	-7344
മിന്	-7345
▁ഉറങ്ങ	-7346
▁അരുണ്‍	-7347
യ്ക്കാൻ	-7348
▁ഇന്ദ്ര	-7349
▁അഥവാ	-7350
ഷുറ	-7351
▁ആക്രമിച്ച	-7352
താന	-7353
▁പണമ	-7354
▁ആരാധന	-7355
▁ഇന്ധന	-7356
ഡിലെ	-7357
ാവശ്യം	-7358
▁കാമ്പ	-7359
ലേ	-7360
▁അറസ്റ്റില്‍	-7361
നുമായി	-7362
ായിട്ടും	-7363
▁ഇത്തരത്തിലുള്ള	-7364
ാമിന്റെ	-7365
▁തെരഞ്ഞെടുപ്പ	-7366
▁ചൗ	-7367
▁മനുഷ്യൻ	-7368
▁മയക്കുമരുന്ന്	-7369
ഫ്രിക്ക	-7370
ധാനം	-7371
▁കൊട്ടാര	-7372
ിനുള്ളില്‍	-7373
▁ഗുണം	-7374
▁വിശദമായ	-7375
വിന്ദ്	-7376
െയിംസ്	-7377
▁ട്രാൻസ്	-7378
▁ഫ്രണ്ട്	-7379
▁ടെല	-7380
▁എസ്റ്റ	-7381
▁പരസ്യമായി	-7382
▁ജീവനക്കാര്‍	-7383
ക്രി	-7384
മിയുടെ	-7385
▁അനുസ്മ	-7386
▁ധ്യ	-7387
▁കിടന്ന	-7388
▁പ്രതിനിധിക	-7389
രിട	-7390
▁ടൂര്‍	-7391
ഴുതി	-7392
▁പ്രതിഷേധിച്ച്	-7393
വാന്‍	-7394
ജന്റീന	-7395
▁അവകാശം	-7396
ിള	-7397
,,,	-7398
▁പരേ	-7399
▁അഹമ്മദ്	-7400
▁പുരാതന	-7401
▁സ്റ്റൈ	-7402
▁നല്ലതാണ്	-7403
ജൻ	-7404
ണ്ഡിത	-7405
▁ഗുണ്ട	-7406
▁[	-7407
▁നിലപാ	-7408
▁ഹരിയ	-7409
വയാണ്	-7410
റ്റിങ്ങ	-7411
ാക്കണം	-7412
▁ആനന്ദ	-7413
ദാര്‍	-7414
▁വെബ്സൈ	-7415
▁ക്രിസ്ത	-7416
ക്ഷണം	-7417
▁വികസി	-7418
▁ഹോസ്റ്റ	-7419
▁എല്ലാവർക്കും	-7420
ീയമായ	-7421
▁യുണ	-7422
ുവെന്ന	-7423
▁ലഘ	-7424
ശങ്ക	-7425
▁ഘടകം	-7426
▁ബഹുമാന	-7427
സംസ്ഥാന	-7428
▁വര്‍ധന	-7429
ാറിന്	-7430
▁ആര്‍എസ്എസ്	-7431
▁കത്തോല	-7432
▁ഏറ്റുവാ	-7433
▁ഹൃ	-7434
▁സര	-7435
▁ഹെല്‍	-7436
▁ബാർ	-7437
ംബ്രാ	-7438
▁ട്വിറ്റ	-7439
ഴം	-7440
▁ആഭിമുഖ്യ	-7441
▁സ്വാതന്ത്ര്യം	-7442
നുഭവ	-7443
▁മെച്ചപ്പെട്ട	-7444
▁വ്യോമ	-7445
▁ഹൃദയം	-7446
ക്കാരി	-7447
കളുടെയും	-7448
▁സംഭ	-7449
ബാധിത	-7450
▁ഇക്ക	-7451
മായുള്ള	-7452
വ്യൂ	-7453
▁അക്രമം	-7454
▁പുലര്‍ച്ചെ	-7455
ുകളിലൂടെ	-7456
▁ചെയ്യുന്നതിന്	-7457
▁തുടങ്ങും	-7458
▁സ്വന്തമായി	-7459
▁പെരുമ്പ	-7460
▁പ്രസിഡണ്ട്	-7461
▁അവശേഷ	-7462
▁ഫലപ്രദ	-7463
▁വിശദാംശ	-7464
തെരഞ്ഞെടു	-7465
▁ഉയർത്ത	-7466
▁റവന്യൂ	-7467
ിനേയും	-7468
▁നിർവഹ	-7469
▁തൃപ്തി	-7470
▁ജീവിതത്തിന്റെ	-7471
▁നെട	-7472
ങ്ങളുള്ള	-7473
ുറു	-7474
▁പ്രമേയം	-7475
▁തൊഴിലാളി	-7476
▁അമ്മയും	-7477
ക്കേസില്‍	-7478
▁ട്രെ	-7479
ാനില്‍	-7480
രുപ	-7481
ലളിത	-7482
▁രേഖകള്‍	-7483
▁..	-7484
▁വിധം	-7485
▁വര്‍ക്ക	-7486
25	-7487
▁മരം	-7488
▁ഓപ്ഷന	-7489
▁ഹസ	-7490
▁ഗോപി	-7491
▁ബിന്‍	-7492
▁ആശ്രയിച്ച	-7493
▁അതിവേ	-7494
▁പുതുതായി	-7495
മുളക്	-7496
▁പ്രാധാന്യ	-7497
▁സങ്കീർണ്ണ	-7498
▁ചേര	-7499
ഡര്‍	-7500
▁റാം	-7501
നല്‍ക	-7502
ാക്കൾക്ക്	-7503
രുമ്പോ	-7504
▁സമുദ്ര	-7505
▁ഭ്ര	-7506
മൊഴ	-7507
മ്മേള	-7508
▁വര്‍ഷമായി	-7509
▁കവർ	-7510
▁ക്രൈംബ്രാ	-7511
▁ധനമന്ത്രി	-7512
തിയും	-7513
▁സ്വപ്ന	-7514
പ്പോയ	-7515
▁അച്ഛന്‍	-7516
▁കണക്കാക്ക	-7517
▁കുമ്മനം	-7518
▁നഗരം	-7519
ഖി	-7520
▁സംഘടനാ	-7521
▁ആശയവിനിമ	-7522
▁ശ്യ	-7523
▁വോട്ടു	-7524
▁ബിഎസ്	-7525
▁ദിശ	-7526
▁സുഹൃത്തുക്കള	-7527
▁ഉത്സവ	-7528
▁ചെയർമാൻ	-7529
▁രോഗങ്ങൾ	-7530
ുമായും	-7531
ിപ്പിക്കും	-7532
ക്കണം	-7533
ol	-7534
താണെന്നും	-7535
ുന്നതാണ്	-7536
▁ചൂണ്ടിക്കാണ	-7537
.7	-7538
വൃ	-7539
▁ഒന്‍പ	-7540
തിനെതിരെ	-7541
▁എങ്ങനെയ	-7542
▁Home	-7543
▁ദുഃഖ	-7544
▁ഒമ്പത്	-7545
▁പരിക്ക്	-7546
▁സ്റ്റാര്‍	-7547
▁മാം	-7548
▁നിര്‍ത്ത	-7549
ൊവ്	-7550
▁കോയ	-7551
▁മാന്യ	-7552
▁കമ്മിറ്റ	-7553
▁മറികടക്ക	-7554
▁ഇടവക	-7555
ക്കല	-7556
▁ഖുര്‍ആ	-7557
▁വ്യക്തിഗത	-7558
ണാള്‍	-7559
▁സർവകലാശാല	-7560
▁പാരമ്പര്യ	-7561
ുഴ	-7562
ിച്ചുകൊണ്ട്	-7563
ാക്ക്	-7564
പ്രകാര	-7565
▁യും	-7566
▁തടഞ്ഞു	-7567
▁ഒട്ടും	-7568
ാസമ്മേള	-7569
▁ചൂണ്ടിക്കാട്ടിയ	-7570
കരമാണ്	-7571
▁കോഴ്	-7572
▁ആരംഭിച്ചത്	-7573
▁വിഡിയോ	-7574
▁സമ്മേളന	-7575
▁ഡെപ്യൂട്ടി	-7576
▁എയ്	-7577
▁എറണാകുള	-7578
▁മ്യൂസിയ	-7579
▁W	-7580
താരം	-7581
▁കെട്ടിയ	-7582
ഷിപ്പ്	-7583
ത്തിനുമ	-7584
▁സ്മാർട്ട്	-7585
ക്കാം	-7586
ോത്സവ	-7587
▁പ്രഥമ	-7588
▁സണ്ണി	-7589
▁യുപി	-7590
▁പാപ്പ	-7591
▁പ്ലാന്റ്	-7592
ണിൽ	-7593
മേറ്റ	-7594
▁പത്താം	-7595
▁കാണിച്ചു	-7596
-3	-7597
▁ശിശു	-7598
▁മറിയ	-7599
▁മോഹന	-7600
യാണെന്ന്	-7601
ുവേണ്ട	-7602
പ്രവർത്തക	-7603
വിനെ	-7604
▁ഗോപാല	-7605
▁വാത	-7606
▁ക്രെ	-7607
സിപ്പല്‍	-7608
▁ചടങ്ങിൽ	-7609
▁ചേർക്കുക	-7610
▁നൂറു	-7611
▁ഇവര്‍ക്ക്	-7612
▁ഡയറക്ടറ	-7613
▁സജീവമായി	-7614
ക്കാരനായ	-7615
▁കമ്യൂണി	-7616
▁ഘട്ടത്തിൽ	-7617
▁സഹായിക്കുന്ന	-7618
▁കുറ്റകൃ	-7619
▁ഉപയോഗിക്കുക	-7620
▁ഡയറക്ടർ	-7621
▁നക്ഷത്ര	-7622
സ്റ്റോറ	-7623
▁താല്	-7624
▁ഒരിക്കല്‍	-7625
▁ആഫ്രിക്ക	-7626
ക്ഷേത്ര	-7627
▁ഉച്ചയ്ക്ക്	-7628
49	-7629
▁മുന്നേറ്റ	-7630
ിട്ടുണ്ടെന്ന്	-7631
മുന്ന	-7632
▁മെത്ര	-7633
വെച്ച	-7634
▁ക്രിയ	-7635
ത്തൊഴിലാള	-7636
▁നയിക്കുന്ന	-7637
ിരിക്കും	-7638
▁സവിശേഷതകൾ	-7639
▁പ്രാർത്ഥ	-7640
▁ബ്ലാസ്റ്റേഴ്	-7641
▁സ്ഥാനാര്‍ത്ഥി	-7642
▁ക്യൂ	-7643
▁എംബ	-7644
ുകൊടുക്ക	-7645
dia	-7646
▁48	-7647
▁വരുമ്പോൾ	-7648
▁w	-7649
▁രജിസ്റ്റർ	-7650
▁ഐസ്	-7651
▁റോഡില്‍	-7652
▁നൽകുന്നത്	-7653
▁ജീവൻ	-7654
▁ജയില്‍	-7655
ാക്കിയിരുന്നു	-7656
▁ഓസ്ട്രേലിയ	-7657
േജി	-7658
ിക്കായി	-7659
രാഗ	-7660
▁വെട	-7661
ുമായാണ്	-7662
ിമെ	-7663
▁ഉദ്ഘാടന	-7664
▁ഇതെല്ലാം	-7665
▁വെളിച്ചം	-7666
▁ഡ്രൈവർ	-7667
ാക്കാനുള്ള	-7668
▁നീര	-7669
യോട്ട	-7670
▁നമ്മെ	-7671
▁നേതാക്കളുടെ	-7672
ണമെങ്കില്‍	-7673
▁മേധാവ	-7674
ിവ്	-7675
▁സൊസൈ	-7676
▁ആമ	-7677
ഫോണ്‍	-7678
▁നാട്ടിൽ	-7679
▁അഭിനയിച്ച	-7680
▁ഉണ്ണി	-7681
ിയാ	-7682
രിലെ	-7683
ികളിലും	-7684
ക്കെടു	-7685
▁വാര്യ	-7686
▁സൈക്കി	-7687
പാഠ	-7688
▁ശതമാനവും	-7689
ുകയുണ്ടായി	-7690
▁ഗ്രാമപഞ്ചായ	-7691
▁തമാശ	-7692
▁ഇന്ത്യയ്ക്ക്	-7693
സ്റ്റിറ്റ	-7694
▁യുവജന	-7695
▁സുഗന്ധ	-7696
ur	-7697
▁2,	-7698
▁മിസൈ	-7699
▁വേണമെന്ന്	-7700
▁അവരിൽ	-7701
ില്ലെന്നാണ്	-7702
പ്രതിനി	-7703
▁അറസ്റ്റു	-7704
▁ചെയ്യാനുള്ള	-7705
ുപരി	-7706
▁ബിസിനസ്സ്	-7707
▁വെളിപ്പെടുത്തി	-7708
ത്തിന്റ	-7709
▁കേട്ട്	-7710
▁ഇദ്ദേഹം	-7711
▁മോഷണം	-7712
▁പ്രണയം	-7713
▁ഉന്നയിച്ച	-7714
▁ലക്ഷ്യമിട	-7715
▁വാക്കുകൾ	-7716
▁വിദേശകാര്യ	-7717
▁ആകർഷ	-7718
നേത	-7719
▁വരെയാണ്	-7720
▁ആയിരുന്ന	-7721
മ്പില്‍	-7722
▁ടീമിനെ	-7723
ാവശ്യമായ	-7724
ടങ്ങിയ	-7725
▁ആരാണ്	-7726
▁കർണ	-7727
▁സൗത്ത്	-7728
▁ബാംഗ	-7729
▁വിശദമായി	-7730
▁ഭൗ	-7731
▁പാരി	-7732
ുകാരന്‍	-7733
▁സിസി	-7734
ള്‍ഡ്	-7735
▁എന്‍റെ	-7736
▁വാങ്ങുന്ന	-7737
ഖ്യാന	-7738
▁ചിഹ്	-7739
▁മാറ്റങ്ങൾ	-7740
▁തെളിഞ്ഞ	-7741
▁കുറിപ്പ്	-7742
വലി	-7743
▁ഈജി	-7744
ിംഗ്	-7745
ിന്യം	-7746
▁കുപ്പ	-7747
▁ഒഴിവാക്കി	-7748
▁ചിലർ	-7749
▁ബിൽ	-7750
▁വിപണിയില്‍	-7751
▁ജനങ്ങൾ	-7752
സേര	-7753
ാവോ	-7754
▁പരിപാടിയില്‍	-7755
ാനെത്തിയ	-7756
ിമുട	-7757
▁അടിച്ചു	-7758
.0	-7759
▁കോല	-7760
▁അണിനിര	-7761
▁പതിറ്റാണ്ട	-7762
▁കോണ്‍ഗ്രസിന്റെ	-7763
he	-7764
ത്തിനുശേഷം	-7765
▁എങ്ങനെയാണ്	-7766
▁നിങ്ങള്‍ക്ക്	-7767
▁ആന്ത	-7768
▁സർവീസ്	-7769
വിയുടെ	-7770
▁ഭരണഘടനാ	-7771
▁ദളിത്	-7772
▁ബാര്‍	-7773
ക്കുട്ട	-7774
▁ഉദ്യോഗസ്ഥർ	-7775
▁ഉരുള	-7776
▁ബാറ	-7777
▁പൊടി	-7778
മ്പാട	-7779
▁ഹോട്ടല	-7780
▁പ്രകാര	-7781
▁ശീല	-7782
▁എന്റ	-7783
▁ട്രൈ	-7784
▁ജീവിക്കുന്ന	-7785
▁ജമാ	-7786
ുമാർ	-7787
▁മടങ്ങിയ	-7788
ണും	-7789
▁on	-7790
▁ശ്രീനിവാസ	-7791
▁പാലം	-7792
സൺ	-7793
▁സമീപത്തെ	-7794
▁ട്രാന്‍സ്	-7795
▁ആഡ	-7796
▁പ്രകോ	-7797
▁കച്ചവട	-7798
ail	-7799
▁വിൽപ്പന	-7800
▁കൊല്ലപ്പെട്ടു	-7801
▁സഖ്യം	-7802
ള്ളൂ	-7803
ിനെയാണ്	-7804
▁പാണ്ഡ	-7805
▁പുറത്തിറക്കിയ	-7806
▁തുടര്‍ന്നു	-7807
▁ആംബ	-7808
ൂട്ടീവ്	-7809
▁ഫഹ	-7810
▁ആരെയും	-7811
▁പാദ	-7812
▁ചക്ര	-7813
കൂട്ടി	-7814
പ്പെടുത്തുകയും	-7815
ീകരിക്കുന്ന	-7816
▁2010	-7817
ഷിപ്പ	-7818
ത്തിൻറെ	-7819
▁ദിവ്യ	-7820
▁ഐശ്വര	-7821
▁ഈസ്റ്റ്	-7822
ക്കുകയായിരുന്നു	-7823
▁ഭദ്ര	-7824
▁ജയലളിത	-7825
▁എന്തോ	-7826
▁ലോഡ്	-7827
നാള	-7828
▁മൽ	-7829
കുട	-7830
സമാ	-7831
▁ഭർത്താവ്	-7832
കൊള്ള	-7833
▁ഉമ്മൻ	-7834
ർഥ	-7835
▁ചെക്ക്	-7836
48	-7837
▁കളിയ	-7838
▁ആരോഗ്യം	-7839
▁പോലീസിന്	-7840
ന്‍റ	-7841
▁കുറവാണ്	-7842
സമ്പ	-7843
ുവേ	-7844
▁മാത്രമായി	-7845
▁ഇവി	-7846
ക്രമണം	-7847
യല്ല	-7848
▁ഉപരിതല	-7849
▁നീട്ടി	-7850
ഫൈ	-7851
▁ചര്‍ച്ചകള്‍	-7852
▁അടുത്ത്	-7853
▁വിമത	-7854
▁തെന്ന	-7855
aj	-7856
▁ബ്രോ	-7857
പ്പാട്	-7858
▁രുചി	-7859
▁പിയുടെ	-7860
കർക്ക്	-7861
േണ്ടതാണ്	-7862
▁ശബരിമലയില്‍	-7863
വിൻ	-7864
കൂല	-7865
▁കാത	-7866
▁ശുച	-7867
▁ദ്വീപ	-7868
▁ഓഡി	-7869
▁വാണിജ്യ	-7870
▁നിക്ഷേപം	-7871
▁ഊർജ്ജ	-7872
▁നീങ്ങ	-7873
▁നിരന്തര	-7874
▁നിർണ്ണയ	-7875
▁പാര്‍ലമെന്റ	-7876
▁തിരഞ്ഞെടുക്കുക	-7877
ല്‍ഖ	-7878
▁കഴിവ്	-7879
▁പ്രോസ	-7880
ക്കാനുള്ള	-7881
ങ്ങളെക്കുറിച്ച്	-7882
മാകുന്നത്	-7883
▁ബംഗ്ലാദേശ	-7884
▁ഭരണകൂടം	-7885
▁വിക്ക	-7886
▁കഴിച്ച	-7887
▁അകല	-7888
▁നാട്ടുകാർ	-7889
തിരുന്നത്	-7890
▁താലൂക്ക്	-7891
ജാതി	-7892
▁സിഐ	-7893
മന്‍	-7894
▁ബാബ	-7895
ക്കാരന	-7896
▁നിയമങ്ങൾ	-7897
▁പ്രതികരിച്ച	-7898
▁അതുകൊണ്ടുതന്നെ	-7899
▁ജഡ്	-7900
▁സുന	-7901
▁കർഷക	-7902
▁സംഘടനയുടെ	-7903
▁റൂട്ട	-7904
▁ഇരിക്ക	-7905
▁അസ്	-7906
▁സ്വാധീനം	-7907
വച്ച	-7908
സിന്‍റെ	-7909
ിലുള്ളത്	-7910
ാഘോഷ	-7911
▁ആയിരിക്കണം	-7912
ത്സ്	-7913
▁1000	-7914
▁പെരി	-7915
▁പട്ടി	-7916
▁ജനിച്ച	-7917
▁രൂപകൽപ്പന	-7918
▁പാക്കിസ്ഥാന്‍	-7919
▁അദ	-7920
▁താങ്ക	-7921
േന്ത്യ	-7922
▁ആരംഭിക്കും	-7923
▁പ്രസ്	-7924
▁പഠിച്ച	-7925
▁ലിയ	-7926
▁വാസ്തവ	-7927
ളിക	-7928
▁പാപ	-7929
▁മണ്ഡലത്തില്‍	-7930
ാല്	-7931
▁വക്താവ്	-7932
ാപു	-7933
െന്ത	-7934
യിപ്പ	-7935
▁നഗ്ന	-7936
▁ശൈലിയ	-7937
▁ഒന്നാമ	-7938
▁കാലാവസ്ഥാ	-7939
▁പതാക	-7940
ന്മാ	-7941
വാരം	-7942
▁യുണൈ	-7943
ാനായില്ല	-7944
▁കിട്ടുന്ന	-7945
താമ	-7946
വലം	-7947
▁സാങ്കേതികവിദ്യ	-7948
ിനെതിരായ	-7949
▁കുമാര	-7950
ര്‍ത്തു	-7951
ക്തമായ	-7952
▁മുറിയിൽ	-7953
▁കുറ്റപ്പെടുത്തി	-7954
ടുത്തത്	-7955
▁മല്‍സര	-7956
▁ഓര്‍മ	-7957
▁ദേശീയപാത	-7958
ല്യം	-7959
▁മോഡി	-7960
▁ന്യൂദല്‍ഹി	-7961
▁k	-7962
▁മരുമ	-7963
▁നൂറുക	-7964
സന	-7965
രുത്തിയ	-7966
▁വാർഷിക	-7967
ുകളുണ്ട്	-7968
▁ഫോം	-7969
▁തൊടു	-7970
▁എടുക്കുന്ന	-7971
യായത്	-7972
▁ഡല്‍ഹിയില്‍	-7973
ര്‍ല	-7974
ായിരിക്കണം	-7975
▁വിജയൻ	-7976
▁നബി	-7977
▁ഫീച്ച	-7978
▁ബന്ധുക്കള്‍	-7979
▁തോറ്റ	-7980
ികൾക്കും	-7981
▁ൾ	-7982
ികളായി	-7983
▁താമസം	-7984
▁തുടരും	-7985
ul	-7986
▁അത്തരമൊരു	-7987
ിതാ	-7988
തമ്യ	-7989
▁അയോ	-7990
▁സമാഹ	-7991
യൊക്കെ	-7992
▁പലയിട	-7993
രേയും	-7994
▁രാജ്യസഭ	-7995
▁രജന	-7996
▁ലൈന	-7997
▁അടയ്ക്ക	-7998
▁കീഴില്‍	-7999
▁കൂട്ടുകെ	-8000
▁ഓസ	-8001
ഗ്രാമില്‍	-8002
▁ചൈ	-8003
▁പക്ഷം	-8004
ുകൂട	-8005
▁വിവാദം	-8006
ത്തിലേക്കു	-8007
▁ശരത്	-8008
▁മുതലായ	-8009
മതി	-8010
▁ചുംബ	-8011
▁ബന്ധപ്പെട	-8012
പിടി	-8013
ശ്രൂഷ	-8014
ുപയോഗ	-8015
ത്തിനിര	-8016
ച്യുത	-8017
▁വലിപ്പം	-8018
ങ്ങളൊന്നും	-8019
ലിജ	-8020
▁എല്ലാവര്‍ക്കും	-8021
▁ചേര്‍ത്ത്	-8022
▁പ്രതികരിക്ക	-8023
▁രണ്ടുപേ	-8024
ബിള	-8025
▁സുഷ	-8026
▁സെമ	-8027
▁സ്ഥിരീകരിച്ച	-8028
▁മുനി	-8029
സിച്ച്	-8030
▁കാന്‍	-8031
▁ജിബി	-8032
▁ചെയ്യൂ	-8033
▁ലൊക്ക	-8034
▁രെ	-8035
ാസ്റ്റ്	-8036
▁ഗായക	-8037
സിക്	-8038
▁കൊറോണ	-8039
▁പ്രിന്‍	-8040
▁പോര	-8041
▁കാരണമായി	-8042
▁കണക്കുകൂട്ട	-8043
▁അടിയന്തിര	-8044
▁സന്ദര്‍ശന	-8045
▁താരത്തിന്റെ	-8046
സ്വാമി	-8047
ജാത	-8048
▁രാജേന്ദ്ര	-8049
▁താരതമ്യ	-8050
▁നടപ്പിലാക്ക	-8051
▁ചട	-8052
▁ഭംഗ	-8053
ക്കൊണ്ട	-8054
ിയാക	-8055
▁നേതാക്കളും	-8056
▁കൊട	-8057
▁പോകും	-8058
▁സുഹൃത്ത്	-8059
▁ദിവസങ്ങളില്‍	-8060
▁പ്രായമുള്ള	-8061
22	-8062
വിഷ	-8063
▁ബേബി	-8064
പ്പുകള്‍	-8065
▁പ്രവർത്തി	-8066
▁സഞ്ചരിച്ച	-8067
വന്റെ	-8068
ിക്കുകയോ	-8069
▁ബിഷപ്പ്	-8070
▁കൊച്ചിയില്‍	-8071
▁ബൊ	-8072
▁അവര്‍ക്ക	-8073
▁ഗുരുവായ	-8074
ാപേക്ഷ	-8075
▁പെട്രോള	-8076
▁ടീമില്‍	-8077
ിട്ടത്	-8078
▁അലോ	-8079
▁ഇബ്ര	-8080
▁അവാർഡ്	-8081
▁ശക്തിയ	-8082
▁ലിസ്റ്റ്	-8083
▁വേണ്ടിയുള്ള	-8084
▁ഒളിവ	-8085
▁ഹാജരാക	-8086
രിയിൽ	-8087
സാക്ഷ	-8088
ക്കൊണ്ട്	-8089
▁ചാക്കോ	-8090
▁രാജ്യങ്ങളില്‍	-8091
മാണോ	-8092
▁ഭീമ	-8093
മല്ലാത്ത	-8094
ജീവന	-8095
▁വിഭവങ്ങൾ	-8096
▁മതിയായ	-8097
▁ഓഫീസില്‍	-8098
▁ഏര്‍പ്പെടുത്തിയ	-8099
▁വ്യക്തമാക്കിയത്	-8100
്ടി	-8101
▁നൃത്ത	-8102
▁നെയ്യ	-8103
പ്പോല	-8104
▁ബുദ്ധി	-8105
പ്പാറ	-8106
▁ഹൗസ്	-8107
ലംഘ	-8108
▁നീട്ട	-8109
ഗണന	-8110
വത്ക	-8111
▁ശരീരത്തിൽ	-8112
em	-8113
▁തുടര്‍ച്ചയായി	-8114
▁റാല	-8115
ത്തിലേറെ	-8116
▁നടിയെ	-8117
▁നഗരത്തിലെ	-8118
▁ഡബ്ല	-8119
▁കുതിര	-8120
ത്തിനൊപ്പം	-8121
പ്പാണ്	-8122
▁കാൻ	-8123
കളായി	-8124
▁പ്രഖ്യാപിച്ചത്	-8125
▁കളക്ടര്‍	-8126
ക്കുറിച്ചു	-8127
സ്കാരിക	-8128
▁അവതരിപ്പിച്ചു	-8129
ട്ടിക	-8130
ോഗ്യ	-8131
▁അച്യുത	-8132
▁വാക്ക്	-8133
▁മനസ്സിൽ	-8134
പ്പോഴേക്കും	-8135
ഷധ	-8136
▁മദ്ര	-8137
▁തൊടുപുഴ	-8138
സംരക്ഷ	-8139
▁News	-8140
▁സെറ്റ്	-8141
▁കൊടുത്തി	-8142
▁400	-8143
ണുകൾ	-8144
വട്ടം	-8145
റ്റിംഗ	-8146
.6	-8147
വർക്കും	-8148
▁ദൃശ്യമ	-8149
▁സ്റ്റു	-8150
വേറ്റ	-8151
▁സുപ്രധാന	-8152
▁സൃഷ്ടിക്കാൻ	-8153
ാവായ	-8154
▁ബെഞ്ച	-8155
▁വ്യത്യാസം	-8156
▁പുതുവ	-8157
▁പരിപാല	-8158
▁വിനോദ്	-8159
▁ലാല്‍	-8160
ങ്ങള്‍ക്ക	-8161
▁ഏറ്റവുമ	-8162
".	-8163
▁സ്വീകരിച്ചു	-8164
മുണ്ടെന്ന്	-8165
▁പട്ടികയിൽ	-8166
ിപ്പിക്കുകയും	-8167
ക്കുകള്‍	-8168
▁സൈറ്റ	-8169
ുകയില്ല	-8170
▁നായർ	-8171
▁കോണ്‍ഗ്രസ	-8172
ബോധന	-8173
▁ആപ്പ്	-8174
ഫു	-8175
▁അബുദാബി	-8176
ക്കേസ്	-8177
▁പൈല	-8178
▁ജൂനിയ	-8179
▁വളരെയധികം	-8180
▁38	-8181
▁നെല്ല	-8182
▁കുട്ടികൾക്ക്	-8183
ഫീ	-8184
▁വേണമെന്ന	-8185
▁അഹ	-8186
▁മനസ്സില്‍	-8187
▁195	-8188
com	-8189
ളൂരുവ	-8190
▁മോഡല	-8191
ുമുഖ	-8192
ിടത്തോളം	-8193
▁ഓപ്ഷൻ	-8194
▁കൂട്ടു	-8195
പ്രദേശിലെ	-8196
കുമാര	-8197
▁അനിശ്ച	-8198
ല്‍പ	-8199
▁കുറേ	-8200
▁വേനൽ	-8201
▁നഷ്ടപരിഹാരം	-8202
ഹാര്‍	-8203
▁കണക്കുകള്‍	-8204
▁ആൽ	-8205
▁ഹൈസ്	-8206
▁ദുബായ	-8207
▁പാമ്പ	-8208
മുണ്ടായത്	-8209
േമ	-8210
▁34	-8211
▁കരുത്ത	-8212
▁അനുബന്ധ	-8213
ൻ്റെ	-8214
▁ഭീകരാക്രമണ	-8215
▁നാവിക	-8216
▁മാഞ്ച	-8217
▁അനിവാര്യ	-8218
▁പ്രതികൂല	-8219
▁ഓര്‍ക്ക	-8220
▁കോടിയുടെ	-8221
യ്ക്കാണ്	-8222
▁പതിപ്പ്	-8223
▁ആരോപിച്ച്	-8224
▁ശ്രദ്ധിക്കുക	-8225
▁ഗ്രഹ	-8226
യെന്നും	-8227
▁തുള	-8228
ബ്രഹാം	-8229
▁പൊലിസ്	-8230
▁ഫോണില്‍	-8231
ൊര്	-8232
▁ഒരാളെ	-8233
യെങ്കിലും	-8234
▁ഡിസംബർ	-8235
▁ഹിന്ദി	-8236
ിച്ചിരിക്കുന്നു	-8237
▁പരാജയപ്പെട്ട	-8238
▁നയം	-8239
▁ഒക്ടോബര്‍	-8240
ോര്‍	-8241
▁സംഭാഷണ	-8242
▁മുന്നേറ	-8243
▁ഭാവന	-8244
▁വിപണി	-8245
▁വൈറ്റ്	-8246
▁ക്യാമ്പ്	-8247
ൊക്കെയാണ്	-8248
ുകാരനായ	-8249
വാറും	-8250
▁കൃത്രിമ	-8251
▁ട്രാഫിക്	-8252
▁പരിശോധിച്ച	-8253
ത്രേ	-8254
▁എന്നോട്	-8255
ണ്ടർ	-8256
ടുക്കും	-8257
ഛ്	-8258
▁തത്	-8259
▁പദവ	-8260
▁പൈസ	-8261
▁കരുണ	-8262
▁കൂളിലെ	-8263
▁മനസ്സ്	-8264
കളിലൂടെ	-8265
▁»	-8266
ൾഡ്	-8267
▁ബ്ലോഗ	-8268
▁അന്തരിച്ചു	-8269
പടി	-8270
▁കാണാന	-8271
▁പരിമിത	-8272
▁അംഗങ്ങള്‍	-8273
ങ്ങര	-8274
▁ഭീ	-8275
▁അജ്ഞ	-8276
▁ഫണ്ട	-8277
തിനിടെയാണ്	-8278
▁ഹൈദരാബാദ്	-8279
ഖണ്ഡ	-8280
▁ബ്രെ	-8281
ിക്കുന്നത	-8282
▁അനുവദിക്ക	-8283
പ്രാ	-8284
▁കഞ്ചാവ്	-8285
ber	-8286
▁അസ്ഥ	-8287
ന്റില്‍	-8288
ശ്വസ	-8289
വര്‍ഷ	-8290
▁ജ്യോതി	-8291
താവിന്റെ	-8292
▁മന്ത്രിയുടെ	-8293
▁അമേരിക്കയിലെ	-8294
▁മുണ്ട	-8295
▁റിട്ട	-8296
▁ഇൻസ്റ്റാൾ	-8297
മട	-8298
▁പ്രത്യേകിച്ചും	-8299
▁തൃശൂർ	-8300
മിട	-8301
▁സർവ്വ	-8302
▁പിടിയില്‍	-8303
▁മഠ	-8304
ാറിലെ	-8305
ിട്ടില്ലെന്നും	-8306
▁അറ്റകുറ്റ	-8307
▁വടകര	-8308
▁സംഘടനകള്‍	-8309
▁ചിദ	-8310
പ്രസ്	-8311
▁പാവപ്പെട്ട	-8312
▁അഖില	-8313
▁മക്ക	-8314
▁ഗുണമേ	-8315
▁കോട്ടയ	-8316
▁പണ്ഡിത	-8317
െയെ	-8318
▁കൃതി	-8319
▁ഹോസ്	-8320
▁അമൃത	-8321
▁ബാംഗ്ല	-8322
▁ആണ്‍	-8323
ുമാറ	-8324
19	-8325
റിയിൽ	-8326
ുമുത	-8327
▁സഹിതം	-8328
▁കേരളത്തെ	-8329
▁ലോകത്തിന്റെ	-8330
▁കമ്മറ്റി	-8331
▁വെളിപ്പെടുത്തിയ	-8332
▁ഡൗ	-8333
ശിഷ്ട	-8334
▁രൂക്ഷമായ	-8335
▁വിമര്‍ശനം	-8336
ല്പ	-8337
▁ആംബുല	-8338
▁ലീഡ്	-8339
രീഷ്	-8340
▁ക്യാംപ	-8341
▁പണിമുട	-8342
▁പിന്നിലെ	-8343
12	-8344
▁അതോറിറ്റി	-8345
വിധം	-8346
▁സ്ഥാനാര്‍ഥി	-8347
▁ചെയ്യപ്പെട്ട	-8348
▁അന്ധ	-8349
ാക്കള്‍ക്ക്	-8350
റങ്ങി	-8351
▁ടാറ്റ	-8352
യെക്കുറിച്ച്	-8353
▁മതില	-8354
▁അയച്ചു	-8355
മേണ	-8356
▁തോൽ	-8357
▁പഠിക്കുന്ന	-8358
▁ഷൈ	-8359
▁ചൊല്ല	-8360
▁ക്രമീകരണ	-8361
ാഗ്രഹ	-8362
▁ചേരുവ	-8363
▁പെരുമാറ്റ	-8364
യാണു	-8365
▁ബോർഡ	-8366
▁അതുകൊണ്ടാണ്	-8367
▁സുരേന്ദ്രന്‍	-8368
▁താള	-8369
▁സാധിക്ക	-8370
യ്സ്	-8371
▁മന്‍	-8372
തോളം	-8373
ക്രാ	-8374
വരുടെയും	-8375
പെട	-8376
▁സും	-8377
ഡർ	-8378
▁ബഷ	-8379
▁2009	-8380
പ്രതിജ്ഞ	-8381
▁അതിനുള്ള	-8382
▁പച്ചക്കറ	-8383
▁എസ്എഫ്	-8384
▁തിരുത്ത	-8385
▁പ്രായോഗിക	-8386
▁ജനപ്രതിനി	-8387
▁ഉപയോഗിച്ചു	-8388
▁അപൂര്‍	-8389
▁വിദ്യാര്‍ഥികള്‍	-8390
▁താങ്ങ	-8391
▁ഇന്നിങ്	-8392
▁ത്യ	-8393
▁വെള	-8394
▁വൃദ്ധ	-8395
▁നിബന്ധന	-8396
▁പെട്രോള്‍	-8397
ാനിരിക്കുന്ന	-8398
▁വിഷ്ണു	-8399
▁കളയ	-8400
▁ബാഗ്	-8401
ബിന്റെ	-8402
▁പരിശീലക	-8403
▁പൊട്ടിത്തെ	-8404
▁പുറത്തേക്ക്	-8405
▁ആയിരക്കണക്കിന്	-8406
പിടിച്ച	-8407
▁പ്രതിനിധി	-8408
▁മാതാപിതാക്കൾ	-8409
മാക്കുന്ന	-8410
▁ആസൂത്രണം	-8411
▁യൂണിയന്‍	-8412
▁ചിത്രങ്ങളും	-8413
▁ആറാം	-8414
▁സാധ്യതയുണ്ട്	-8415
ബോധം	-8416
▁നാഥ്	-8417
▁മണ്ണ്	-8418
▁ണ്	-8419
ൊന്നു	-8420
▁ട്വന്റി	-8421
▁അഹമ്മ	-8422
▁ചേര്‍ക്ക	-8423
ഡിങ്	-8424
▁അമീ	-8425
▁ശീത	-8426
▁മാപ്പ്	-8427
▁റ്റ്	-8428
ിക്കഴിഞ്ഞു	-8429
▁നിലയിലാണ്	-8430
▁സ്വന്തമാക്കി	-8431
▁അതിര	-8432
▁സ്ഥാപനങ്ങള്‍	-8433
▁കാക്ക	-8434
▁ആപ്പിൾ	-8435
ംബ്	-8436
▁മസ്ജി	-8437
▁സയ്യി	-8438
റ്റോറിയ	-8439
▁കയറ്റി	-8440
▁അപേക്ഷിച്ച്	-8441
▁പഞ്ചാബ്	-8442
ിക്കേണ്ടി	-8443
ാക്കുന്നതിന്	-8444
▁E	-8445
▁പ്രമോ	-8446
ിട്ടാണ്	-8447
ച്ചിരുന്നു	-8448
ിക്കപ്പെടുന്നു	-8449
▁അഗ്നി	-8450
▁വിസ്ത	-8451
!!	-8452
യേയും	-8453
▁പരിഹസ	-8454
▁പത്രിക	-8455
വിശ്വാസം	-8456
▁നിയോ	-8457
വിസ്	-8458
▁പരാമര്‍ശം	-8459
ഡെ	-8460
ക്കറ്റ്	-8461
ത്തിച്ചത്	-8462
▁പുറത്തുവ	-8463
▁പിടിയിലായത്	-8464
രന്റെ	-8465
▁ഇതിനിട	-8466
▁ഇയാളുടെ	-8467
▁നിര്‍ത്തിയ	-8468
പദ്ധ	-8469
▁നന	-8470
▁ബസ്സ	-8471
വറി	-8472
▁അവതാര	-8473
▁എഞ്ചിനീയ	-8474
▁ഇറക്കുമതി	-8475
▁ഓളം	-8476
▁ലക്ഷണങ്ങൾ	-8477
▁കൂട്ടം	-8478
▁നടപടിക്രമ	-8479
▁ശ്രദ്ധയില്‍	-8480
▁തെരഞ്ഞെടുക്ക	-8481
ലൈറ്റ്	-8482
▁ഘട്ടം	-8483
▁വിപണിയിൽ	-8484
▁ഉൽപ്പന്നം	-8485
▁കുടിയേറ്റ	-8486
▁പറഞ്ഞാല്‍	-8487
▁കോളേജില്‍	-8488
മഹ	-8489
▁നുണ	-8490
യാക്കി	-8491
▁ഹരിയാന	-8492
ബോൾ	-8493
▁ഹൂ	-8494
▁കീഴ്	-8495
▁വാള	-8496
▁കരുതുന്നത്	-8497
▁ഇട്ട	-8498
ർഷം	-8499
▁റഹ്	-8500
▁കണ്ണു	-8501
▁ജനപ്രിയ	-8502
▁റെയിൽവേ	-8503
▁അവയവ	-8504
▁ലേഖനം	-8505
യോടെയാണ്	-8506
li	-8507
▁ഓവറില്‍	-8508
ഭയ	-8509
വത	-8510
▁ആണവ	-8511
▁ഇതൊക്കെ	-8512
▁മണിക്കൂ	-8513
▁നവോ	-8514
▁അമ്മയെ	-8515
▁ബാഴ്	-8516
ത്വവും	-8517
▁അച്ഛൻ	-8518
ാര്‍ജ	-8519
▁കോപ്പ	-8520
▁പ്രവേശിപ്പിച്ചു	-8521
യിന	-8522
ച്ചിൽ	-8523
ക്കിലെ	-8524
ത്തേക്കു	-8525
▁ലൈഫ്	-8526
▁പുറത്തിറങ്ങി	-8527
▁അതിജീവ	-8528
പ്പോക	-8529
▁ആദായ	-8530
▁രാജു	-8531
▁വാസു	-8532
▁നവംബർ	-8533
▁കുഞ്ഞ്	-8534
▁സെഞ്ചു	-8535
▁പ്രദേശം	-8536
▁കാലയളവിൽ	-8537
ct	-8538
▁എല	-8539
▁ആണെന്ന്	-8540
▁ഹോള	-8541
▁പ്രശംസ	-8542
▁ഉയർത്തി	-8543
▁2008	-8544
▁ഒരുക്കുന്ന	-8545
ിലേക്കാണ്	-8546
▁42	-8547
▁മുക	-8548
▁എത്രയും	-8549
ation	-8550
▁സമൂഹത്തിന്റെ	-8551
മുക്ത	-8552
▁പൂർണമായും	-8553
ക്കേട	-8554
▁മട്ട	-8555
പ്രവേശ	-8556
▁കർണാടക	-8557
▁കാണിക്കുന്ന	-8558
റൽ	-8559
ൂന്യ	-8560
▁കഷണ	-8561
▁മല്ല	-8562
ബല്യ	-8563
▁ജുഡീ	-8564
▁അഭിനേത	-8565
▁ഐശ്വര്യ	-8566
ബിലി	-8567
ലിസ	-8568
▁വളര്‍ത്ത	-8569
▁പ്ലാറ്റ്	-8570
▁പ്രവണത	-8571
ലിസ്റ്റ്	-8572
▁തിരിച്ചട	-8573
ിക്കളയ	-8574
ാമു	-8575
▁എതിർ	-8576
▁ബാറ്ററി	-8577
▁വിശദീകരണ	-8578
▁സൗജന്യമായി	-8579
▁V	-8580
▁അന്‍	-8581
▁രാജ്യങ്ങളിൽ	-8582
▁re	-8583
▁ആർക്കും	-8584
▁ഡോക്ടര്‍മാര്‍	-8585
▁ഉപ്പ	-8586
ൂപ്	-8587
▁കാബ	-8588
▁ഉല്‍	-8589
▁കേവലം	-8590
ഗര	-8591
ദ്രവ	-8592
ാനൊരു	-8593
ര്‍മാര	-8594
ണമെന്നു	-8595
▁ആന്ധ്ര	-8596
▁കൊണ്ടും	-8597
▁ഉല	-8598
▁മേല	-8599
▁കരീ	-8600
▁ജിദ്ദ	-8601
▁അതിര്‍ത്തി	-8602
ളിന്റെ	-8603
▁ഡിജിപി	-8604
▁കഴിഞ്ഞദിവസം	-8605
▁സത്യപ്രതിജ്ഞ	-8606
സിംഗ്	-8607
▁രേഖപ്പെടുത്തി	-8608
▁സംയോ	-8609
▁ചിത്രത്തിലൂടെ	-8610
ത്തുനിന്ന്	-8611
▁ഓടിയ	-8612
▁പ്രവി	-8613
യിന്‍	-8614
ുള്ളി	-8615
▁ഇക്കാര്യത്തിൽ	-8616
▁സൽ	-8617
▁മുഖത്ത്	-8618
▁അയല്‍	-8619
▁ചെയ്യാനും	-8620
ക്റ്റ്	-8621
ീഡ്	-8622
ൃദ്ധ	-8623
▁കുറ്റകൃത്യ	-8624
സിദ്ധ	-8625
▁ഗണ്യ	-8626
ുണ്ടാവ	-8627
▁അറിയിച്ചിരുന്നു	-8628
▁ഷേ	-8629
▁കാര്യമാണ്	-8630
ത്തൂര്‍	-8631
▁ചാനല	-8632
▁അന്ത്യ	-8633
▁പരിഗണിക്കും	-8634
▁ജീവിതത്തിലെ	-8635
▁വ്യക്തിയുടെ	-8636
▁എബി	-8637
’.	-8638
▁എഴ	-8639
▁ആക്സ	-8640
വാണ്	-8641
ീകൃത	-8642
▁കാട	-8643
പ്രിം	-8644
▁കമ്മീഷൻ	-8645
▁സർട്ടിഫ	-8646
▁ഗാന്ധിയുടെ	-8647
▁പെന്‍ഷന്‍	-8648
▁സ്വര്‍ണം	-8649
▁അടങ്ങുന്ന	-8650
▁തയ്യാറാക്ക	-8651
▁പറയുന്നുണ്ട്	-8652
ഭാര	-8653
▁65	-8654
▁ഓഡിയോ	-8655
▁ഹീറോ	-8656
▁ജര്‍മ	-8657
േറ്റീവ്	-8658
▁കിട്ടി	-8659
▁കരുതുന്നു	-8660
▁55	-8661
▁നയിച്ച	-8662
▁ശരിയായി	-8663
▁ഭാഗമാണ്	-8664
ക്കുല	-8665
▁ജഗ	-8666
▁ദുർ	-8667
ശക്തി	-8668
▁വെള്ളാപ്പള്ളി	-8669
▁കുട്ടികള്‍ക്ക്	-8670
▁ടൂര്‍ണമെ	-8671
▁ഉൾപ്പെടെയുള്ള	-8672
ക്കാലിക	-8673
▁ശ്രമിക്കുക	-8674
.8	-8675
▁അല്ലാതെ	-8676
▁തീര്‍ത്ത	-8677
▁ട്രെയിന്‍	-8678
▁പശ	-8679
േഷിന്റെ	-8680
ുകളിലാണ്	-8681
▁അംഗീകാര	-8682
▁പിന്നില	-8683
▁സൈറ്റ്	-8684
and	-8685
▁സംഘവും	-8686
▁മേഘ	-8687
വേറിയ	-8688
▁അനേകം	-8689
▁ഔഷധ	-8690
▁കൃത	-8691
▁ദാരി	-8692
▁മാസ്റ്റര്‍	-8693
▁ബ്ലാക്ക്	-8694
▁യോഗത്തിൽ	-8695
▁ഉൾക്കൊള്ള	-8696
▁പരസ്	-8697
ല്ലൂര്‍	-8698
▁ലക്ഷ്മി	-8699
രുതി	-8700
▁ഇങ്ങ	-8701
▁പെണ്‍കുട്ടിയുടെ	-8702
സിങ്	-8703
▁ആല്‍	-8704
ക്കാനും	-8705
േറ്റര്‍	-8706
▁അണുബാധ	-8707
ധരൻ	-8708
ത്തിച്ച്	-8709
▁കൈകൾ	-8710
▁നടുവ	-8711
വിവര	-8712
ക്കിഴ	-8713
ത്തിക്കൊണ്ട	-8714
▁മെച്ചപ്പെടുത്ത	-8715
▁ലൈറ്റ്	-8716
▁വിപ്ലവ	-8717
▁ഗുരുതരമായി	-8718
▁വൃക്ക	-8719
ാദം	-8720
▁പരിശ്രമ	-8721
▁ദേഹ	-8722
സഹായം	-8723
▁പ്രഭാവം	-8724
ുകള്‍ക്കും	-8725
▁നെഗ	-8726
ാത്	-8727
പ്പറ്റ	-8728
ഴിയ	-8729
ിക്കപ്പെട്ടു	-8730
▁റോള	-8731
തിരഞ്ഞെടു	-8732
▁സഭയില്‍	-8733
▁ലൈബ്ര	-8734
▁കണ്ടെത്താന്‍	-8735
▁കടന്ന്	-8736
▁അറിയാതെ	-8737
▁മിണ്ട	-8738
▁തികഞ്ഞ	-8739
തിനായി	-8740
▁ദിലീപിന്റെ	-8741
▁കൊല്ലപ്പെട്ടത്	-8742
▁സുപ്രിം	-8743
മുളള	-8744
▁ടോം	-8745
▁39	-8746
▁ആസ്പ	-8747
▁ബ്ലൂ	-8748
▁കസേര	-8749
▁നരേന്ദ്രമോദി	-8750
കരായ	-8751
▁ഉയര്‍ന്നു	-8752
ചല	-8753
,5	-8754
▁അദ്ധ്യാപക	-8755
ാനാവാത്ത	-8756
ത്തോടൊപ്പം	-8757
▁സെല്ല	-8758
ിട്ടില്ലെന്ന്	-8759
പ്പൻ	-8760
ഘാതം	-8761
▁കെപിസിസി	-8762
▁ഗുണമേന്മ	-8763
കീ	-8764
മറി	-8765
▁രജ	-8766
▁മിനിറ്റില്‍	-8767
ച്ചോ	-8768
ാറാം	-8769
8)	-8770
ദ്യം	-8771
▁ആഡംബര	-8772
▁മുന്നോടിയായി	-8773
ര്‍ക്കെതിരെ	-8774
▁മനുഷ്യന്റെ	-8775
▁കസ്റ്റഡിയില്‍	-8776
▁സയ്യിദ്	-8777
▁മനസ്	-8778
▁താഴ്ന്ന	-8779
▁വട്ട	-8780
വിച്ച്	-8781
▁മുന്നണി	-8782
ിക്കുന്നതായി	-8783
▁തീര്‍ത്ഥ	-8784
▁കില	-8785
▁വിശാലമായ	-8786
▁ലിവ	-8787
▁ഗ്	-8788
▁കമന്റ	-8789
▁ഇതിലൂടെ	-8790
▁ഭാഗമായാണ്	-8791
ഫോഴ്	-8792
▁തരത്തില്‍	-8793
▁ലോകമെ	-8794
▁മത്സ്യം	-8795
▁ശാസ്ത്രീയ	-8796
▁കാത്തിരിക്ക	-8797
▁ജമാഅ	-8798
▁സാംസ്കാരിക	-8799
ശോ	-8800
▁മീന	-8801
▁അശ്വ	-8802
്രോത	-8803
70	-8804
ുവായ	-8805
നത്തെ	-8806
▁പ്രസാദ്	-8807
▁പ്രവിശ്യ	-8808
▁രജിസ്	-8809
▁നടത്തുന്നു	-8810
▁കഥാപാത്രം	-8811
▁കാണിച്ച്	-8812
▁തയ്യാറാക	-8813
▁പങ്കു	-8814
▁മലബാര്‍	-8815
▁സൂക്ഷ്മ	-8816
ore	-8817
▁വൈദ്യുത	-8818
വാർ	-8819
▁അതോ	-8820
ാക്കു	-8821
▁സാധ്യതയുള്ള	-8822
▁ശേഷി	-8823
▁തങ്ങൾ	-8824
▁മൊത്ത	-8825
▁ഫസ്റ്റ്	-8826
▁കുറ്റവാള	-8827
▁ചാരി	-8828
ുവെച്ച	-8829
▁ഗാര്‍	-8830
പ്പോലും	-8831
▁തുടങ്ങുന്ന	-8832
▁ഇന്റർനെറ്റ്	-8833
▁അന്നു	-8834
▁കണ്ണ്	-8835
▁തടയാന്‍	-8836
▁മണിയോടെ	-8837
▁ടാങ്ക	-8838
▁സഞ്ജ	-8839
▁റേഡിയോ	-8840
േഷനില്‍	-8841
▁ദൂരം	-8842
കള്‍ക്കും	-8843
▁തന്നെയായിരുന്നു	-8844
മൂലം	-8845
▁കാണും	-8846
വിയറ്റ്	-8847
▁പുനര്‍	-8848
▁സ്നേഹം	-8849
ിട്ടുണ്ടോ	-8850
ത്തുടർന്ന്	-8851
▁കുരുമുളക്	-8852
▁അറുപ	-8853
ച്ചെ	-8854
സാണ്	-8855
▁ങ്ങ	-8856
▁ഹയര്‍	-8857
▁അധികാരി	-8858
▁തകര്‍ത്ത	-8859
▁ഹർജ	-8860
▁വിഭാഗത്തിൽ	-8861
▁ശ്രമിക്കുന്നത്	-8862
▁വരവ്	-8863
▁പുലര്‍ത്ത	-8864
തിരെയുള്ള	-8865
ബ്യൂ	-8866
സറ	-8867
▁ഗതാഗതം	-8868
▁ഡ്രൈവി	-8869
▁അനിശ്ചിത	-8870
▁ഒഴിവാക്കിയ	-8871
ിള്‍	-8872
ാര്‍ശ	-8873
▁പ്രസംഗിച്ചു	-8874
▁സ്ഫോട	-8875
കാലിക	-8876
വ്യവസ്ഥ	-8877
▁എനിക്കു	-8878
▁കണക്കുകൾ	-8879
▁ഓർഡ	-8880
▁മകളെ	-8881
▁ലങ്ക	-8882
▁വളർത്ത	-8883
11	-8884
▁കടന്നുപോക	-8885
▁വിശകലനം	-8886
▁അസോസിയേഷൻ	-8887
▁ത്ത	-8888
▁യൂറോപ്യൻ	-8889
▁കാള	-8890
▁ഇഞ്ച്	-8891
രാത്രി	-8892
▁നിശ്ചയിച്ച	-8893
▁റിയാദ്	-8894
ളും	-8895
▁സൈബര്‍	-8896
▁പ്രോജ	-8897
▁ഇമേ	-8898
▁സ്ര	-8899
ഉം	-8900
▁തീര്‍ക്ക	-8901
ാലെ	-8902
ണിയും	-8903
▁ഉള്ളടക്കം	-8904
▁കരണ	-8905
▁താമര	-8906
▁ശൈഖ്	-8907
സംബന്ധ	-8908
▁ആത്മവിശ്വാസ	-8909
▁കുഞ്ഞാല	-8910
▁സ്ഥാപനം	-8911
▁ആരാ	-8912
▁കുറഞ്ഞു	-8913
--	-8914
▁യോഗി	-8915
▁ഫൗണ്ട	-8916
▁ലിമി	-8917
▁മേനോന്‍	-8918
▁അപ്ലിക്ക	-8919
▁ഒല	-8920
▁എന്നിട്ട്	-8921
▁മൊയ്	-8922
▁ഹരിത	-8923
▁രേഖകൾ	-8924
▁കിലോമീറ്റ	-8925
വരിൽ	-8926
▁ഫ്ള	-8927
▁സിന	-8928
▁ചതുര	-8929
▁മുൻക	-8930
തുമാണ്	-8931
▁ജീവനക്കാർ	-8932
▁കൈവശം	-8933
▁തുടർന്നു	-8934
▁വ്ര	-8935
▁പതു	-8936
▁സംഗമ	-8937
▁സമ്പാദ	-8938
രുമെന്ന്	-8939
സാദ്	-8940
▁കടം	-8941
▁ഭാര്യയും	-8942
▁കടൽ	-8943
▁ഉത്പാദനം	-8944
▁മലയാളികളുടെ	-8945
▁സഊ	-8946
▁സദാ	-8947
ിയെന്ന	-8948
▁മാംസം	-8949
ുകട	-8950
▁ഡേവിഡ്	-8951
▁(5	-8952
മാക്കാൻ	-8953
▁കൗമാര	-8954
▁ശശികല	-8955
പീ	-8956
േട	-8957
▁എളുപ്പമാണ്	-8958
▁തുടക്കത്തിൽ	-8959
ഷാ	-8960
▁ഷൂ	-8961
ുപേര്‍	-8962
വല്‍ക്ക	-8963
▁പടിഞ്ഞാറ	-8964
വെയർ	-8965
▁ഇത്തരത്തിൽ	-8966
ിലുണ്ടായിരുന്ന	-8967
ഭാരം	-8968
ിച്ചി	-8969
▁വിദ്യാലയ	-8970
▁സ്വന്തമാക്കിയ	-8971
▁സല്‍മാന്‍	-8972
െല്ല	-8973
▁പ്രോഗ്രാമ	-8974
▁a	-8975
▁കാസർ	-8976
ik	-8977
ദര്‍ശ	-8978
▁മുകു	-8979
ിക്കൊപ്പം	-8980
▁ആഭരണ	-8981
ക്കെല്ലാം	-8982
സരം	-8983
▁ദുല്‍ഖ	-8984
▁കുഴപ്പ	-8985
▁ഇന്‍ഡ	-8986
ോളജ	-8987
▁വീണ്	-8988
▁നടത്തുകയും	-8989
ുണ്ടാക്കിയ	-8990
ലിംഗ	-8991
▁അശ്ല	-8992
▁റ്റി	-8993
▁കമ്പ്യൂട്ടർ	-8994
▁സെക്	-8995
തിനാണ്	-8996
▁യുക്തി	-8997
▁നിലവാരം	-8998
ില്‍നിന്ന്	-8999
▁നമ്പൂ	-9000
▁അജിത്	-9001
▁ഉപതെരഞ്ഞെടു	-9002
▁ളി	-9003
ില്ലാ	-9004
▁റൺസ്	-9005
▁കൊടുക്കുന്ന	-9006
വായ	-9007
▁വെല്ലുവിളി	-9008
വധ	-9009
▁പരസ്യം	-9010
▁മാദ്ധ്യമ	-9011
▁പങ്കെടുക്കും	-9012
ബിൾസ്	-9013
▁മൈതാന	-9014
46	-9015
്ലെ	-9016
എസ്എ	-9017
കരുടെ	-9018
▁ഇരുന്ന	-9019
▁യൂണിയൻ	-9020
▁നായ്	-9021
▁ചോര	-9022
▁ബോസ്	-9023
ുകയെന്ന	-9024
▁കാണുന്നു	-9025
▁വേല	-9026
4)	-9027
▁സിക്	-9028
ത്തുന്നു	-9029
▁ഇതിനെതിരെ	-9030
▁വിനീ	-9031
▁ബാഹ്യ	-9032
ാവുകയും	-9033
ചെയ്യുന്ന	-9034
▁തരംഗ	-9035
ശ്രദ്ധ	-9036
ായതോടെ	-9037
▁തടയാൻ	-9038
▁രാജസ്ഥാന	-9039
ട്രി	-9040
ചിന്ത	-9041
▁പെരുമാറ	-9042
▁മീഡിയയിൽ	-9043
െടുത്തിരുന്നു	-9044
▁വണ്ടി	-9045
▁വൈവിധ	-9046
▁ടാക്	-9047
ക്യൂരി	-9048
▁പട്ടാള	-9049
▁ആക്രമണത്തില്‍	-9050
യുമ	-9051
▁സഹോദരന്‍	-9052
ിച്ചപ്പോള്‍	-9053
ങ്കാന	-9054
വിധി	-9055
▁തെറ്റ്	-9056
▁ടിക്കറ്റ	-9057
▁U	-9058
പിന്	-9059
▁ആരു	-9060
▁രണ്ടര	-9061
▁ശ്രദ്ധേയമാണ്	-9062
▁വസ്ത്രങ്ങൾ	-9063
ഗൊ	-9064
iraj	-9065
അമ്മ	-9066
ുടേ	-9067
ർപ്പിച്ച	-9068
▁കോശ	-9069
▁നല്‍കുന്നു	-9070
ാക്കാനും	-9071
ക്രം	-9072
▁തൊലി	-9073
▁പുനർ	-9074
▁കോളേജിലെ	-9075
▁മോഷണ	-9076
▁ഗവണ്‍	-9077
ബിന്‍	-9078
▁ഉല്‍പ്പ	-9079
▁വക്ക	-9080
▁അബ്ദുല്ല	-9081
ൈഡ്	-9082
▁ആവേശം	-9083
▁സമ്പദ്	-9084
▁സര്‍വേ	-9085
ദീപ്	-9086
രീതി	-9087
കുട്ടിയ	-9088
ബീ	-9089
▁th	-9090
▁ന്നു	-9091
▁യാദവ്	-9092
▁ചെയ്തിട്ടില്ല	-9093
മുത	-9094
ഭ്	-9095
▁ലാം	-9096
സൂര്യ	-9097
ാനായിരുന്നു	-9098
ിലേക്ക	-9099
ത്താല്‍	-9100
▁സെന്‍ട്ര	-9101
▁റിസർ	-9102
▁സത്യവാ	-9103
▁പറയാനുള്ള	-9104
ലിന	-9105
തുകൊണ്ട	-9106
▁എത്തും	-9107
▁വികസിപ്പിച്ച	-9108
അ്	-9109
▁തലത്തിൽ	-9110
▁അധിക്ഷേപ	-9111
▁ഒഴിവാക്കാൻ	-9112
▁ജ്ഞ	-9113
▁ഉള്‍പ്പെടുത്തിയ	-9114
▁മാറ്റിവ	-9115
▁മോഡലുകൾ	-9116
ക്കാതി	-9117
യാളാണ്	-9118
ുമാറ്റ	-9119
▁അവയുടെ	-9120
▁ബെംഗളൂരു	-9121
▁സര്‍ക്കാരിനെ	-9122
▁ചേച്ച	-9123
▁പട്ടണ	-9124
ിനുള്ളിൽ	-9125
യോര	-9126
▁ലണ്ടന്‍	-9127
▁കാരണങ്ങൾ	-9128
▁വോട്ടി	-9129
ിച്ചതായി	-9130
▁തിരിച്ചുവര	-9131
▁ചെയ്യരുത്	-9132
▁ആരംഭിക്കുന്ന	-9133
▁ഡ്രോ	-9134
▁സ്ഥാനാർഥ	-9135
ോട്ടെ	-9136
▁വന്നാല്‍	-9137
▁തൊട്ടടുത്ത	-9138
ചു	-9139
ിറങ്ങി	-9140
▁കുറ്റപത്രം	-9141
ത്തേക്ക	-9142
▁അറിയുന്നത്	-9143
▁വെള്ളത്തിൽ	-9144
▁ആശ്വാസം	-9145
▁മാറ്റാൻ	-9146
▁സംബന്ധിച്ചു	-9147
▁സെന്റര്‍	-9148
▁മകളുടെ	-9149
കോശ	-9150
ാട്ട്	-9151
▁തുറമുഖ	-9152
▁എന്നൊരു	-9153
▁മിക്കവാറും	-9154
4,	-9155
പിടിച്ചു	-9156
▁പാകിസ്താന്‍	-9157
▁ക്രൂ	-9158
▁പതിനെ	-9159
▁പരാജയം	-9160
▁വാഗ്ദാന	-9161
▁വാസ	-9162
▁കാലി	-9163
▁പീഡനം	-9164
▁മാലിന്യം	-9165
▁കൊച്ചിയിലെ	-9166
റ്റുപ	-9167
സിസിഐ	-9168
ിക്കുട്ടി	-9169
▁ചെയ്താല്‍	-9170
ദൊ	-9171
കാരി	-9172
വ്വേ	-9173
▁പുനഃസ്ഥാപ	-9174
▁സെക്യൂരി	-9175
▁സ്വീകാര്യ	-9176
േം	-9177
▁ഉറച്ചു	-9178
ort	-9179
▁സ്റ്റീ	-9180
▁വിചിത്ര	-9181
▁എസ	-9182
▁ഉത്തരവ	-9183
ൂണ്‍	-9184
▁....	-9185
▁നേതാവും	-9186
▁സച്ചിന്‍	-9187
▁കന്യാസ്ത്രീ	-9188
ഷ്മ	-9189
▁സമസ്ത	-9190
▁ഒളിച്ച	-9191
▁ചികിത്സാ	-9192
▁കോലി	-9193
▁ഹാരി	-9194
▁പങ്കിട	-9195
ച്ചുവ	-9196
▁തലവേദന	-9197
▁നിര്‍മാണം	-9198
.9	-9199
▁പെയ	-9200
▁മനഃ	-9201
▁ഡോക്ടർമാർ	-9202
▁വാന	-9203
▁ചേച്ചി	-9204
ബാന	-9205
▁ജഡ	-9206
ന്റോ	-9207
▁വഴിയിൽ	-9208
▁ഫൈനലില്‍	-9209
ിണിയ	-9210
▁തങ്ങളെ	-9211
▁സംഭവിച്ചത്	-9212
▁ജാമ്യാപേക്ഷ	-9213
▁പൊതി	-9214
▁പേരിലാണ്	-9215
പ്രിൽ	-9216
▁ഹജ്ജ്	-9217
▁പരിപാടികള്‍	-9218
ന്തിയ	-9219
▁സോവിയറ്റ്	-9220
▁മലയാളികള്‍	-9221
ിങ്	-9222
▁ജം	-9223
▁മിനിറ്റ	-9224
▁കേള്‍ക്ക	-9225
▁തലത്തില്‍	-9226
തെല്ലാം	-9227
▁മേഖലകളില്‍	-9228
ദ്മി	-9229
പക്ഷം	-9230
ക്കുന്നതിന്	-9231
▁രേഖപ്പെടുത്ത	-9232
▁ആസിഡ്	-9233
▁സേവനങ്ങൾ	-9234
2)	-9235
▁ഫില	-9236
▁മുരളി	-9237
▁സ്വീകരണ	-9238
et	-9239
ഹെ	-9240
തയാണ്	-9241
▁ഫെയ്സ്	-9242
▁ഷോപ്പി	-9243
▁ഇന്ത്യാ	-9244
▁ഭരണാധികാരി	-9245
▁തിരഞ്ഞെടുക്കാൻ	-9246
▁വീര	-9247
▁അല്ലാത്ത	-9248
▁കല്‍പ്പ	-9249
▁നായി	-9250
▁ആഞ്ഞ	-9251
▁ബിനോ	-9252
▁ടെലഗ്രാമില്‍	-9253
യാന്‍	-9254
▁കോഡ്	-9255
▁കുമ്പ	-9256
മുണ്ടായിരുന്ന	-9257
▁ജോയ്	-9258
▁siraj	-9259
▁ക്രൈംബ്രാഞ്ച്	-9260
▁ഏഴാം	-9261
കരെ	-9262
നുമ	-9263
▁ഉറവിട	-9264
▁കോച്ച്	-9265
▁അതിര്‍ത്തിയ	-9266
▁ചെയ്തിരുന്ന	-9267
▁രമ്യ	-9268
▁രാജശേഖ	-9269
▁വന്നതോടെ	-9270
ജ്ര	-9271
▁പൊരുത്ത	-9272
്പന	-9273
പ്പട	-9274
▁ഹർജി	-9275
▁പ്രകടിപ്പിച്ച	-9276
▁രക്ഷാപ്രവര്‍ത്ത	-9277
ിക്കേണ്ടതുണ്ട്	-9278
▁ബിസിസിഐ	-9279
▁മർദ്ദ	-9280
▁ക്വാര്‍	-9281
▁സായി	-9282
▁ചിട്ട	-9283
▁ഫെസ്റ്റ	-9284
ുമാസ	-9285
ഷനില്‍	-9286
▁ശര്‍മ	-9287
ജല	-9288
▁o	-9289
▁ബൈക്ക	-9290
▁മാറും	-9291
▁ജനങ്ങള്‍ക്ക്	-9292
▁നടപടിയെടുക്ക	-9293
വനും	-9294
▁റെക്കോര്‍ഡ്	-9295
മിറ	-9296
വര്‍ഗ	-9297
▁പാട്ട്	-9298
▁കോർപ്പറ	-9299
ന്‍മാര്‍	-9300
▁മാര്‍ച്ച	-9301
▁ആവശ്യങ്ങൾ	-9302
▁ഉള്‍പ്പടെ	-9303
മാനം	-9304
ങ്ങുകയാണ്	-9305
▁എത്തിയിരുന്നു	-9306
▁250	-9307
▁അഴിച്ചു	-9308
▁നിര്‍മ്മാത	-9309
റാമ	-9310
▁ആൺ	-9311
▁ഇളയ	-9312
▁ഗംഗ	-9313
വിന്‍റെ	-9314
▁ബീച്ച്	-9315
▁ആന്തരിക	-9316
21	-9317
▁രാഘ	-9318
▁ഭാഗങ്ങളില്‍	-9319
▁പിന്	-9320
▁രൂപീകരിച്ച	-9321
▁ഉടമസ്ഥത	-9322
▁ബിന	-9323
▁ഉള്‍പ്പെട്ട	-9324
കൃഷ്ണന്‍	-9325
ക്കുരു	-9326
ുകയുള്ളൂ	-9327
യുമായ	-9328
▁ഉറക്കം	-9329
▁തൊഴിലാളികള്‍	-9330
▁പായ	-9331
▁ബൗള	-9332
▁ഫ്രീ	-9333
▁അതിരൂപ	-9334
▁എതിര്‍ക്ക	-9335
ാർന്ന	-9336
▁നിഗമനം	-9337
▁തുറക്ക	-9338
▁സൗമ്യ	-9339
▁തെളിവുകള്‍	-9340
▁ജൂൺ	-9341
▁സാധ്യമാണ്	-9342
▁ഗുണനില	-9343
ക്കുട്ടി	-9344
▁ഗ്രൗണ്ട	-9345
▁ചേര്‍ന്നു	-9346
▁പോലെയുള്ള	-9347
▁കഫ	-9348
ാപുരം	-9349
്യൂസ്	-9350
ങ്ങനെയുള്ള	-9351
▁കളിക്കാര	-9352
▁പൊത	-9353
െത്തുന്ന	-9354
▁കോണ്‍ഗ്രസിന്	-9355
▁ആരുടെ	-9356
▁മാധ്യമങ്ങളോട്	-9357
ചെയ്യുക	-9358
മാക്കാന്‍	-9359
▁ദിവസമാണ്	-9360
▁സകല	-9361
▁ക്ലാസി	-9362
▁ക്രൂരമായി	-9363
▁ടീസ	-9364
▁അതോടെ	-9365
▁സ്റ്റേഷനില്‍	-9366
▁ടൈം	-9367
▁ബെഞ്ച്	-9368
▁ചെറുകിട	-9369
▁പതിവായി	-9370
▁ഏകോ	-9371
വാള്‍	-9372
▁കേസെടുത്തു	-9373
റിന്‍റെ	-9374
▁കുറിച്ചും	-9375
▁കാനഡ	-9376
▁ഇന്റലിജ	-9377
▁നിര്‍മാത	-9378
▁ലിംഗ	-9379
▁റദ്ദാക്ക	-9380
▁പോര്‍ട്ട്	-9381
▁സ്മാരക	-9382
▁ഉദ്യോഗസ്ഥരെ	-9383
▁ചെലു	-9384
▁സംഘർഷ	-9385
▁ഉൾപ്പെടുത്തിയ	-9386
ഡന്‍	-9387
▁വിദ്യാര്‍ത്ഥി	-9388
▁നും	-9389
▁ഫാമ	-9390
പിറ്റ	-9391
മൈ	-9392
▁ഭര	-9393
പിടിച്ച്	-9394
ാര്‍ക്ക്	-9395
▁വിജയകരമായി	-9396
ാനിലെ	-9397
▁പാതി	-9398
▁മനോരമ	-9399
▁സംസാരിക്ക	-9400
▁പുറത്താക്ക	-9401
▁സെഞ്ച്	-9402
▁ട്രെയില	-9403
▁വേണ്ടത്ര	-9404
▁അര്‍ജന്റീന	-9405
▁സംഖ്യ	-9406
ലുമായി	-9407
▁വിട്ടയ	-9408
▁മഞ്ച	-9409
▁താരമാണ്	-9410
കളിലേക്ക്	-9411
';	-9412
▁തടാക	-9413
▁കരുതുന്ന	-9414
▁ദൃശ്യങ്ങൾ	-9415
▁കെഎസ്ആര്‍	-9416
▁രംഗത്തെത്തിയത്	-9417
▁തത്വ	-9418
▁ഹാർഡ്	-9419
▁ഭാരതീയ	-9420
▁പ്രകൃ	-9421
▁നവോത്ഥ	-9422
▁നിർണായക	-9423
▁അഫ്ഗാനി	-9424
▁ക്രിമിനല്‍	-9425
ക്കൂട്ടം	-9426
▁സീറോ	-9427
▁എല്‍ഡിഎഫ്	-9428
▁പിന്നിട്ട	-9429
▁സ്പോർ	-9430
ില്ലെങ്കിലും	-9431
▁ബിരുദം	-9432
▁കാലത്തെ	-9433
▁മനസ്സിലാക്കാൻ	-9434
▁വേറി	-9435
വെച്ച്	-9436
▁കേസുകള്‍	-9437
▁മോട്ടോര്‍	-9438
▁ലൈൻ	-9439
റുമായി	-9440
ക്ടറുടെ	-9441
▁മറന്ന	-9442
ent	-9443
ുമെന്റ	-9444
▁വലുത	-9445
▁പറഞ്ഞാൽ	-9446
▁തടസ	-9447
ജീവിതം	-9448
▁തകർന്ന	-9449
▁രഞ്ജ	-9450
▁ദുരന്തം	-9451
▁വ്യവസായി	-9452
പഠ	-9453
വരണം	-9454
▁ഗാല	-9455
▁തക്കാളി	-9456
ൊന്നുമല്ല	-9457
▁ശ്രീധരന്‍	-9458
vi	-9459
▁പ്രവര്‍ത്തി	-9460
ാധ്യ	-9461
▁വീടിന്	-9462
തുറ	-9463
ുവാനുള്ള	-9464
▁വിദഗ്ദ്ധ	-9465
▁തിരഞ്ഞെടുപ്പ	-9466
ത്താൽ	-9467
▁പിടിയിലായ	-9468
▁Read	-9469
▁പണ്ട	-9470
▁എത്രയോ	-9471
ക്കാരന്റെ	-9472
▁ചിത്രമായ	-9473
കിട	-9474
പേക്ഷ	-9475
▁കക്ഷി	-9476
▁പുത്ര	-9477
▁ഭാര്യയെ	-9478
▁തുണി	-9479
▁ഫ്രാൻ	-9480
ാറ്	-9481
എന്റെ	-9482
വിന	-9483
തമായ	-9484
െയായി	-9485
▁സന്യ	-9486
▁സാംസ	-9487
ത്തിമ	-9488
▁സെന്‍ട്രല്‍	-9489
▁മില്ലി	-9490
▁അർഹ	-9491
▁ഈജിപ്	-9492
▁പെരിയ	-9493
▁മെമ്പ	-9494
▁അര്‍ത്ഥ	-9495
▁കുറയ്ക്കാൻ	-9496
▁ബംഗ്ലാദേശ്	-9497
▁മാത്രമായിരുന്നു	-9498
േണ്ടിയ	-9499
▁ഏപ്രിൽ	-9500
േശ്	-9501
▁ചിത്രീകരണം	-9502
▁വഴിയാണ്	-9503
▁വ്യക്തിപരമായ	-9504
▁അറബ്	-9505
▁ജയിലിൽ	-9506
▁ഇരുന്നു	-9507
▁ഊര്‍ജ	-9508
മാക്കുന്നു	-9509
▁ശുശ്രൂഷ	-9510
ത്തിക്കാന്‍	-9511
▁#	-9512
▁എക്കാല	-9513
▁അതിനുശേഷം	-9514
▁പ്രദര്‍ശന	-9515
ങ്ങളിലൊന്ന	-9516
ൾസ്	-9517
▁തോള	-9518
▁ഹിറ്റ	-9519
▁നിർമ്മിച്ച	-9520
വഴി	-9521
▁ഊന്ന	-9522
▁റ്റേ	-9523
▁സുനി	-9524
▁വ്യതിയ	-9525
▁നഷ്ടപ്പെട	-9526
▁ഏറ്റെടുത്ത	-9527
▁സംഘടിപ്പിച്ചു	-9528
ബാമ	-9529
▁നേരിടേണ്ടി	-9530
ക്സഭാ	-9531
▁പ്രാപ	-9532
▁43	-9533
ണ്ടോ	-9534
ാനിഷ്	-9535
▁മോദിയെ	-9536
▁അധ്യാപിക	-9537
▁നാട്ടിലേക്ക്	-9538
തമായി	-9539
▁താരതമ	-9540
▁ഭൗതിക	-9541
▁ഇന്ത്യയും	-9542
▁ഓറ	-9543
▁റ്റോ	-9544
ുവര്‍ഷ	-9545
▁സാല	-9546
▁രണ്ടാഴ്ച	-9547
▁മലയാളത്തില്‍	-9548
പ്പുര	-9549
▁മജിസ്	-9550
▁ആദിവാസ	-9551
▁റൂം	-9552
▁സന്നിധാന	-9553
▁നസ	-9554
▁എന്തിനാണ്	-9555
▁മത്സരങ്ങള്‍	-9556
ജക	-9557
▁ചെല്ല	-9558
▁ആദ്യഘട്ട	-9559
▁സ്ത്രീയുടെ	-9560
▁അച്യുതാനന്ദ	-9561
▁മമത	-9562
▁ബോംബ്	-9563
▁എന്നൊക്കെ	-9564
▁തുടർന്നാണ്	-9565
മൻ	-9566
▁41	-9567
▁നേടാൻ	-9568
യാണെന്നും	-9569
▁ദിലീപിനെ	-9570
▁സച്ച	-9571
▁നേരിയ	-9572
▁സിനിമകള്‍	-9573
6,	-9574
▁മരിയ	-9575
▁കുട്ടികളും	-9576
▁സെക്രട്ടേറിയ	-9577
ുകാരൻ	-9578
▁അതൊരു	-9579
ിൻ	-9580
▁ലക്ഷ്മ	-9581
▁നേതാക്കളെ	-9582
ിക്കുന്നതില്‍	-9583
▁ഇതിനോട	-9584
▁കീഴിലുള്ള	-9585
▁മൂത്ത	-9586
▁പോലിസ്	-9587
ടെക്	-9588
രിഞ്ഞ	-9589
▁അരവിന്ദ്	-9590
▁നയതന്ത്ര	-9591
▁വിപുലമായ	-9592
▁പഞ്ചായത്തിലെ	-9593
▁ഗെ	-9594
▁ഇന്‍സ്റ്റ	-9595
ത്തിനുള്ളിൽ	-9596
െന്നി	-9597
▁ശ്വാസം	-9598
രാകാശ	-9599
▁സുഗമ	-9600
▁കുരി	-9601
ിനില്‍	-9602
▁മത്സ്യത്തൊഴിലാള	-9603
▁സര്‍ക്കാറിന്റെ	-9604
▁സെയ്	-9605
▁ചൂടുള്ള	-9606
ളിന്	-9607
▁ഥാന	-9608
▁മകനെ	-9609
▁ലോക്സഭാ	-9610
ാപകട	-9611
▁സ്വർണ	-9612
ിക്കാനാക	-9613
▁നിര്‍വ്വഹ	-9614
▁സിന്	-9615
▁ബലാത്സംഗം	-9616
▁ശുപാര്‍ശ	-9617
▁ഫോട്ടോഗ്ര	-9618
ാനിട	-9619
▁മത്സരങ്ങളില്‍	-9620
തെന്നു	-9621
നൂ	-9622
▁സുന്ദര	-9623
▁കല്യാണം	-9624
▁കുടുംബത്തിലെ	-9625
ണക്ക	-9626
്യവും	-9627
സ്ഥാനം	-9628
ൊരിക്ക	-9629
▁ചട്ടം	-9630
ക്കെട്ട്	-9631
▁ചുരുക്ക	-9632
▁ഫാഷൻ	-9633
▁ഇനങ്ങൾ	-9634
ത്തുറ	-9635
▁താരതമ്യം	-9636
▁സമർപ്പിച്ച	-9637
▁സജി	-9638
......	-9639
്രാജ	-9640
▁പനി	-9641
▁മോഹൻലാൽ	-9642
▁വാർത്തകൾ	-9643
▁ഗതി	-9644
ബുദ്ധ	-9645
▁താൽപ്പ	-9646
ക്കുണ്ട്	-9647
▁മാസ്റ്റർ	-9648
പ്ലോ	-9649
നീയമായ	-9650
▁പണിക്ക	-9651
ിലുണ്ടായ	-9652
▁&	-9653
▁വിൽ	-9654
▁വർധന	-9655
ക്കൊപ്പ	-9656
▁മിശ്രിതം	-9657
▁സ്വീകരിച്ചത്	-9658
റിലേക്ക്	-9659
▁പബ്ലിക്	-9660
▁മൂന്നാമത്തെ	-9661
▁ദെ	-9662
▁ഹാജി	-9663
▁നിർദേശം	-9664
ക്കൊല	-9665
▁പേർക്ക്	-9666
▁സ്ഥാപനങ്ങൾ	-9667
മാലി	-9668
▁ലക്	-9669
▁തിന്ന	-9670
▁മെറ്റീരിയ	-9671
▁മറ്റുള്ളവരെ	-9672
▁നിഷ	-9673
▁നടക്കുന്നു	-9674
ൂണ	-9675
▁തങ്ക	-9676
▁വിഷം	-9677
▁സംഘത്തെ	-9678
▁പരിശുദ്ധ	-9679
താപ	-9680
▁ഉയരം	-9681
▁ജനി	-9682
ണിയെ	-9683
ിക്കട	-9684
ഫലങ്ങൾ	-9685
▁ചിക്കൻ	-9686
▁സ്ത്രീകളും	-9687
യിഡ്	-9688
▁ഓരോരുത്ത	-9689
▁പുത്തന്‍	-9690
▁ചെയര്‍മാന	-9691
ാർക്ക്	-9692
▁ഠ	-9693
▁കാണുക	-9694
▁ആര്‍ക്ക	-9695
▁വേവ	-9696
▁അറിയാൻ	-9697
▁സ്ഥിരമായി	-9698
▁ഗൾ	-9699
ാമായിരുന്നു	-9700
ീനി	-9701
ികളിലെ	-9702
▁തീര്‍ച്ച	-9703
▁ഇവിടുത്തെ	-9704
▁കാര്യക്ഷമ	-9705
ുണ്ടെങ്കിലും	-9706
▁നിധ	-9707
▁സില	-9708
▁ഇറാന്‍	-9709
▁റൂബിൾസ്	-9710
▁ഗാർ	-9711
മേല്‍	-9712
വൂര്‍	-9713
▁പഞ്ചാബ	-9714
▁ഒന്നിന്	-9715
▁ചേരുന്ന	-9716
▁ദ്രാവ	-9717
▁തുര	-9718
▁ചാമ്പ്യന്‍	-9719
രുന്നുണ്ട്	-9720
▁നാണ്	-9721
ണമെങ്കിൽ	-9722
തയോടെ	-9723
▁കുടുംബത്തിന്	-9724
ro	-9725
ർല	-9726
ച്ചൊ	-9727
േശ്വ	-9728
▁യൂറോപ്യന്‍	-9729
▁സന്ദര്‍ശനം	-9730
ഷെ	-9731
▁നോവല	-9732
രീസ്	-9733
▁അശ്ലീല	-9734
ുകളിലായി	-9735
ക്കുറിപ്പ്	-9736
ാലിന്റെ	-9737
▁ചുമത്തിയ	-9738
▁അമേരിക്കയുടെ	-9739
ഷന്റെ	-9740
▁അവയെ	-9741
▁നിരസ	-9742
െടുപ്പ	-9743
▁നിവാസ	-9744
▁സിക്യ	-9745
ാവുന്നത്	-9746
ശേരി	-9747
ില്ലായ്മ	-9748
▁പ്രതിയായ	-9749
▁വയ്യ	-9750
ഹിതം	-9751
▁പ്രൊഡ	-9752
ഫര്‍	-9753
▁കോര്‍പറ	-9754
ൈറ്റ്	-9755
▁മറന്നു	-9756
▁പേജ്	-9757
▁ഏതൊരു	-9758
ൈന്‍	-9759
▁തായ്	-9760
▁ഉള്ളി	-9761
▁മില്യ	-9762
▁മുഖേന	-9763
ാശയ	-9764
▁ഗീത	-9765
▁അനുഭവിക്കുന്ന	-9766
.4	-9767
▁ആമസോ	-9768
▁നീന്ത	-9769
ശേഷി	-9770
▁ടൂർ	-9771
▁സിലി	-9772
▁തെരഞ്ഞെടുപ്പിൽ	-9773
▁സംഭവിക്കുന്നത്	-9774
▁അവാര്‍	-9775
▁പിണറായ	-9776
'.	-9777
aily	-9778
ാന്ധി	-9779
▁ഉപദേശം	-9780
▁നേടുന്ന	-9781
▁ഫാസി	-9782
▁കടല്‍	-9783
▁സസ്പെ	-9784
വെങ്കിലും	-9785
▁വരുമ്പോള്‍	-9786
▁സ്മി	-9787
▁പിഎസ്	-9788
▁ചാനല്‍	-9789
▁ഉത്തരവാദിത്ത	-9790
▁പാകം	-9791
▁വിദ്	-9792
▁പ്രാബല്യ	-9793
▁പരുക്കേറ്റ	-9794
▁യെച്ച	-9795
േദ്	-9796
▁വലതു	-9797
▁വീടുകള്‍	-9798
▁എന്‍ഡിഎ	-9799
▁അടിത്തറ	-9800
▁ബഹിരാകാശ	-9801
▁ഇളവ്	-9802
▁ശേഷവും	-9803
▁വേണ്ടിയ	-9804
യില്ലാത്ത	-9805
▁സംസ്ഥാനങ്ങളില്‍	-9806
▁അനുമതിയ	-9807
▁താങ്കള	-9808
▁ഛായ	-9809
▁കൊഴുപ്പ്	-9810
▁ചോദിക്കുന്നു	-9811
▁പരോ	-9812
ിക്കള	-9813
▁സീസണില്‍	-9814
▁കണക്കിലെടുത്ത്	-9815
വിനോ	-9816
കക്ഷി	-9817
▁കേടു	-9818
▁ഉദ്യോഗസ്ഥരുടെ	-9819
▁അനിയ	-9820
▁മാഫിയ	-9821
ാതിരിക്കാന്‍	-9822
▁ഉള്‍ക്കൊള്ള	-9823
▁ചേര്‍ന്നാണ്	-9824
▁ഫൊ	-9825
▁സുബ്ര	-9826
▁മലേഷ്യ	-9827
▁പാർക്ക്	-9828
തെങ്കിലും	-9829
▁വിശദീകരിച്ചു	-9830
സാല	-9831
മ്പ്രദ	-9832
▁ഒളിമ്പ	-9833
സൽ	-9834
രോട	-9835
ണിന്	-9836
▁മൂട	-9837
▁കാട്ടി	-9838
▁റൗണ്ട	-9839
ിച്ചതിന്	-9840
▁ലഭ്യമായ	-9841
▁ഇലക്ട്രോണിക്	-9842
▁സാഹചര്യങ്ങളിൽ	-9843
വാടി	-9844
▁സമീപനം	-9845
യ്ക്കല്‍	-9846
▁പദ്ധതികൾ	-9847
▁വിശ്വസിക്കുന്നു	-9848
▁ജഡ്ജി	-9849
▁വളരുന്ന	-9850
▁സംഭവത്തെ	-9851
▁അനുവദിക്കുന്ന	-9852
ൊറ്റ	-9853
▁ലാഭം	-9854
▁പൊതുമേഖല	-9855
▁സെർ	-9856
▁കണ്‍വീന	-9857
▁യാഥാര്‍ത്ഥ	-9858
5)	-9859
ഷ്ണുത	-9860
▁അച്ഛന്റെ	-9861
യിസ്	-9862
ങ്ങാടി	-9863
റിയാതെ	-9864
▁താരങ്ങൾ	-9865
▁അശ്	-9866
ക്കേട്	-9867
ച്ചന്‍	-9868
▁ട്രഷറ	-9869
▁തലശ്ശേരി	-9870
▁ഉയര്‍ത്തിയ	-9871
ഡേ	-9872
ബല്‍	-9873
▁കേന്ദ്രസർക്ക	-9874
▁ലിയോ	-9875
▁ബാക്ക	-9876
▁പ്രാര്‍ത്ഥന	-9877
el	-9878
▁തെര	-9879
▁സഹായിച്ച	-9880
▁എഐ	-9881
ചെയ്തു	-9882
ഫാ	-9883
▁അയാളെ	-9884
▁കേട്ടു	-9885
▁പൃഥ്വിരാജ്	-9886
▁പ്രവർത്തിച്ച	-9887
▁ഡൈ	-9888
ക്കറ	-9889
▁പാലാ	-9890
ത്യക്ഷ	-9891
▁ബലാത്സംഗ	-9892
▁മത്സരിച്ച	-9893
▁നിരാ	-9894
▁ഹാര്‍	-9895
▁ഉണ്ടെന്ന്	-9896
▁അസാധാരണമായ	-9897
▁ദോഹ	-9898
ുകാ	-9899
▁ഗൊ	-9900
▁സിയ	-9901
▁ലാമിക	-9902
▁കുടുംബവും	-9903
▁ഓർമ	-9904
▁പിറക	-9905
▁ഗ്യാസ്	-9906
▁സാധനങ്ങൾ	-9907
▁വ്യാഖ്യാന	-9908
▁ഹോസ്പിറ്റ	-9909
ിച്ചെങ്കിലും	-9910
▁ആകര്‍ഷ	-9911
▁മീൻ	-9912
▁ജലനിര	-9913
▁നാടകം	-9914
▁ദശലക്ഷം	-9915
്വാന	-9916
ുകളെയും	-9917
▁ഇതിഹാസ	-9918
ാവുന്നത	-9919
▁തകർക്ക	-9920
▁നോര്‍ത്ത്	-9921
,.	-9922
തയുള്ള	-9923
▁സുകുമാര	-9924
▁താഴെയുള്ള	-9925
▁സാധ്യതയുണ്ട	-9926
▁ഐഎ	-9927
▁ഓപ്ഷനുകൾ	-9928
കുമാറിന്റെ	-9929
▁ഘട്ടത്തില്‍	-9930
▁g	-9931
പൊട്ട	-9932
യ്ക്കുന്നു	-9933
ില്ലെന്നു	-9934
മുണ്ടെന്നും	-9935
▁കഴിഞ്ഞാല്‍	-9936
▁ഇന്നല	-9937
തിഥ	-9938
ാകൃ	-9939
▁സംഘാട	-9940
സ്ത്	-9941
▁ലോകകപ്പില്‍	-9942
▁മില	-9943
▁ഇറ്റാലിയ	-9944
▁മുമ്പാണ്	-9945
▁49	-9946
▁നാരങ്ങ	-9947
▁നമസ്	-9948
▁അമ്പര	-9949
വാല	-9950
സിപി	-9951
നായിരുന്ന	-9952
▁സമിതിയുടെ	-9953
▁റൂട്ട്	-9954
▁അബ്ദുള്ള	-9955
പിത	-9956
▁അകലെ	-9957
▁നിലയ	-9958
▁ഹ്യൂ	-9959
ാക്കളായ	-9960
ാപൂർ	-9961
ക്ഷമത	-9962
▁സുന്ന	-9963
▁ഒരുപോലെ	-9964
്രമം	-9965
മീഡിയ	-9966
റ്റില	-9967
▁യാത്രാ	-9968
▁സ്റ്റാർ	-9969
മൊന്നും	-9970
▁വീടു	-9971
രോഹിത	-9972
▁സപ്ല	-9973
▁ബഹിഷ്	-9974
▁സഹായക	-9975
ിടയില്‍	-9976
ചൂ	-9977
ാഴ്	-9978
▁പന്ന	-9979
മുണ്ടായി	-9980
▁പ്രതിഫലം	-9981
ിക്കേ	-9982
▁ഒക്ടോബർ	-9983
ന്മാരായ	-9984
▁അപ്ഡ	-9985
▁മുങ്ങി	-9986
▁വാഹനങ്ങൾ	-9987
ജിയുടെ	-9988
▁ദീപിക	-9989
▁മണ്ഡലത്തിലെ	-9990
ടങ്ങുന്ന	-9991
▁മാതൃഭൂമി	-9992
▁പ്രതിരോധം	-9993
▁മലയാളത്തിലെ	-9994
▁വ്യത്യസ്തമായി	-9995
▁ജർമ	-9996
▁തുല	-9997
പിയുടെ	-9998
ോട്ടു	-9999
▁ഗള്‍ഫ്	-10000
▁നീളം	-10001
ര്‍ജ്ജ	-10002
▁ഇഷ്ടം	-10003
സൊ	-10004
▁ചുഴല	-10005
▁ക്രിസ്മസ്	-10006
്യന്‍	-10007
▁ഉപദ്രവ	-10008
▁ഉചിതമായ	-10009
▁നിയമസഭയില്‍	-10010
മെങ്കിലും	-10011
▁റിപ്പോർട്ടുകൾ	-10012
്രി	-10013
▁അട്ട	-10014
▁ഹൈദരാബാദ	-10015
▁ഔദ്യോഗികമായി	-10016
▁പുനരധ	-10017
▁നിങ്ങള	-10018
▁കഴിയാതെ	-10019
▁ഹൊ	-10020
▁നിയോജക	-10021
▁സത്യസന്ധ	-10022
തിഒന്	-10023
▁ദുരുപ	-10024
▁ഉരുളക്കിഴ	-10025
▁സൗന്ദര്യം	-10026
▁വെണ്ണ	-10027
▁ആഗസ്റ്റ്	-10028
▁കൗതുക	-10029
▁ബാധിത	-10030
▁മുറിവ	-10031
▁വാതില	-10032
▁അയോധ്യ	-10033
റാപ്പി	-10034
▁നിര്യ	-10035
▁എടി	-10036
▁മരിക്ക	-10037
ങ്ങിന്	-10038
സംരക്ഷണ	-10039
▁അജ്ഞാത	-10040
▁തോല്‍വി	-10041
▁ഗ്ലോ	-10042
▁ലോട്ട	-10043
7-	-10044
▁സംഘമാണ്	-10045
▁അധ്യക്ഷൻ	-10046
▁വണ്‍	-10047
▁തുഷ	-10048
▁തുടങ്ങിയവർ	-10049
▁വേദി	-10050
▁തുടർച്ചയായി	-10051
വേദി	-10052
▁വയല	-10053
▁അഭാവം	-10054
വാന	-10055
കമ്പ	-10056
▁മകന്റെ	-10057
െന്നോ	-10058
▁കൂറ്റ	-10059
▁സിവിൽ	-10060
▁നന്ദിയും	-10061
▁ബ്രൗ	-10062
▁റാങ്ക്	-10063
▁ഭാവിയിൽ	-10064
▁സംഘടനകളുടെ	-10065
eb	-10066
റിന	-10067
സ്റ്റോ	-10068
▁ഫാക്ട	-10069
▁വിൽക്ക	-10070
▁പഠിക്കാൻ	-10071
▁മേശ	-10072
▁നെഗറ്റീവ്	-10073
▁വാര്‍ത്താസമ്മേള	-10074
▁ഗ്രാമീണ	-10075
▁വ്യായാമ	-10076
ഘടന	-10077
▁ഖന	-10078
▁എഴുപ	-10079
കിയ	-10080
▁ജില്ലയിൽ	-10081
▁എത്തിച്ചേ	-10082
ൈം	-10083
▁സമൂഹത്തില്‍	-10084
ാഷ്	-10085
▁നഗരസഭാ	-10086
ദൂ	-10087
ികൊണ്ട	-10088
▁സൂപ്ര	-10089
ുറപ്പ	-10090
▁വേർതി	-10091
▁എന്നതും	-10092
▁മാനേജര്‍	-10093
നാഭ	-10094
ുപോയ	-10095
▁ഓർത്ത	-10096
▁കാർഷിക	-10097
▁ബോട്ട്	-10098
▁മോച	-10099
▁രണ്ടോ	-10100
രിച്ചാണ്	-10101
▁ജീവിതത്തെ	-10102
▁ധീര	-10103
▁കുത്തിയ	-10104
▁വു	-10105
▁ഉല്	-10106
ന്വേഷ	-10107
ിയോടെ	-10108
▁പുരോഗതി	-10109
▁ആരാധകരുടെ	-10110
’;	-10111
▁പൊലീസിനെ	-10112
▁സ്ഥലങ്ങളിൽ	-10113
ണമായ	-10114
▁സീസണിൽ	-10115
▁തുര്‍ക്ക	-10116
▁ദിവസങ്ങളിൽ	-10117
ുണ്ടായിരുന്നത്	-10118
▁നിലനില്‍ക്കുന്ന	-10119
▁അസമ	-10120
▁ക്രമേണ	-10121
ബൽ	-10122
▁അജണ്ട	-10123
ുകളോ	-10124
▁നൽകുക	-10125
▁ബ്യൂറോ	-10126
▁സത്യവാങ്	-10127
▁അപ്രത്യക്ഷ	-10128
▁വിചാര	-10129
▁പുള	-10130
▁നൂറ്	-10131
▁കേരളീയ	-10132
▁നാശനഷ്ട	-10133
/201	-10134
▁2006	-10135
▁മോട്ടോർ	-10136
▁സീനിയര്‍	-10137
▁നിരക്ക	-10138
ര്യാദ	-10139
ുമൊരു	-10140
▁പ്രവച	-10141
േണ	-10142
ിക്കാവുന്ന	-10143
▁തകര്‍ന്നു	-10144
▁മേരി	-10145
▁നായകൻ	-10146
ാറു	-10147
ലായി	-10148
▁സാധന	-10149
▁അനാവശ്യ	-10150
▁നിലപാടാണ്	-10151
▁നോക്കാം	-10152
▁ഇതിനോടകം	-10153
▁ഡോളർ	-10154
▁പരേത	-10155
▁പാളി	-10156
ന്റിന്	-10157
▁അറിയുന്നു	-10158
▁അബൂബ	-10159
▁കടത്തി	-10160
▁ഒബാമ	-10161
▁ചരിത്രത്തിലെ	-10162
ബിഐ	-10163
ശ്രയ	-10164
▁സിൽ	-10165
ിക്കുവാന്‍	-10166
മയം	-10167
മുല	-10168
▁ഗോകു	-10169
▁കമ്പനികള്‍	-10170
▁ശ്രമിച്ചത്	-10171
▁ഏറ്റവുമധികം	-10172
▁നൂറുകണക്കിന്	-10173
▁പൊതുവെ	-10174
▁മൗല	-10175
▁ക്ലബ	-10176
ിക്കാനാവ	-10177
▁കിട്ടിയത്	-10178
സ്റ്റിറ്റ്യൂട്ട്	-10179
ഗോപാല്‍	-10180
ത്തുകയും	-10181
മാക്കുന്നത്	-10182
▁പരസ്പര	-10183
▁ബാധിക്കുന്ന	-10184
▁ക്ഷേത്രത്തില്‍	-10185
3)	-10186
▁മിഥ	-10187
ിലേയും	-10188
▁ഭാര്യയുടെ	-10189
▁സ്ബുക്ക്	-10190
▁ചെറുതായി	-10191
▁ഗാ	-10192
▁എട്ടാം	-10193
▁വൈകാതെ	-10194
▁ഡോളര്‍	-10195
▁ഗൂഗിള്‍	-10196
▁അപകടത്തിൽ	-10197
▁ഹാസ	-10198
ാറ്റി	-10199
▁അഡീഷ	-10200
▁മര്‍ദ	-10201
ൾപ്പെടെ	-10202
▁നടപ്പാക്കിയ	-10203
▁പശ്ചാത്തലത്തിൽ	-10204
7)	-10205
▁44	-10206
▁പുറക	-10207
മേറിയ	-10208
ണിക്ക്	-10209
ബാസ്റ്റ	-10210
▁ആൻഡ	-10211
▁പ്രൊഫഷണൽ	-10212
▁ട്രംപിന്റെ	-10213
▁വിദ്യാർത്ഥികൾ	-10214
▁ചെയ്യുന്നുണ്ട്	-10215
▁ബ്രി	-10216
▁ചാനൽ	-10217
്പ	-10218
ിക്കുന്നവര്‍	-10219
ുകയുമായിരുന്നു	-10220
▁വയനാ	-10221
സുരക്ഷ	-10222
▁ഇക്കുറി	-10223
▁ഫിന	-10224
▁നിര്‍മ്മാണം	-10225
▁വൈകാരിക	-10226
▁സംഘടനയായ	-10227
▁ഇക്കഴിഞ്ഞ	-10228
▁യഥാര്‍ഥ	-10229
▁അബദ്ധ	-10230
▁കരിക്ക	-10231
▁ഇതുമായി	-10232
നീളം	-10233
ag	-10234
ിൾ	-10235
▁ഹ്ര	-10236
▁ഇന്‍സ്	-10237
വർഷം	-10238
▁ചെയ്താൽ	-10239
▁വ്യക്തിയ	-10240
▁ആദ്യമായാണ്	-10241
▁പേപ്പർ	-10242
ഗോഡ്	-10243
മായിരിക്ക	-10244
▁കലക്ടര്‍	-10245
▁ഫലപ്രദമായ	-10246
ary	-10247
ുണ്ടെന്ന	-10248
▁അരങ്ങേറിയ	-10249
▁ഗുളിക	-10250
▁നൈറ്റ്	-10251
▁ശരീരത്തിന്റെ	-10252
▁അനന്ത	-10253
▁ഉണ്ടായിരുന്നത്	-10254
▁വിവരങ്ങളും	-10255
യറ	-10256
▁പിസി	-10257
മിയ	-10258
▁തഴ	-10259
▁കൂട്ടിച്ചേർത്തു	-10260
▁പരാതിയിൽ	-10261
വന്	-10262
▁ഡാമ	-10263
▁ആക്ഷേപം	-10264
▁ഡിജിറ്റൽ	-10265
▁ലൈസന്‍സ്	-10266
▁സങ്കീർണ്ണമായ	-10267
▁ഇമ്ര	-10268
▁കര്‍മ	-10269
േണ്ടിവരും	-10270
▁ആവശ്യപ്പെട്ടത്	-10271
▁രീതികൾ	-10272
▁വിട്ടത്	-10273
ദേവി	-10274
▁പലതരം	-10275
യട	-10276
തിരെയും	-10277
▁അടിസ്ഥാനമാക്ക	-10278
ശീല	-10279
ത്തൊ	-10280
▁പതിയെ	-10281
▁കുഞ്ഞിന്റെ	-10282
▁ക്രെഡിറ്റ്	-10283
18	-10284
▁വിഭജ	-10285
▁ദൗത്യ	-10286
▁അഭ്യർത്ഥ	-10287
ന്റേ	-10288
ാവാം	-10289
▁ഇതൊരു	-10290
▁വാതിൽ	-10291
യാക്കിയ	-10292
▁ലിറ്റർ	-10293
ഛെ	-10294
▁അടു	-10295
▁വാക്	-10296
▁വരാന്‍	-10297
▁മേജ	-10298
▁റഷീ	-10299
▁പെരുമ്പാവ	-10300
ിച്ചിരിക്കുന്ന	-10301
▁നിയമവിരുദ്ധ	-10302
ാനുഭവ	-10303
▁രംഗം	-10304
▁വിഭവം	-10305
▁സംഘത്തിന്റെ	-10306
ാനാ	-10307
ിക്കാല	-10308
▁തൊഴിലാളികളുടെ	-10309
▁പരിഹരിക്കാൻ	-10310
6)	-10311
േഷ്ട	-10312
ിപ്പിക്കുക	-10313
വൊ	-10314
▁പുഷ്പ	-10315
▁സ്റ്റോറ	-10316
പള്ളി	-10317
ണ്ടായിരുന്നു	-10318
റങ്ങ	-10319
ഞ്ജലി	-10320
റുത്ത	-10321
▁വിലയിരുത്തല്‍	-10322
ate	-10323
▁സ്ഥലങ്ങളില്‍	-10324
നുള്ള	-10325
ക്കാതെ	-10326
▁പാകിസ്ഥാന	-10327
▁ലഭിക്കാത്ത	-10328
▁ആത്മവിശ്വാസം	-10329
ളയം	-10330
െങ്കില	-10331
▁അര്‍ധ	-10332
▁ഇറക്കി	-10333
▁ലുക്ക്	-10334
▁കശ്മീര്‍	-10335
▁ഇപ്പോഴിതാ	-10336
ുടേത്	-10337
▁കോഹ്ല	-10338
ഗ്ഗം	-10339
മണ്ണ	-10340
▁സെപ്ത	-10341
▁മറുനാട	-10342
ത്തെയാണ്	-10343
തന്നെയാണ്	-10344
▁ക്രമീകരിക്ക	-10345
ൂഖ്	-10346
▁നിറയ	-10347
▁വിന്യ	-10348
▁പ്രൊജ	-10349
അല്ല	-10350
ത്മാ	-10351
വരോട്	-10352
കരാണ്	-10353
▁തൃണമ	-10354
▁മൂടി	-10355
ളിഞ്ഞു	-10356
▁മോസ്കോ	-10357
ഷോ	-10358
ാവലി	-10359
▁നിലമ്പ	-10360
▁ബ്രാഞ്ച്	-10361
ഡൻ	-10362
വനെ	-10363
ിരിക്കണം	-10364
▁റിസര്‍വ്	-10365
▁നഗരത്തില്‍	-10366
▁നിരോധന	-10367
▁എല്ലായ്	-10368
രിയെ	-10369
▁47	-10370
▁ഇനം	-10371
പ്രായ	-10372
യേറിയ	-10373
▁ബാത്ത്	-10374
▁പ്രശാന്ത്	-10375
ികൃഷ്ണ	-10376
▁ആളുകളുടെ	-10377
▁റദ്ദാക്കി	-10378
▁അഭിമുഖത്തില്‍	-10379
▁നല്‍കുകയും	-10380
▁തിരിച്ചെത്തിയ	-10381
േതായ	-10382
ങ്ങളിലുള്ള	-10383
വര്	-10384
്ടണ്‍	-10385
▁കരസ്ഥ	-10386
▁ഹെൽ	-10387
▁റെക്കോര്‍	-10388
▁അനൂപ്	-10389
▁വില്ലേജ്	-10390
▁ബന്ധുക്കൾ	-10391
ദിനെ	-10392
▁ഒരിട	-10393
▁ചെയർ	-10394
▁മൂത്ര	-10395
▁സമയവും	-10396
▁തിരഞ്ഞെടുപ്പിൽ	-10397
▁മാതാപിതാക്കള്‍	-10398
തരം	-10399
▁നിർദ്ദേശങ്ങൾ	-10400
തിനെക്കുറിച്ച്	-10401
▁സോളാര്‍	-10402
ast	-10403
▁കിണ	-10404
▁വന്യ	-10405
▁കഴിയൂ	-10406
ുണ്ടെങ്കിൽ	-10407
▁പുന്ന	-10408
▁നൃത്തം	-10409
▁രാജകുമാര	-10410
90	-10411
ുവാണ്	-10412
▁കാറില്‍	-10413
▁ഒളിമ്പിക്	-10414
പ്പെടുത്തും	-10415
▁പെയി	-10416
▁റിലയ	-10417
▁പരിക്കേറ്റു	-10418
▁പുതുമ	-10419
▁ആധാര്‍	-10420
▁നവോത്ഥാന	-10421
▁ഫ്രാങ്കോ	-10422
ഗ്രാം	-10423
േക്കു	-10424
▁അദ്ധ്യക്ഷത	-10425
▁3,	-10426
▁In	-10427
▁ദീ	-10428
▁പ്രത്യാ	-10429
▁മോശമായി	-10430
▁സാമ്രാജ	-10431
മാക്കിയത്	-10432
▁വാഹനാപകട	-10433
▁രീതിയിലുള്ള	-10434
▁മഹാര	-10435
▁സൃഷ്ടി	-10436
ാനാകില്ല	-10437
▁ചരിത്രത്തില്‍	-10438
▁തുകയ	-10439
ാതെയും	-10440
മാക്കും	-10441
ഗർ	-10442
പുറ	-10443
വയ്ക്ക	-10444
ിക്കാറ	-10445
▁ആലോചന	-10446
▁ഭീകരവാദ	-10447
▁സംസ്ഥാനം	-10448
ൃം	-10449
ുവയ	-10450
പ്പെടുത്തുന്നത്	-10451
▁ശാന്തി	-10452
▁മെമ്മറി	-10453
▁വാസ്തവത്തിൽ	-10454
▁മാധ്യമങ്ങളില്‍	-10455
▁സ്ത്രീകള്‍ക്ക്	-10456
▁നൽകണം	-10457
▁സർവീസ	-10458
▁നരേന്ദ്രമോദ	-10459
വിട്ടത്	-10460
▁തട്ടിപ്പ	-10461
ാരോഗ്യ	-10462
▁ധനകാര്യ	-10463
▁സ്പീക്കര്‍	-10464
▁അടിസ്ഥാനമാക്കി	-10465
ഇന്ത്യ	-10466
▁വിമാനത്താവളം	-10467
നസ്	-10468
▁കലാശ	-10469
▁വിസമ്മ	-10470
▁സഞ്ജയ്	-10471
▁ക്ലബ്ബ്	-10472
▁സൗകര്യമ	-10473
▁സെപ്റ്റംബര്‍	-10474
ിച്ചതും	-10475
ാരോപ	-10476
▁അണ്ണ	-10477
▁സ്ത്രീകള	-10478
▁വരെയ	-10479
▁ഒഴിഞ്ഞ	-10480
▁പോലീസില്‍	-10481
▁ഹിന്ദുത്വ	-10482
▁മുദ്രാവാക്യം	-10483
ര്‍ഗ	-10484
ിച്ചേ	-10485
▁പോലീസിനെ	-10486
▁വായിച്ചു	-10487
▁കാരണമാകും	-10488
ചക്ര	-10489
▁ആവശ്യത്തിന്	-10490
▁പതുക്കെ	-10491
▁പാര്‍ട്ടിയില്‍	-10492
▁പ്രസിദ്ധീകരിക്ക	-10493
പ്പേ	-10494
▁ഘോഷ	-10495
▁വൈകിയ	-10496
▁ആവശ്യക	-10497
▁സമാപന	-10498
▁തോല്‍പ്പ	-10499
▁ജില്ലകളില്‍	-10500
ധര	-10501
ാന്വേഷണ	-10502
▁ഉണ്ടാക്കുന്ന	-10503
▁ചീസ്	-10504
▁ഫാത്തിമ	-10505
കാര്‍	-10506
▁വിവാഹമോ	-10507
▁സ്വീകരണം	-10508
▁തമ്പ	-10509
നാക	-10510
▁പാൻ	-10511
▁ഫൈസ	-10512
▁നൽകിയിരുന്നു	-10513
▁അന്വേഷണത്തില്‍	-10514
ഗിരി	-10515
▁അംഗങ്ങൾ	-10516
ഗ്ല	-10517
▁ഓഫീസർ	-10518
▁ചുഴലിക്കാ	-10519
▁മാസത്തെ	-10520
▁മഹി	-10521
▁പ്രതികൾ	-10522
സല്‍	-10523
▁ആരോപിക്കുന്നു	-10524
▁മിനിമ	-10525
▁ഇഷ്ടപ്പെടുന്ന	-10526
▁മുമ്പില്‍	-10527
▁ബാര	-10528
▁റബ്	-10529
ള്‍സ്	-10530
▁ശൈലി	-10531
▁ഡ്രൈവ്	-10532
▁സംസ്കാര	-10533
▁നടന്ന്	-10534
ാവസ	-10535
നല്ല	-10536
▁പെരുന്ന	-10537
▁പകുതിയ	-10538
ഫോമ	-10539
നാട്ടിലെ	-10540
▁കാരണമായ	-10541
ന്താ	-10542
▁അനുവദിച്ചു	-10543
▁കയ്യിൽ	-10544
▁സന്ധ്യ	-10545
ത്സര	-10546
▁അയൽ	-10547
▁ദാരിദ്ര	-10548
▁നഷ്ടമായ	-10549
▁മുറിച്ചു	-10550
▁അധികൃതരുടെ	-10551
▁വയസ്	-10552
▁നാഷണൽ	-10553
▁കട്ടിയ	-10554
▁സംസാരിക്കുന്ന	-10555
മണ്ഡ	-10556
ദിന്	-10557
▁പോലീസും	-10558
▁എത്തുന്നു	-10559
ത്തിലേക്കുള്ള	-10560
▁വയർ	-10561
ടിയാണ്	-10562
▁രഞ്ജി	-10563
▁അനധികൃതമായി	-10564
ുകളുള്ള	-10565
▁തയ്യാറായില്ല	-10566
▁വോട്ടെടുപ്പ്	-10567
തൂ	-10568
ുമാസം	-10569
▁കാമറ	-10570
വരുന്ന	-10571
▁തുടര്‍ച്ചയായ	-10572
▁ചെയ്യുമ്പോള്‍	-10573
▁വരാം	-10574
▁വസ്ത	-10575
▁വിൻഡോസ്	-10576
▁അധികാരത്തില്‍	-10577
▁സംസ്ഥാനത്തിന്റെ	-10578
▁സംസ	-10579
▁നിക്ക	-10580
▁ഗവർണർ	-10581
പ്പറ്റിയ	-10582
ങ്ങളായിരുന്നു	-10583
▁വെടിക്കെ	-10584
▁ഹോട്ടല്‍	-10585
▁ലഭ്യമാക്ക	-10586
ിമോ	-10587
▁റമ	-10588
ലിയെ	-10589
▁ശാല	-10590
▁അച്ഛനും	-10591
നിയമ	-10592
▁ചാം	-10593
▁ചർമ്മ	-10594
േറി	-10595
▁ശുഭ	-10596
▁ഭാഗമായ	-10597
▁ശ്രദ്ധേയമായ	-10598
ിയു	-10599
ഞ്ഞി	-10600
▁കഴിയുന്നത്	-10601
▁സൂചിപ്പിച്ച	-10602
▁വിനയ	-10603
▁ഒരാളുടെ	-10604
▁കപ	-10605
ുവച്ച	-10606
▁ചെമ്മ	-10607
▁പണവും	-10608
▁വലിപ്പ	-10609
▁ദാരു	-10610
▁ബാലകൃഷ്ണന്‍	-10611
സ്വര	-10612
▁റിമ	-10613
മാണെന്നാണ്	-10614
റിക്ഷ	-10615
▁റിക്ര	-10616
▁ട്വിറ്ററ	-10617
▁പെൺകുട്ടിയെ	-10618
▁നാല്‍	-10619
കും	-10620
▁ഇടുക്ക	-10621
ത്തിലുണ്ട്	-10622
▁സ്വദേശികളായ	-10623
▁ഫാസ	-10624
വച്ച്	-10625
▁പ്രദീപ്	-10626
▁പട്ടികജാതി	-10627
▁സ്ഥിരീകരിക്ക	-10628
▁52	-10629
▁കൗൺസിൽ	-10630
▁കൊണ്ടുള്ള	-10631
മര	-10632
▁ആദര	-10633
▁ഭയം	-10634
▁ബീഫ്	-10635
▁കാരണങ്ങള	-10636
▁എതിര്‍പ്പ	-10637
ത്തിലോ	-10638
▁നടത്തുക	-10639
▁ചെയ്യേണ്ടത്	-10640
സ്സം	-10641
▁യോഗ്യ	-10642
യുടേയും	-10643
▁സാക്ഷ്യ	-10644
▁ഫേസ്ബുക്കില്‍	-10645
▁അഷ്	-10646
ുപോയി	-10647
▁സിന്ധു	-10648
▁അതോടൊപ്പം	-10649
▁മുരളീധരന്‍	-10650
▁പ്രതികരിച്ചത്	-10651
▁ഉത്തമ	-10652
യര്‍ന്ന	-10653
▁ബിഹ	-10654
▁സമ്മതിച്ച	-10655
▁വെളുത്തുള്ള	-10656
▁ഇതാ	-10657
▁മുന്നിലെ	-10658
▁പരിപാടികൾ	-10659
▁ചിത്രീകരിച്ച	-10660
വീപ്	-10661
ിമാന	-10662
ികു	-10663
ിക്കുമെന്നാണ്	-10664
▁പത്രം	-10665
▁കാട്ടിയ	-10666
▁ചെയ്യാന	-10667
▁പേശ	-10668
▁വോള	-10669
▁ഓഫീസിൽ	-10670
▁വിവാദമായ	-10671
▁സജീ	-10672
▁വിജിലൻസ്	-10673
▁ഒന്നിച്ചു	-10674
▁ചിലപ്പോള്‍	-10675
▁അമേരിക്കയില്‍	-10676
▁നടു	-10677
▁ലോഗ	-10678
▁ആതിഥ	-10679
▁പാല്‍	-10680
ഞാൻ	-10681
▁ഹുസൈ	-10682
▁നിശബ്ദ	-10683
▁പുലർച്ച	-10684
▁സ്ഥാനത്തേക്ക്	-10685
▁രാധാകൃഷ്ണന്‍	-10686
▁വയസ്സ്	-10687
▁അവശിഷ്ട	-10688
▁വില്‍പന	-10689
▁അതിലെ	-10690
▁നിലപാടെ	-10691
▁പുകയ	-10692
▁തലസ്ഥാനമായ	-10693
▁റിലീസ	-10694
▁വീശ	-10695
▁ഇടതുമ	-10696
▁ജയസൂര്യ	-10697
▁മേഖലകളിൽ	-10698
പിടുത്ത	-10699
▁ഡിഎം	-10700
▁ഭാഗ്യം	-10701
▁ഏഷ്യന്‍	-10702
സിം	-10703
▁കാഴ്ചപ്പാട	-10704
സിനു	-10705
▁തുടക്കത്തില്‍	-10706
▁‍	-10707
▁വര്‍ഷങ്ങളായി	-10708
▁നടപ്പാക്കുന്ന	-10709
1,	-10710
മ്മിക	-10711
▁അല്ലാഹു	-10712
െന്നുമാണ്	-10713
▁അനുക	-10714
▁ഡയല	-10715
▁വേര	-10716
▁ഖുര്‍ആന്‍	-10717
▁ജ്വ	-10718
▁വിജ്ഞാപ	-10719
ഫർ	-10720
ജിന്	-10721
▁ഭാരവാഹികള്‍	-10722
▁കേസുകളിൽ	-10723
▁മാനേജ്മെന്റ്	-10724
▁സംഘര്‍ഷം	-10725
▁അതുല്യ	-10726
▁പത്രസമ്മേള	-10727
▁ട്രി	-10728
▁ഇരുണ്ട	-10729
ാടന	-10730
▁56	-10731
മുദ്ര	-10732
▁ലോറി	-10733
4-	-10734
▁ഇറാഖ	-10735
▁ഏജൻസ	-10736
നൽക	-10737
▁വിനിയ	-10738
▁അതൃ	-10739
▁മോള	-10740
▁അഭിസം	-10741
▁പുരോഹിത	-10742
▁പടി	-10743
ിയെന്ന്	-10744
▁കോളന	-10745
വത്കരണ	-10746
▁തീരദേശ	-10747
▁ശ്രദ്ധാപൂർ	-10748
▁ജനുവ	-10749
ബിയുടെ	-10750
▁ഇറച്ചി	-10751
▁സഞ്ചാര	-10752
▁അഭ്യര്‍ത്ഥ	-10753
▁നിരപ	-10754
▁സ്ക്രീന	-10755
▁ഭരിക്കുന്ന	-10756
ശല	-10757
▁കിലോഗ്ര	-10758
▁മാറ്റങ്ങള്‍	-10759
ാധി	-10760
▁ഫഹദ്	-10761
▁മൂന്നാമ	-10762
▁ഗൃഹ	-10763
▁പ്രവീ	-10764
▁പ്രഭാഷണം	-10765
▁അരങ്ങേറ്റം	-10766
▁കൂടുതലായി	-10767
▁ഉള്ളിൽ	-10768
▁ശേഖരിച്ച	-10769
▁ലഭിക്കുന്നു	-10770
▁രാമചന്ദ്രന്‍	-10771
▁പിള	-10772
▁ഗോത്ര	-10773
▁കമ്മീഷണര്‍	-10774
കമായി	-10775
ിക്കാറുണ്ട്	-10776
▁വൃക്ഷ	-10777
സമയത്ത്	-10778
▁റദ്ദാക്കിയ	-10779
▁ട്രംപ	-10780
റിയില്ല	-10781
▁പുറത്തായി	-10782
▁മാറ്റിയത്	-10783
കുടുംബ	-10784
▁സെന്റർ	-10785
▁തീരത്ത്	-10786
▁ബന്ധുക്കള	-10787
▁ബാക്കിയുള്ള	-10788
▁ആരംഭിക്കുന്നത്	-10789
▁X	-10790
വാട	-10791
▁കേസിന്റെ	-10792
▁വിധിയെ	-10793
▁സംഭവങ്ങള്‍	-10794
ുകിട്ട	-10795
▁താരത്തെ	-10796
▁ധൈര്യ	-10797
ക്കാരാണ്	-10798
▁ഇന്നിംഗ്	-10799
▁ഡിജിറ്റല്‍	-10800
▁തങ്ങള്‍ക്ക്	-10801
▁ദുരൂഹത	-10802
▁കര്‍മ്മ	-10803
▁വ്	-10804
േഷനും	-10805
▁അനായ	-10806
▁വിവേക	-10807
▁ആദ്യകാല	-10808
▁കഥാപാത്രത്തെ	-10809
െട്ട	-10810
തിയായ	-10811
▁ദര്‍ശ	-10812
▁വേണ്ടിവ	-10813
▁കൊളംബ	-10814
▁റെക്കോർഡ്	-10815
ക്കുന്നുണ്ട്	-10816
▁മെന	-10817
▁റെയ്ഡ്	-10818
▁ആരോപണങ്ങള്‍	-10819
▁കഴിക്കുന്ന	-10820
▁ചിത്രീകരിക്ക	-10821
▁ട്വിറ്ററില്‍	-10822
▁അടച്ചു	-10823
▁പേരിലുള്ള	-10824
സുകൾ	-10825
▁കൊടിയ	-10826
ഭാഗത്ത്	-10827
▁ഡോക്യ	-10828
ഫോം	-10829
▁നീക്കി	-10830
ഥം	-10831
▁ഒൻപ	-10832
ണ്ടെന്നും	-10833
ുകയാണെങ്കില്‍	-10834
▁നുറു	-10835
▁മേയ്	-10836
▁46	-10837
ൺലോഡ്	-10838
ശ്ശേരിയ	-10839
▁തിയേറ്ററ	-10840
▁വോട്ടുകള്‍	-10841
ബിൻ	-10842
▁അതിനായി	-10843
▁ജോയിന്റ്	-10844
▁സുഹൃത്തുക്കൾ	-10845
▁വഷ	-10846
പുസ്ത	-10847
▁ചാടി	-10848
ട്ടില്ല	-10849
▁ഭൂരിഭാഗം	-10850
▁ഇഴ	-10851
▁സെബാസ്റ്റ	-10852
മാത	-10853
വുമുണ്ട്	-10854
▁മാര്‍ക്ക്	-10855
▁പ്രഖ്യാപിച്ച്	-10856
▁റാവ	-10857
▁ഷാര്‍ജ	-10858
▁കര്‍ഷകര്‍	-10859
▁മമ്മൂട്ടിയുടെ	-10860
▁സീറ്റുകള്‍	-10861
▁കാണിക്കുന്നു	-10862
▁ഉമ്മന്‍ചാണ്ടി	-10863
യൂ	-10864
▁ആളെ	-10865
35	-10866
▁എന്നുള്ള	-10867
▁രാജ്യങ്ങള്‍	-10868
യ്ഡ്	-10869
▁ആര്	-10870
▁ആഹാര	-10871
▁തിരിയ	-10872
▁പ്രക്ഷോഭം	-10873
സിറ്റ	-10874
▁ശേഷമുള്ള	-10875
▁ഉത്തരവാദിത്വം	-10876
റര്‍	-10877
ുവല്‍	-10878
▁കൃഷിയ	-10879
▁തനിക്ക	-10880
▁ഇടതുമുന്ന	-10881
▁രഘ	-10882
ശ്രമ	-10883
ങ്കല്‍	-10884
▁ഒത്തുതീ	-10885
▁പ്രദേശവാസ	-10886
▁സമ്മർദ്ദം	-10887
ന്പ	-10888
▁പോലെയാണ്	-10889
▁പോൾ	-10890
▁സ്വര	-10891
വർത്തനം	-10892
▁ജഡ്ജിമ	-10893
▁പിറ്റേ	-10894
▁പ്രപഞ്ച	-10895
▁നേരിട്ടു	-10896
▁ശ്രമിക്കുന്നു	-10897
▁കാര്യമായി	-10898
ശേഷമാണ്	-10899
ൂരിന്റെ	-10900
▁സിദ്ധാന്ത	-10901
▁പ്പ	-10902
▁സൈബർ	-10903
▁ഒരുമിച്ചു	-10904
▁റെസ്റ്റോറ	-10905
▁ഭീതി	-10906
▁ജീവനക്കാരെ	-10907
ാദിയ	-10908
▁ടീസ്	-10909
▁ടാബ്ല	-10910
െടുക്കുക	-10911
▁ഞെട്ടിക്കുന്ന	-10912
ിറങ്ങ	-10913
▁അൾ	-10914
▁മാഡ്ര	-10915
▁സംയോജ	-10916
▁എംപിമ	-10917
▁മുറികൾ	-10918
്യമന്ത്ര	-10919
▁ഇടയില്‍	-10920
▁സെക്യൂരിറ്റി	-10921
മനു	-10922
പ്യൂട്ട	-10923
ർഘ	-10924
ഭാഗവും	-10925
▁അറിവ്	-10926
▁കേക്ക്	-10927
▁ചേർത്ത	-10928
▁രൂക്ഷമായി	-10929
ശാന്തി	-10930
▁റോഡിൽ	-10931
▁പ്രസിഡൻറ്	-10932
ൊരാള്‍	-10933
ാഹിം	-10934
▁വിനി	-10935
▁ടീമിലെ	-10936
ംഗല	-10937
▁സെല	-10938
▁ആഹ്ല	-10939
▁ഐടി	-10940
▁അടിച്ചമ	-10941
▁വളര്‍ന്ന	-10942
▁കളിക്കുന്ന	-10943
▁കമ്മിറ്റിയുടെ	-10944
▁+	-10945
▁ഗുഹ	-10946
▁കടകം	-10947
▁ദീപക്	-10948
▁ഒരൊറ്റ	-10949
തിനുശേഷം	-10950
▁വൈവിധ്യമ	-10951
▁സംഗമം	-10952
ർമോ	-10953
▁അക്ര	-10954
ാവകാശം	-10955
ികളോട്	-10956
▁മുത്തശ്ശ	-10957
▁കൊടും	-10958
▁നല്‍കണം	-10959
▁വന്നപ്പോള്‍	-10960
▁പ്രഭാത	-10961
▁ലൈന്‍	-10962
നിർമ്മ	-10963
▁അറിയാത്ത	-10964
▁അപ്രതീക്ഷിത	-10965
▁കാര്യങ്ങളും	-10966
▁4.	-10967
▁ഖാൻ	-10968
▁ഓട്ട	-10969
▁വ്യക്തമാണ്	-10970
▁മുക്ക	-10971
▁സ്പീഡ്	-10972
▁തെലുങ്ക്	-10973
▁ഉറച്ച	-10974
▁കണ്ണുകൾ	-10975
▁വഷള	-10976
▁ഇസ്രായ	-10977
ങ്ങളേയും	-10978
▁രീതിയിലാണ്	-10979
▁ഫുഡ്	-10980
സാധ്യത	-10981
▁ബംഗാള്‍	-10982
ex	-10983
ുവിൽ	-10984
▁വരികയാണ്	-10985
▁ഡോക്ടറുടെ	-10986
▁കോമ്പ	-10987
▁ലീഗില്‍	-10988
മുണ്ടാക്ക	-10989
ൃംഖല	-10990
പ്പോള	-10991
മ്മയുടെ	-10992
▁ഭാഗങ്ങൾ	-10993
▁അഭിസംബോധന	-10994
▁സ്പോർട്സ്	-10995
7,	-10996
ബലി	-10997
ാവണം	-10998
▁പൈപ്പ്	-10999
▁ഇലക്ട്രിക്	-11000
ങ്ങളോളം	-11001
▁ലക്ഷത്തോളം	-11002
▁പ്രദാനം	-11003
▁നഗരത്തിൽ	-11004
▁ആശയവിനിമയം	-11005
▁വിദ്യാർത്ഥി	-11006
▁മാതാവ്	-11007
▁ഷം	-11008
▁കായം	-11009
▁പേയ്	-11010
▁മുന്നണ	-11011
▁പ്രകാശനം	-11012
▁ഉപേക്ഷിച്ച്	-11013
▁ചടങ്ങ്	-11014
യാട	-11015
▁മനം	-11016
▁കൊന്നു	-11017
യിലെത്തിയ	-11018
▁വിജയിച്ച	-11019
so	-11020
വന്ന	-11021
▁പ്രശസ്തി	-11022
▁മറക്കരുത്	-11023
▁മാവോയിസ്റ്റ്	-11024
▁സാധിച്ചു	-11025
▁എന്‍ജിനീയ	-11026
▁സ്വാഗതവും	-11027
▁കൊടുത്ത്	-11028
▁ബാഹു	-11029
▁ഇതാദ്യ	-11030
▁ട്രോഫി	-11031
ക്കുള്ളില്‍	-11032
രോടും	-11033
▁ജംഗ്	-11034
▁ഫലങ്ങൾ	-11035
▁നായികയായി	-11036
▁പദ്ധതിക്ക്	-11037
▁സെപ്റ്റംബർ	-11038
▁ജസ്	-11039
▁സിദ്ദി	-11040
യായിരുന്ന	-11041
ഹര	-11042
▁ജിഷ	-11043
▁ഖത്തര്‍	-11044
▁പുറത്താക്കിയ	-11045
▁മടക്ക	-11046
ുവെന്നാണ്	-11047
▁ഇന്റര്‍നെറ്റ്	-11048
▁അനുയായി	-11049
▁വഴിയൊരു	-11050
തലമുറ	-11051
▁നിയമപ്രകാരം	-11052
ഴും	-11053
▁അവിടുത്തെ	-11054
▁അടുത്തുള്ള	-11055
▁എന്താണെന്ന്	-11056
▁നേരിടാൻ	-11057
ാകുമെന്ന്	-11058
▁നാടിന്റെ	-11059
ലിത	-11060
▁ഇതുവര	-11061
▁ഡിവൈഎഫ്	-11062
ab	-11063
▁ഉപഭ	-11064
ണ്ണായക	-11065
▁തത്ത്	-11066
▁പ്രതിഷ്ഠ	-11067
▁ക്ഷണിച്ചു	-11068
▁ഓട്ടോറിക്ഷ	-11069
▁താരങ്ങളുടെ	-11070
▁ശിഷ്യ	-11071
▁ജെയിംസ്	-11072
രുമെന്നും	-11073
ാദി	-11074
▁120	-11075
▁ലും	-11076
▁സ്പാനിഷ്	-11077
മാസ	-11078
▁മകനും	-11079
▁പൊലീസും	-11080
▁ഇബ്രാഹിം	-11081
▁ഏതായാലും	-11082
▁സ്പൂൺ	-11083
യിലേക്കു	-11084
▁സന്ദർഭ	-11085
▁ഹര്‍ത്താല്‍	-11086
▁വൈകി	-11087
▁പാര്‍ലമെന്റ്	-11088
▁കുറു	-11089
▁സർക്കാരിന്	-11090
ണിലെ	-11091
ക്കമ്പ	-11092
▁തൊണ്ട	-11093
▁മെസ്സ	-11094
▁മുമ്പേ	-11095
▁ഗുണമേന്മയുള്ള	-11096
വാമ	-11097
▁സുധീര	-11098
▁സ്രോത	-11099
പ്പൊക്ക	-11100
▁രൂപയ്ക്ക്	-11101
ൂരപ്പ	-11102
▁ടെക്ന	-11103
▁കഴുകി	-11104
▁നിയമന	-11105
▁മാവോയിസ്റ്റ	-11106
▁വിചാ	-11107
▁കോച്ച	-11108
നിന്നാണ്	-11109
▁ട്രാക്ക	-11110
▁വ്യക്തിത്വ	-11111
▁ഉരുളക്കിഴങ്ങ്	-11112
േദം	-11113
▁വിലാസ	-11114
മില്ലെന്ന്	-11115
▁യുണൈറ്റഡ്	-11116
▁സ്വീകരിക്കുന്ന	-11117
വിധ്യ	-11118
▁ഉയർന്നു	-11119
▁പ്രഖ്യാപന	-11120
3,	-11121
▁പ്രവര്‍ത്തകരെ	-11122
▁അജി	-11123
▁തെല	-11124
മാത്ര	-11125
▁ടീമിന്	-11126
▁സംപ്ര	-11127
▁പരിശോധനയില്‍	-11128
നടപട	-11129
നേരം	-11130
വകാശ	-11131
ാത്യ	-11132
▁സങ്കട	-11133
ുകൊണ്ടുള്ള	-11134
ac	-11135
▁റൺസ	-11136
ബോള്‍	-11137
▁സുത	-11138
▁ഫോണിൽ	-11139
ക്കിലൂടെ	-11140
▁ജലനിരപ്പ്	-11141
▁ലോകമെമ്പാട	-11142
▁ക്കാ	-11143
-20	-11144
▁സിഗ്ന	-11145
ുവശ	-11146
▁മാഗ	-11147
▁കത്തില്‍	-11148
▁പ്ലാന	-11149
▁അബ്ദുള്‍	-11150
▁കേസെടുക്ക	-11151
ീയത	-11152
▁സംവരണം	-11153
െയെല്ലാം	-11154
ിച്ചിരുന്നില്ല	-11155
എംഎസ്	-11156
▁റോസ്	-11157
▁പ്രവർത്തിക്കാൻ	-11158
▁l	-11159
ദ്രോഹ	-11160
തുമായി	-11161
▁പുണ്യ	-11162
▁ദര്‍ശന	-11163
▁യുവാവിന്റെ	-11164
ഡിനെ	-11165
▁ലീഡ	-11166
▁മുറിയില്‍	-11167
▁സാധനങ്ങള്‍	-11168
മാറ്റിക്	-11169
▁പറ്റില്ല	-11170
▁ശ്വാസകോശ	-11171
ിഞ്ഞു	-11172
▁കൗൺസില	-11173
▁ചില്ലറ	-11174
െടുത്തിട്ടുണ്ട്	-11175
അത്	-11176
▁ഉമ	-11177
ലെസ്	-11178
▁ചുരുങ്ങിയ	-11179
▁വിനോദസഞ്ച	-11180
▁മുല്ലപ്പള്ളി	-11181
▁വിയോ	-11182
▁ഇറക്കിയ	-11183
▁കാത്തിരിപ്പ	-11184
▁പിന്മ	-11185
▁സ്വത്ത്	-11186
ത്തിന്റേയും	-11187
▁സ്വർണം	-11188
▁ചെന്ന്	-11189
▁പന്തിൽ	-11190
ന്ദര്‍	-11191
▁പ്രാണ	-11192
ത്തേയ്ക്ക്	-11193
▁സിനിമയ്ക്ക്	-11194
▁സ്ഥാനാർത്ഥി	-11195
ഫ്ല	-11196
ക്കുവേണ്ടി	-11197
പ്പെട്ടിരുന്ന	-11198
ുണ്ടെങ്കില്‍	-11199
▁അറബി	-11200
സിപ്പൽ	-11201
▁തിരിച്ചറി	-11202
രിക്കുന്നതിന്	-11203
▁ഉദ്യോഗസ്ഥരും	-11204
▁തൃണമൂ	-11205
▁ബെല്‍	-11206
▁പൂരിപ്പ	-11207
▁സാഹചര്യമ	-11208
▁മെസ	-11209
ാദര്‍	-11210
▁ചര്‍ച്ചയില്‍	-11211
▁അന്വേഷണത്തിന്	-11212
▁എഡ്	-11213
ാന്റ്	-11214
▁ഓഡിറ്റോറിയ	-11215
▁വിളിക്കുന്നു	-11216
കണ്ഠ	-11217
ട്യൂ	-11218
മ്പ്ര	-11219
▁ഇതും	-11220
നൊപ്പം	-11221
▁നിർത്ത	-11222
▁രാജാവ്	-11223
ശാസ്ത്രം	-11224
ിണ	-11225
സമി	-11226
▁കമല	-11227
വൽക്ക	-11228
▁പ്രചരിച്ച	-11229
▁പിക്ക്	-11230
▁കമ്പനികൾ	-11231
▁ഹ്രസ്വ	-11232
▁അഡ്മിനി	-11233
▁ആക്ഷന്‍	-11234
▁വര്‍ഗീസ്	-11235
▁കുടുംബശ്രീ	-11236
▁കേന്ദ്രീകരിച്ച്	-11237
▁നിർമ്മാണം	-11238
▁താനും	-11239
▁ക്കൊപ്പം	-11240
▁പെൺകുട്ടിയുടെ	-11241
തിലെ	-11242
ങ്ങിന്റെ	-11243
▁of	-11244
ബ്ലി	-11245
▁ജനന	-11246
▁വിസമ്മതി	-11247
ഷനും	-11248
▁ഗോവിന്ദ	-11249
▁പതിനായിര	-11250
ുകേ	-11251
▁മെഗ	-11252
▁ഉദ്യോഗസ്ഥന്‍	-11253
ദൃ	-11254
▁സമീപിച്ചത്	-11255
9)	-11256
▁ഉടന	-11257
▁ഡിപ്പ	-11258
▁പ്രളയം	-11259
▁അവസാനമായി	-11260
▁ഉപതിരഞ്ഞെടു	-11261
▁ഊഷ്മ	-11262
ന്റേത്	-11263
▁ഹർത്ത	-11264
▁കോളേജിൽ	-11265
▁ആയിരിക്ക	-11266
▁ദിവസമായി	-11267
▁പൂര്‍ത്ത	-11268
▁സര്‍ക്കാറ	-11269
▁അത്ഭുതകരമായ	-11270
▁അശോക്	-11271
കാരനായ	-11272
▁ദിവസങ്ങള്‍	-11273
തിലുള്ള	-11274
▁മുതലായവ	-11275
ര്‍ഹ	-11276
▁രാഷ്	-11277
ുണ്ടാക്ക	-11278
▁<	-11279
ക്ഷേമ	-11280
രുതെന്ന	-11281
▁നഖ	-11282
▁നില്	-11283
മെന്നാണ്	-11284
▁ആലപ	-11285
▁കണ്ണട	-11286
▁പലതവണ	-11287
▁പരിഹാസ	-11288
▁വച്ചാണ്	-11289
ാപ്ത	-11290
▁യൂസ	-11291
▁സമുച്ച	-11292
▁തെലങ്കാന	-11293
റർ	-11294
▁ഉദ്യ	-11295
▁പന്ത്രണ്ട	-11296
▁ചെയ്യുമെന്ന്	-11297
▁സ്കൂളിൽ	-11298
രാഷ്ട്രീയ	-11299
▁കാത്തിരിക്കുന്ന	-11300
▁ലഭിച്ചിരുന്നു	-11301
▁ഫോറം	-11302
▁ജയിച്ച	-11303
▁സസ്യങ്ങൾ	-11304
▁അപകടകരമായ	-11305
▁ഉറപ്പാക്ക	-11306
▁അടക്ക	-11307
ടിയിലെ	-11308
▁സംഭവിച്ചു	-11309
▁പാഴ	-11310
▁ആധിപ	-11311
▁അറബ	-11312
ക്കുമായി	-11313
▁മാറ്റിവെ	-11314
▁വിദ്യാര്‍ഥി	-11315
ലോണ	-11316
ികാ	-11317
▁വാട്ട്	-11318
▁നിലനിർത്താൻ	-11319
▁85	-11320
ുകഴിഞ്ഞു	-11321
▁നല്‍കുക	-11322
പ്പെടുത്തുക	-11323
▁സ്വന്തമാക്കിയത്	-11324
▁മാള	-11325
▁വിവരണം	-11326
മേധ	-11327
▁പർ	-11328
ക്കുടി	-11329
▁ഹെലികോ	-11330
▁ഫെസ്റ്റിവ	-11331
▁അനിൽ	-11332
**	-11333
യിൻ	-11334
▁വിത്ത	-11335
▁ഫിറ്റ്	-11336
▁വർക്ക്	-11337
ക്കാരനെ	-11338
▁ഓറഞ്ച്	-11339
▁ആരാധകരെ	-11340
▁ചേർത്തു	-11341
▁വിനിയോഗ	-11342
വിദ്യാഭ്യ	-11343
▁പ്രിന്‍സിപ്പല്‍	-11344
▁ഓർ	-11345
▁ഓള്‍	-11346
▁ചീത്ത	-11347
▁എന്താ	-11348
▁ആരോപണമ	-11349
ിനുമ	-11350
▁കിം	-11351
▁വ്യത്യസ്തമാണ്	-11352
▁h	-11353
ദിയ	-11354
▁തൽ	-11355
▁പറയാന	-11356
▁അബ്ദുൽ	-11357
േണ്ടതു	-11358
▁ദിനത്തില്‍	-11359
1)	-11360
▁സംഘ്	-11361
രികയാണ്	-11362
തിരെയാണ്	-11363
▁മാറ്റാന്‍	-11364
ാറിൽ	-11365
▁അത്രയും	-11366
▁ഇടപെട്ട	-11367
▁ക്ലാസിക്	-11368
▁വേഗത്തില്‍	-11369
▁സ്റ്റേഷന്‍	-11370
▁പൂര്‍ത്തിയാക്കി	-11371
▁മാനേജർ	-11372
▁ശബരിമലയിൽ	-11373
റ്റെ	-11374
മംഗലം	-11375
▁മന്ത്രിസഭാ	-11376
ഷന്	-11377
മിക്	-11378
▁മതിൽ	-11379
▁പ്രൊഫൈ	-11380
▁മറ്റേത	-11381
▁പോക്ക	-11382
രണവും	-11383
▁പാരമ്പര	-11384
▁കടമ	-11385
▁ആക്രമണത്തിന്	-11386
സമര	-11387
ഹ്മണ	-11388
പ്പണം	-11389
▁റഷ്യന്‍	-11390
ിക്കാനോ	-11391
▁കിട്ടും	-11392
▁ചർച്ചകൾ	-11393
▁പുറത്തിറങ്ങ	-11394
ൊര	-11395
പറയ	-11396
ുകാരിയെ	-11397
ുകൾക്കും	-11398
▁ഉയരുന്ന	-11399
▁5.	-11400
▁ബുദ്ധിമുട്ടാണ്	-11401
▁ആഭിമുഖ്യത്തില്‍	-11402
▁ശ്രദ്ധയിൽ	-11403
▁മാക്	-11404
ിക്കാര്‍	-11405
▁അനുകൂലമായ	-11406
▁നടക്കുക	-11407
▁പോര്‍ട്	-11408
▁ചെങ്ങന്ന	-11409
▁പണ്ട്	-11410
▁ദേവാലയ	-11411
കൊറിയ	-11412
▁ചെറുക	-11413
▁കാരുണ്യ	-11414
▁ട്വീറ്റ	-11415
16	-11416
▁കൌ	-11417
▁അഡ്മി	-11418
▁സുതാര്യ	-11419
▁നാട്ടുകാരും	-11420
▁ഉത്തരവാദിത്തം	-11421
tt	-11422
ജീവി	-11423
പ്തിയ	-11424
▁കുവൈറ്റ്	-11425
▁ലിറ്റര്‍	-11426
ിച്ചതിനെ	-11427
▁വിശ്വസ്ത	-11428
▁മരണത്തിന്	-11429
▁അഭിഭാഷകന്‍	-11430
സാഹ	-11431
സംസ്	-11432
▁തയ്യാറെടുപ്പ	-11433
▁അബ്	-11434
ിയേയും	-11435
▁നഷ്ടമായി	-11436
▁ജലം	-11437
▁ലോറ	-11438
▁ദൈനം	-11439
▁സക്ക	-11440
▁സാമാ	-11441
▁തൂക്ക	-11442
▁വിക്ഷേപ	-11443
▁ഇണ	-11444
ന്യു	-11445
▁മുങ്ങ	-11446
▁രാജന്‍	-11447
▁ര്‍	-11448
ൂറോളം	-11449
കളിലാണ്	-11450
▁സമ്പ്രദ	-11451
പാത്ര	-11452
▁പൊതുമരാമ	-11453
ായിട	-11454
▁ധാര്‍	-11455
▁രാജസ്ഥാന്‍	-11456
▁ജ്ഞാന	-11457
▁ടീസ്പൂ	-11458
▁നിലവിള	-11459
നയും	-11460
▁ദൈവത്തിന്റെ	-11461
▁ഹോമ	-11462
▁ശൈത്യ	-11463
▁നായകനായ	-11464
▁മ്യൂസിയം	-11465
▁(6	-11466
▁തുടർ	-11467
▁തകരാറ	-11468
ര്‍മാരെ	-11469
▁പ്രസ്താവ	-11470
▁ത്രീ	-11471
▁പാടിയ	-11472
▁സ്വത്തു	-11473
ുമായിരുന്ന	-11474
▁നാട്ടുകാരുടെ	-11475
▁മൌ	-11476
ലേഷൻ	-11477
▁ചെയ്യണമെന്ന്	-11478
id	-11479
പേര്‍	-11480
▁ഇൻഷുറ	-11481
▁കേന്ദ്രീകരിച്ച	-11482
▁അവിശ്വസ	-11483
▁തിരുവല്ല	-11484
ശൈ	-11485
▁ഷു	-11486
▁സർവേ	-11487
െത്തിയത്	-11488
▁പ്രചരണം	-11489
’,	-11490
വിധേയ	-11491
▁കമല്‍	-11492
▁മുറ്റ	-11493
▁മിനിമം	-11494
▁അദ്ധ്യാപ	-11495
▁ഇടപെടല്‍	-11496
▁വിലയിരുത്തി	-11497
കരം	-11498
▁അപല	-11499
▁വെളുത്തുള്ളി	-11500
ൾട്ടി	-11501
ാപരമായ	-11502
ക്ടീരിയ	-11503
▁ചെയ്തില്ല	-11504
ിലേക്കെ	-11505
▁കോയമ്പ	-11506
▁പാറ്റേ	-11507
▁മഹാരാജ	-11508
▁സുന്ദരി	-11509
െറിയ	-11510
പദ്ധതി	-11511
▁daily	-11512
▁ആക്സസ്	-11513
▁ടെസ്റ്റില്‍	-11514
▁ഓക്	-11515
രിദ്ര	-11516
▁ബോഡി	-11517
▁മഹാസ	-11518
▁സ്റ്റെ	-11519
ത്തിയാണ്	-11520
▁ഡിവൈഎസ്	-11521
ചന്ദ്രന്‍	-11522
▁മജീ	-11523
റല്‍	-11524
▁സിനിമയെ	-11525
▁അവതരിപ്പിച്ചത്	-11526
▁ദില്ല	-11527
▁പ്രാര്‍ഥ	-11528
ാകണം	-11529
▁ട്രേ	-11530
▁പാചകക്കുറിപ്പ്	-11531
▁റാങ്ക	-11532
▁ധരിക്ക	-11533
തുകൊണ്ടാണ്	-11534
▁ഞങ്ങള്‍ക്ക്	-11535
മാന്റെ	-11536
▁ധ്യാന	-11537
▁ജോലിക്ക്	-11538
▁ഭൂമിയുടെ	-11539
▁എസ്റ്റേറ്റ്	-11540
പോര്‍ട്ട്	-11541
ാംബ	-11542
കര്യ	-11543
▁വരെയും	-11544
▁പിന്നീട	-11545
▁ശര്‍മ്മ	-11546
ത്തിലേക്ക	-11547
▁സംരക്ഷിക്കാൻ	-11548
▁സെറ്റ	-11549
▁ഹോളിവു	-11550
മായിരുന്നില്ല	-11551
മാനു	-11552
▁കരിപ്പ	-11553
▁ബിജെപിയെ	-11554
▁പ്രകടനമാണ്	-11555
▁ദോ	-11556
▁ബോൾ	-11557
▁ഇഞ്ച	-11558
▁നിറങ്ങൾ	-11559
▁കേസുകളില്‍	-11560
▁മുൻഗണന	-11561
▁മിസ്	-11562
ര്‍ക്കെ	-11563
ജീരിയ	-11564
▁മറ്റെ	-11565
▁ഓപ്പറേ	-11566
▁കാട്ടു	-11567
ൊത്ത്	-11568
▁ലൂസി	-11569
▁ടീമിൽ	-11570
▁വീഴ്ത്തി	-11571
▁ചെയ്യാത്ത	-11572
ഥി	-11573
▁ഫാസ്റ്റ്	-11574
▁ശരീരത്തില്‍	-11575
▁ഓര്‍ത്ത	-11576
ഗുല	-11577
▁ചെങ്ക	-11578
▁സാഹസിക	-11579
▁ഇടയ്ക്കിടെ	-11580
im	-11581
▁കശ്മീരി	-11582
▁ഇരിക്കുന്ന	-11583
▁ഒന്നിലധികം	-11584
▁സുരക്ഷിതമായി	-11585
▁തടി	-11586
ഫിന്റെ	-11587
വിറ	-11588
▁തെളിവ്	-11589
▁സ്മൃതി	-11590
▁ഉണ്ണികൃഷ്ണ	-11591
▁ചിര	-11592
▁കരുണാക	-11593
▁ചുറ്റി	-11594
▁റ്റേഷന	-11595
▁സിക്യൂട്ടീവ്	-11596
▁കുളി	-11597
▁ശുചി	-11598
▁സുഖം	-11599
▁ഇന്ദി	-11600
▁ത്രില്ല	-11601
ുവൽ	-11602
▁ചിത	-11603
യ്ക്കുക	-11604
▁തയ്യാറാണ്	-11605
▁പാക്കിസ്ഥാൻ	-11606
മോഹന്‍	-11607
▁പോലെയ	-11608
▁പരിക്കേ	-11609
▁രംഗത്തിറ	-11610
▁ആവശ്യങ്ങള്‍	-11611
▁യാത്രക്കാര്‍	-11612
വസ്	-11613
വായി	-11614
ിലാക്കി	-11615
▁ആശയക്കുഴ	-11616
▁കണ്ടുപിട	-11617
ിക്കെതിരായ	-11618
ിയന്‍	-11619
▁വരണ്ട	-11620
ട്രൽ	-11621
ുള്ളു	-11622
▁അരിക	-11623
▁പ്രിൻ	-11624
▁സംഭരണ	-11625
▁ഒന്നുമില്ല	-11626
▁സൃഷ്ടിക്കുന്ന	-11627
▁ബെൽ	-11628
▁മഞ്ജ	-11629
സ്ട്രി	-11630
▁മാനേജി	-11631
75	-11632
▁ചതി	-11633
ച്ചിറ	-11634
▁അഭിവ	-11635
▁ആനന്ദ്	-11636
▁ഐപിഎല്ല	-11637
▁സ്പി	-11638
▁നടപടികള	-11639
▁ഫുട്ബോൾ	-11640
▁ഇന്റീരിയ	-11641
▁പുരസ്കാരം	-11642
▁അറസ്റ്റിലായത്	-11643
ചിത്രം	-11644
ഴിഞ്ഞ്	-11645
▁കുറിച്ചത്	-11646
▁രത്	-11647
▁ആഘോഷം	-11648
▁പരിരക്ഷ	-11649
▁താങ്കള്‍	-11650
▁ലഭിച്ചിട്ടുണ്ട്	-11651
▁മെഡി	-11652
ച്ചേരി	-11653
വ്യാപക	-11654
▁നിലകൊള്ള	-11655
ിന്ത്യ	-11656
▁വസന്ത	-11657
▁വില്പന	-11658
ത്തിയിരുന്നു	-11659
▁പ്രതിഷേധവുമായി	-11660
▁റഹ	-11661
സ്യമ	-11662
▁2007	-11663
▁അലക്	-11664
പ്രധാന	-11665
▁നിറയെ	-11666
▁വ്യായാമം	-11667
▁വിശ്വാസ്യത	-11668
▁അപക	-11669
തലത്തില്‍	-11670
▁ഊഹ	-11671
▁ത്രിപുര	-11672
▁ഉൾപ്പെട്ട	-11673
▁പ്രവേശിപ്പിച്ച	-11674
ുകൊണ്ടു	-11675
▁ഉച്ചക്ക്	-11676
രുമേ	-11677
▁ഫിറോ	-11678
▁നട്ടെ	-11679
42	-11680
▁പൊളിച്ച	-11681
▁സ്റ്റേഷനിൽ	-11682
▁നിഗമന	-11683
ിക്കഴിഞ്ഞ	-11684
▁കെഎസ്ആര്‍ടിസി	-11685
ഡീഷ	-11686
ദ്ദീ	-11687
▁ഐസി	-11688
േറ്ററ	-11689
ഡുകളും	-11690
▁പ്രദേശങ്ങളിൽ	-11691
▁ചെമ്പ	-11692
▁മിഷന്‍	-11693
▁ചേർന്നു	-11694
▁സമാധാനം	-11695
▁ബിജെപിയും	-11696
▁പുറത്താക്കി	-11697
▁സംഘപരിവാര്‍	-11698
ക്കല്ല	-11699
▁ഇടപെടല	-11700
വിര	-11701
▁കുടുക്ക	-11702
▁പുതുമുഖ	-11703
▁ക്രിസ്തു	-11704
▁പൊതുവേ	-11705
ത്തോള	-11706
▁പ്രദേശങ്ങളില്‍	-11707
റ്റിനെ	-11708
▁ഫയര്‍	-11709
▁പുനരാരംഭ	-11710
▁ആന്‍ഡ്രോ	-11711
▁മുന്നേറ്റം	-11712
മെന്നു	-11713
വിഭാഗം	-11714
▁സദാചാര	-11715
▁പങ്കാളിത്ത	-11716
▁ഹൈക്കോടതിയില്‍	-11717
പുത്ര	-11718
▁പാർട്ടിയ	-11719
ുകഴിഞ്ഞ	-11720
▁ഇംഗ്ലീഷ	-11721
▁ബയോ	-11722
▁കേസുകൾ	-11723
▁ഫൈനല്‍	-11724
▁തുടങ്ങുന്നു	-11725
ികരമായ	-11726
▁യുവാവ	-11727
▁കണ്ണൂരില്‍	-11728
മിട്ട	-11729
▁കുവൈത്ത്	-11730
▁ശബരിമലയിലെ	-11731
▁കത്തോലിക്കാ	-11732
ോട്ടും	-11733
▁ഉണ്ടോ	-11734
▁പാശ്ച	-11735
▁പെര്‍	-11736
▁സഞ്ജു	-11737
▁ഏഷ്യാനെ	-11738
▁പറഞ്ഞാണ്	-11739
ൗട്ട്	-11740
▁ലഭിക്കാൻ	-11741
സിനിമ	-11742
മെന്റിന്റെ	-11743
▁മാസ്	-11744
▁റാവു	-11745
▁സൈഡ്	-11746
ള്‍ച്ച	-11747
▁ട്രെയിൻ	-11748
▁പരിശോധിച്ച്	-11749
▁സാധിക്കില്ല	-11750
കുള	-11751
▁എൻജിനീയ	-11752
▁വലിച്ചു	-11753
▁എടുക്കും	-11754
▁മനസ്സിലാക്കിയ	-11755
▁മക്കളെ	-11756
▁വര്‍ഗ്ഗ	-11757
▁പൂക്കൾ	-11758
▁ട്ട	-11759
ിട്ടുണ്ടെങ്കിലും	-11760
▁കോണ	-11761
▁ലീല	-11762
▁മറുപടിയുമായി	-11763
▁വിദൂര	-11764
▁സുനിൽ	-11765
▁എല്ലാവരെയും	-11766
▁ഇസ്ലാമിക	-11767
▁സാന്ദ്ര	-11768
ാനുസ	-11769
▁ആദ്മി	-11770
▁ആളാണ്	-11771
▁മോഡല്‍	-11772
▁സംഭവങ്ങൾ	-11773
▁ത്വക്ക്	-11774
▁സ്കൂള്‍	-11775
ബറില്‍	-11776
▁വീതി	-11777
▁ഉപഗ്രഹ	-11778
ഷനിൽ	-11779
▁ഇത്രയ	-11780
▁ഇവരില്‍	-11781
ിച്ചിരിക്ക	-11782
▁ഹെലികോപ്റ്റ	-11783
▁പറയാതെ	-11784
▁സംഘടനകളും	-11785
▁കുടുംബത്തെ	-11786
▁കുമാറിന്റെ	-11787
▁കുടുംബത്തിന്റെ	-11788
പ്രച	-11789
▁ഒന്നോ	-11790
▁മുഹമ്മദ	-11791
▁മനസ്സിലാക്കി	-11792
▁എന്തുകൊണ്ടാണ്	-11793
വെങ്കിൽ	-11794
▁ഉത്തരവാദിത്വ	-11795
▁നവാ	-11796
▁ഉത്തർ	-11797
▁ജാക്ക	-11798
▁തീര്‍ഥ	-11799
▁ബംഗളൂരു	-11800
▁നേതാവിന്റെ	-11801
▁പുതിയൊരു	-11802
▁സൊസൈറ്റി	-11803
ീമീറ്റർ	-11804
▁5000	-11805
ങ്കു	-11806
പ്രക	-11807
▁ഡോക്ടറെ	-11808
▁ദുർബല	-11809
▁ച്	-11810
▁വർഷമായി	-11811
▁കുടുങ്ങിയ	-11812
വസര	-11813
▁സ്ഥലത്തു	-11814
▁സ്റ്റേഷൻ	-11815
▁പ്ലാൻ	-11816
▁നൽകിയിട്ടുണ്ട്	-11817
1-	-11818
മേൽ	-11819
▁രാവില	-11820
▁അറസ്റ്റിൽ	-11821
▁ചാംപ്യ	-11822
ഗാമ	-11823
▁അമല	-11824
ാട്ടം	-11825
▁ഡെവല	-11826
കാലത്തെ	-11827
▁നാരായണന്‍	-11828
▁ഷാന	-11829
▁വിവാഹത്തിന്	-11830
ട്രാ	-11831
കരിക്ക	-11832
▁ഓസീസ്	-11833
▁വ്യോമസേന	-11834
32	-11835
▁വീട്ടുകാര്‍	-11836
▁തീര്‍ച്ചയായും	-11837
ായിൽ	-11838
▁ബൗളി	-11839
▁ഹാളില്‍	-11840
▁അങ്ങനെയാണ്	-11841
▁ഡല്‍ഹിയിലെ	-11842
▁ഉന്മ	-11843
▁നേഹം	-11844
ാഴ്ച്ച	-11845
▁മുകേഷ്	-11846
▁എത്തിച്ചു	-11847
▁റോബ	-11848
▁സാർ	-11849
കോടതി	-11850
▁അതിവേഗം	-11851
▁സിപിഎമ്മിന്റെ	-11852
▁ലക്ഷ്യമിടുന്നത്	-11853
തട	-11854
▁പെന	-11855
aper	-11856
പേഴ്	-11857
പ്ലേ	-11858
▁ഈശ്വര	-11859
▁ചൂഷണം	-11860
▁കമ്പനികളുടെ	-11861
വിഭവ	-11862
ുവില്‍	-11863
▁ശ്രീരാമ	-11864
▁റിപ്പബ്ല	-11865
▁ബാക്ടീരിയ	-11866
▁ബാങ്കിന്റെ	-11867
ുകാരനെ	-11868
ത്തുടര്‍ന്ന	-11869
▁അന്തരീക്ഷം	-11870
ാവതി	-11871
▁തനി	-11872
പോർട്ട്	-11873
▁എന്നതു	-11874
▁യഥാർത്ഥത്തിൽ	-11875
▁റാലി	-11876
▁കുര്‍	-11877
▁ശോ	-11878
▁റായ്	-11879
▁കത്തയ	-11880
▁ഇരിങ്ങ	-11881
▁ദരിദ്ര	-11882
ാണത്	-11883
പോലുള്ള	-11884
▁അപ്പാർട്ട്	-11885
line	-11886
▁ഒക്	-11887
തകള്‍	-11888
▁ജ്യൂസ്	-11889
▁മുറിച്ച	-11890
▁സ്റ്റാഫ്	-11891
▁പിന്തുണയുമായി	-11892
ചിക	-11893
▁കേസുമായി	-11894
ിച്ചിട്ടുള്ള	-11895
ിയ്ക്ക	-11896
▁കുര	-11897
ഫലമായി	-11898
▁സെഞ്ചുറി	-11899
▁മെറ്റീരിയൽ	-11900
യിടെ	-11901
▁നോക്കുക	-11902
▁വര്‍ഷവും	-11903
വാസി	-11904
ഷാദ്	-11905
യാക്ക	-11906
▁ജയിൽ	-11907
▁എബ്രഹാം	-11908
▁യാഥാര്‍ഥ	-11909
▁കർഷ	-11910
▁കൂടുതലും	-11911
പ്രവര്‍ത്തകര്‍	-11912
ളാ	-11913
▁No	-11914
സഹായ	-11915
▁ബ്രാൻഡ്	-11916
▁നൽകുകയും	-11917
ക്കുന്നതും	-11918
▁ലേഖനത്തിൽ	-11919
ുകാണ	-11920
▁മെഗാ	-11921
▁പരാതിയുമായി	-11922
കൈ	-11923
▁ഉദയ	-11924
ന്തിരി	-11925
▁കൃഷ്ണന്‍	-11926
പ്പായ	-11927
▁മുദ്രാവാക്യ	-11928
ൂദ	-11929
വശാൽ	-11930
സംഭവ	-11931
നാള്‍	-11932
▁താരങ്ങളെ	-11933
ഗതിയ	-11934
▁ദൈനംദിന	-11935
▁ഉടമസ്ഥതയിലുള്ള	-11936
▁ദർശ	-11937
ീയമായി	-11938
ങ്ങളുമാണ്	-11939
▁നിലനിന്ന	-11940
▁ധാ	-11941
▁കെയ്	-11942
▁തെറി	-11943
▁സ്റ്റീഫ	-11944
യ്ക്കാന്‍	-11945
▁64	-11946
▁മരു	-11947
മാം	-11948
▁നാണയ	-11949
▁അനുഷ്	-11950
▁തീർത്ത	-11951
▁കുറിപ്പ	-11952
▁വിദേശത്ത്	-11953
▁ജീവചരി	-11954
▁ചുറ്റുമുള്ള	-11955
ണറുടെ	-11956
ത്തോടു	-11957
▁നേരിടാന്‍	-11958
▁ഷഹ	-11959
▁അതിർത്തി	-11960
▁രാഹുലിന്റെ	-11961
.00	-11962
▁വിമർശനം	-11963
▁ശശീന്ദ്ര	-11964
▁പള്ളിയില്‍	-11965
▁വിലയിരുത്തൽ	-11966
▁പര്‍	-11967
▁കാണാതെ	-11968
▁ജയരാജന്‍	-11969
▁തോന്നുന്ന	-11970
▁കോളി	-11971
▁രഹിത	-11972
ത്തേത്	-11973
ാകാന്‍	-11974
▁കുണ്ട	-11975
▁വീടും	-11976
▁ഹാദിയ	-11977
▁ഇസ്ലാം	-11978
▁ഡൽഹിയിൽ	-11979
▁ശരീരഭാരം	-11980
േഷ്ഠ	-11981
▁വെച്ചാണ്	-11982
യാഴ്ച	-11983
▁അനാഥ	-11984
▁കഥകൾ	-11985
▁മുഖ്യമന്ത്രിയും	-11986
▁ഗ്രേ	-11987
▁സന്ദര്‍ഭ	-11988
▁പഴക്കമുള്ള	-11989
ൂടി	-11990
▁ഗ്രാമപഞ്ചായത്ത്	-11991
റീന	-11992
▁അതുവഴി	-11993
▁നമുക്ക	-11994
▁റണ്ണ	-11995
▁ഐസക്	-11996
നാശ	-11997
വാൻ	-11998
ഗോപാല	-11999
▁ശൂന്യ	-12000
▁Kerala	-12001
▁പ്രോസിക്യൂ	-12002
ടിക	-12003
▁ധര്‍മ്മ	-12004
):	-12005
▁പൂര	-12006
▁വംശജ	-12007
▁എന്തിന്	-12008
▁മലയാളികൾ	-12009
▁2005	-12010
ത്തിനൊടുവ	-12011
▁വീടുകളില്‍	-12012
▁പ്രത്യേകതകൾ	-12013
▁ലേല	-12014
▁കാലുകൾ	-12015
▁ഷൂട്ട്	-12016
ിച്ചതോടെ	-12017
▁കത്തിക്ക	-12018
▁താരതമ്യേന	-12019
ത്തില്‍നിന്ന്	-12020
സ്തുത	-12021
▁പൈതൃ	-12022
▁വയസ്സുള്ള	-12023
▁നെറ്റ്വർക്ക്	-12024
ശ്വര്‍	-12025
▁ഹൈന്ദ	-12026
കനും	-12027
ബാബു	-12028
▁സിന്‍	-12029
▁അനുപാത	-12030
▁അക്കാര	-12031
ുകൊണ്ടിരിക്കുന്ന	-12032
മറ്റ	-12033
▁ചിരിച്ചു	-12034
▁ഉത്തരവിട്ടു	-12035
നെന്ന	-12036
▁ജിഎസ	-12037
കോട	-12038
▁സ്ബു	-12039
ിനെതിരേ	-12040
ാമെന്നാണ്	-12041
▁വിജയലക്ഷ	-12042
▁സ്വീകരിക്കാന്‍	-12043
ുകിയ	-12044
▁കാറിൽ	-12045
▁തലച്ചോ	-12046
▁മോശമായ	-12047
▁തന്ത്രം	-12048
▁നമുക്കു	-12049
uary	-12050
സെന്റ്	-12051
▁പ്രൈവ	-12052
പ്പെടാൻ	-12053
ുമാത്രം	-12054
▁റാങ്കി	-12055
▁കോണ്‍ഗ്രസും	-12056
▁വാങ്ങാന്‍	-12057
▁തച്ച	-12058
ഹിക	-12059
കനായ	-12060
▁ചാട	-12061
▁മെഷീന	-12062
▁കുഞ്ഞി	-12063
▁പറ്റാത്ത	-12064
▁ഐക്യരാഷ്ട്ര	-12065
▁പ്രസിഡന്‍റ്	-12066
ഭംഗ	-12067
ുണ്ടെന്നാണ്	-12068
3-	-12069
സാം	-12070
▁നവംബ	-12071
കളുണ്ട്	-12072
ണെ	-12073
ിടത്ത്	-12074
ക്രീറ്റ്	-12075
▁ഇതൊന്നും	-12076
▁ക്രൈസ്തവ	-12077
▁സ്റ്റുഡിയോ	-12078
പറഞ്ഞ	-12079
▁ഹൈവേ	-12080
▁മനുഷ്യനെ	-12081
▁ചൊം	-12082
നിയുടെ	-12083
▁ആക്കി	-12084
സൻ	-12085
▁ഗീ	-12086
നിരോധ	-12087
▁സമാന്തര	-12088
▁ക്രിമിനൽ	-12089
ിച്ചിരിക്കുകയാണ്	-12090
സ്ല	-12091
ിട്ടില്ലാത്ത	-12092
▁സാബു	-12093
▁പരിപാടിയുടെ	-12094
▁അസാധ്യ	-12095
▁കാര്യത്തിലും	-12096
▁ലാണ്	-12097
ുവര്‍ഷം	-12098
▁കുടുങ്ങി	-12099
▁നഗരത്തിന്റെ	-12100
ീസില്‍	-12101
▁നിലത്തു	-12102
▁പിതാവിന്റെ	-12103
▁തെന്നിന്ത്യ	-12104
▁അവശ	-12105
ാവില്‍	-12106
തിന്‍റെ	-12107
ൽക്കത്ത	-12108
▁ചതുരശ്ര	-12109
▁വടക്കന്‍	-12110
▁ശ്രമങ്ങള്‍	-12111
ിയൻ	-12112
▁സ്വര്‍ണ്ണ	-12113
മുടി	-12114
▁താലി	-12115
ദാർ	-12116
▁സുഷമ	-12117
▁ബില്യ	-12118
പ്പെടാത്ത	-12119
▁നായകനായി	-12120
▁വിവരാവകാശ	-12121
▁യുവാക്കള്‍	-12122
ാദ്യം	-12123
▁ചക്ക	-12124
സ്ഥിതിക	-12125
▁കൈമാറ്റം	-12126
▁Al	-12127
പ്സ്	-12128
▁ഫിനി	-12129
▁സംവരണ	-12130
▁എങ്കില്‍	-12131
▁പ്രസ്തുത	-12132
▁സമ്പൂര്‍	-12133
▁ഉഷ	-12134
▁രേ	-12135
യുദ്ധ	-12136
ന്നാണ്	-12137
▁ഗംഭീര	-12138
▁പെൻഷൻ	-12139
വാഹന	-12140
▁നല്ലതു	-12141
▁വലുപ്പ	-12142
▁സെക്കന്‍ഡ	-12143
▁തെരഞ്ഞെടുത്ത	-12144
റിക്	-12145
▁വിന്‍ഡ	-12146
▁പതിനൊന്ന	-12147
▁പറയുകയും	-12148
▁റിക്രൂട്ട്	-12149
▁വിധത്തിൽ	-12150
▁പോസ്റ്റര്‍	-12151
▁സൺ	-12152
രാത്ത	-12153
▁ആകർഷക	-12154
▁കഴിവുകൾ	-12155
തിയിലെ	-12156
▁അധ്യക്ഷനായ	-12157
▁വീത	-12158
▁നിലം	-12159
േഷനുകൾ	-12160
▁കൂടുതലാണ്	-12161
▁ഫീൽ	-12162
▁പറന്നു	-12163
▁ജഡേജ	-12164
▁ഊര്‍ജ്ജ	-12165
▁ബിന്ദു	-12166
▁കാത്ത	-12167
▁കിഴക്കന്‍	-12168
▁വൈകുന്നേര	-12169
▁പങ്കുവെച്ച	-12170
ാതെയ	-12171
ക്കാട	-12172
മൂന്ന	-12173
▁വികസനത്തിന്	-12174
▁ശവ	-12175
ബ്രി	-12176
വെയ്	-12177
▁ചിലവഴ	-12178
▁പീറ്റ	-12179
▁വികാരി	-12180
▁വീടിനു	-12181
ഴ്ത്തി	-12182
▁അഭ്യൂ	-12183
▁കയ്യില്‍	-12184
▁ഡ്യൂട്ടി	-12185
ഴുത്ത	-12186
▁ക്കും	-12187
▁72	-12188
ുവീഴ്ച	-12189
▁ആഹാരം	-12190
മാര്‍ക്ക്	-12191
▁മാഞ്ചസ്റ്റര്‍	-12192
ഷ്യൻ	-12193
▁ഓടെ	-12194
ിക്കൂട്ട	-12195
▁യൂണിറ്റ	-12196
▁കയറ്റുമതി	-12197
▁രോമ	-12198
▁സിഡി	-12199
ൊതു	-12200
▁ബിജ	-12201
▁മാത്രമെ	-12202
▁കട്ടിയുള്ള	-12203
▁സംവാദ	-12204
▁പ്രതികാര	-12205
▁നിയമത്തിന്റെ	-12206
ലൂ	-12207
നമ്മ	-12208
▁റോയ്	-12209
പ്പോടെ	-12210
യില്‍നിന്ന്	-12211
ദേവ്	-12212
▁നിഴ	-12213
▁സിമ	-12214
ജ്ഞാന	-12215
▁റയല്‍	-12216
▁ചിന്തിക്ക	-12217
▁ബോധം	-12218
ത്തോടും	-12219
▁പാര്‍ട്ടിക്ക്	-12220
▁സര്‍വ്വകലാശാല	-12221
ംപി	-12222
▁ടൈംസ്	-12223
▁നേടാന്‍	-12224
▁ഇന്റര്‍നാ	-12225
ംബരം	-12226
▁ദാസ	-12227
▁വെൽ	-12228
▁എഞ്ചി	-12229
▁വ്യാപാരം	-12230
▁കൊച്ചിയിൽ	-12231
▁മറികടന്ന്	-12232
▁സൗകര്യങ്ങള്‍	-12233
▁വിമർശന	-12234
▁നടിയുടെ	-12235
ത്വത്തിന്റെ	-12236
▁വര്‍ഷങ്ങള്‍ക്ക്	-12237
വേല	-12238
▁4,	-12239
▁പാക്ക്	-12240
ിനെയ	-12241
രാത്ര	-12242
▁read	-12243
▁സിസിടിവി	-12244
▁ഒന്നിച്ച്	-12245
സ്ട	-12246
▁കൊയ്	-12247
▁അവശ്യ	-12248
▁സ്ത്രീയെ	-12249
▁വിപണിയിലെ	-12250
ത്തോടനുബന്ധിച്ച്	-12251
▁വാറ	-12252
▁അനുകൂലമായി	-12253
ത്തിനിടയില്‍	-12254
ചാല	-12255
റിൻ	-12256
▁എത്തിച്ചത്	-12257
ളില്‍	-12258
▁മുറിച്ച്	-12259
▁വ്യാപകമായ	-12260
▁പോസ്റ്റില്‍	-12261
ാനുളള	-12262
ുകാരന്റെ	-12263
▁തെളിവുകൾ	-12264
▁പെയിന്റ്	-12265
ത്തില്	-12266
▁റോയല്‍	-12267
▁നേടുകയും	-12268
▁പ്രാവ	-12269
▁സ്റ്റാൻഡ	-12270
▁രാജ്യത്തിന്	-12271
രംഗത്ത്	-12272
▁പ്രതിനിധികൾ	-12273
ോപ്പ	-12274
▁ശില്	-12275
▁ലോക്സഭ	-12276
ുണ്ടാക്കി	-12277
ിക്കുന്നതു	-12278
▁കമ്മ്യൂണിസ്റ്റ്	-12279
ter	-12280
▁തവണയാണ്	-12281
▁തെറാപ്പി	-12282
▁തീരുമാനമെടുക്ക	-12283
പരിപാട	-12284
▁ക്രോസ്	-12285
▁കസ	-12286
ശുദ്ധ	-12287
▁ഉര	-12288
തന്യ	-12289
നേഷ്യ	-12290
▁ഗേ	-12291
്രുവ	-12292
▁പാശ്ചാത്യ	-12293
▁ഫോട്ടോഗ്രാഫ	-12294
▁പുഞ്ചി	-12295
▁ബഷീര്‍	-12296
▁ചെയ്യണമെന്ന	-12297
ിരുന്നെങ്കിലും	-12298
▁സതീ	-12299
▁എന്നാലും	-12300
യിലേക്കുള്ള	-12301
ിക്കാലം	-12302
36	-12303
▁തേങ്ങ	-12304
തായിരിക്കും	-12305
▁ലൗ	-12306
▁പെട	-12307
▁ബ്രാൻഡ	-12308
▁മുമ്പിൽ	-12309
▁കണ്ടാല്‍	-12310
▁അഖിലേ	-12311
▁കിംഗ്	-12312
▁മുസ്ത	-12313
▁വിരോധ	-12314
ിക്കുട്ട	-12315
േഴ	-12316
▁പയ	-12317
▁കിങ്	-12318
കൊണ്ടു	-12319
▁കാലതാമ	-12320
ായിട്ടാണ്	-12321
▁അനാ	-12322
▁ഇരയായ	-12323
▁ഡീസല്‍	-12324
▁രാജ്യമ	-12325
17	-12326
▁തല്‍	-12327
▁ഓവര്‍	-12328
▁നിറവേറ്റ	-12329
ഗാന	-12330
പാടു	-12331
▁എക്സിക്യ	-12332
▁ഖാലി	-12333
▁ബെഹ്	-12334
▁കുഞ്ച	-12335
▁ഷൂട്ടിങ്	-12336
▁പിന്നെയും	-12337
',	-12338
തുമുത	-12339
▁പരിണ	-12340
ളുപ്പം	-12341
യാവ	-12342
▁വഹിച്ച	-12343
▁പാണ്ഡ്യ	-12344
▁ഭാഗങ്ങളിൽ	-12345
▁വെള്ളപ്പൊക്ക	-12346
വലിയ	-12347
പ്പില	-12348
▁വിന്‍	-12349
▁പിങ്ക്	-12350
▁ഷെഡ്യൂ	-12351
▁സെൻട്രൽ	-12352
▁ഗണ്യമായി	-12353
▁തകര്‍ച്ച	-12354
▁പെൺകുട്ടികൾ	-12355
ാടനം	-12356
▁സംതൃ	-12357
▁ചൊല്ലി	-12358
▁തവണയും	-12359
▁ചുമത്തി	-12360
▁ചോദ്യങ്ങൾ	-12361
▁തിയ്യ	-12362
▁ബുള്ള	-12363
▁ഇടപെടൽ	-12364
▁വികാരം	-12365
▁സിംഗപ്പ	-12366
മില്ലെന്നും	-12367
▁കലാമ	-12368
▁റേഷന്‍	-12369
▁പിന്നിട	-12370
▁പദ്ധതിയില്‍	-12371
▁വരാൻ	-12372
▁ദുര്‍ബല	-12373
▁ലഹ	-12374
▁ഗാംഗ	-12375
▁ബ്രഹ്മ	-12376
▁ശ്രീജി	-12377
ാതിരിക്കാൻ	-12378
▁താരത്തിന്	-12379
▁കുലു	-12380
▁സുല്‍	-12381
▁മെല്ലെ	-12382
▁എല്ലായ്പ്പോഴും	-12383
▁പിന്നാക്ക	-12384
▁യൂണിവേഴ്സിറ്റി	-12385
ഹായ	-12386
▁കരുത്ത്	-12387
▁കഷണങ്ങൾ	-12388
▁ന്യൂയോര്‍ക്ക്	-12389
▁വിഭാഗത്തിന്റെ	-12390
▁അരുൺ	-12391
▁നേർത്ത	-12392
ിൽനിന്ന്	-12393
▁ദാരുണ	-12394
ഐഎ	-12395
▁അരുണ	-12396
▁ബഹളം	-12397
▁പുലർത്ത	-12398
ഹാബ്	-12399
▁അവന	-12400
▁പറമ്പ	-12401
▁ക്ഷേത്രത്തിലെ	-12402
▁സ്ഥിരീകരിച്ചു	-12403
ാലു	-12404
ുമെതിരെ	-12405
▁ഉൽപന്ന	-12406
▁റൊണാള്‍	-12407
▁തര്‍ക്കം	-12408
▁കഥയാണ്	-12409
▁ചുമതലയ	-12410
▁കശ്മീരിലെ	-12411
▁പാര്‍ക്ക്	-12412
▁നിലവാരമുള്ള	-12413
▁സര്‍ക്കാരും	-12414
ക്കൂടി	-12415
റ്റിസ്	-12416
▁വിഎസ്	-12417
നിര്‍മ്മ	-12418
▁ഇൻഡ	-12419
▁പരീക്ഷണം	-12420
ദീ	-12421
▁തീർക്ക	-12422
പാപ്പ	-12423
കുറഞ്ഞ	-12424
▁കാര്യമില്ല	-12425
ിഴ	-12426
ദാനം	-12427
ലിസ്റ്റ	-12428
▁മുഖ്യപ്ര	-12429
▁രാജ്യങ്ങളിലെ	-12430
▁പെർ	-12431
▁നൂതന	-12432
▁ഫോടന	-12433
▁പ്രതാപ	-12434
ഘട്ടം	-12435
▁ശ്രീമ	-12436
▁ഉച്ചകോ	-12437
ുകളോടെ	-12438
▁പ്രശ്നങ്ങള്‍	-12439
38	-12440
ിവേശ	-12441
▁കര്‍ത്ത	-12442
▁വാട്ടര്‍	-12443
▁പൂര്‍ണ്ണമായും	-12444
▁കും	-12445
▁നേടിയിരുന്നു	-12446
▁വേറ	-12447
▁അഖിലേന്ത്യ	-12448
▁ഓണം	-12449
▁പവർ	-12450
▁ചിറ്റ	-12451
▁വൈറലായി	-12452
േഷനിൽ	-12453
▁ഊഷ്മള	-12454
▁കൊമ്പ	-12455
▁തൃശ്ശൂര്‍	-12456
ാഹു	-12457
ശതമാന	-12458
▁തിരയ	-12459
▁എസ്പി	-12460
നില്‍ക്കുന്ന	-12461
ുലു	-12462
ണ്ഡ്	-12463
രൂപം	-12464
േഷന്	-12465
▁പ്രാർത്ഥന	-12466
▁പുല്ല	-12467
▁മലബാർ	-12468
ദ്യോഗസ്ഥ	-12469
▁പഠിച്ചു	-12470
▁താല്‍പര്യ	-12471
▁നിര്‍മിച്ച	-12472
▁പ്രേക്ഷകര്‍	-12473
▁പ്രഫ	-12474
▁അനുയോജ	-12475
പ്രഖ്യാപ	-12476
ൊപ്പമാണ്	-12477
സ്ഥി	-12478
ിനെക്കുറിച്ച്	-12479
▁പൊതുമരാമത്ത്	-12480
▁പ്രായമായ	-12481
▁ചൂടു	-12482
▁പരിഭ	-12483
▁അങ്കി	-12484
▁വന്നാൽ	-12485
▁കഴിഞ്ഞാൽ	-12486
▁മേക്ക	-12487
▁ചേരുവകൾ	-12488
▁നിനക്ക്	-12489
▁പതിനഞ്ച	-12490
ധുവ	-12491
▁പിച്ച	-12492
ിനിയുടെ	-12493
ിട്ടുമുണ്ട്	-12494
▁ആട	-12495
പട്ട	-12496
▁റാഫ	-12497
വിതാം	-12498
▁പിക്	-12499
ുകളെല്ലാം	-12500
▁മുന്‍നിര	-12501
▁രൂപീകരണം	-12502
ാലക്കുട	-12503
▁വാട്ടർ	-12504
▁പരീക്ഷാ	-12505
▁നടപടിക്രമം	-12506
▁1.5	-12507
▁ആനി	-12508
▁പേടി	-12509
▁ക്ലിന	-12510
▁മുഴുവനും	-12511
▁കിലോഗ്രാം	-12512
ന്മാര്‍ക്ക്	-12513
▁ടിവ	-12514
▁ശൃംഖല	-12515
▁പുത്തൻ	-12516
▁ദുരുപയോഗം	-12517
ബൊ	-12518
യിത	-12519
▁ക്രൈം	-12520
▁കലോത്സവ	-12521
▁പാക്കിസ്ഥ	-12522
ശരീ	-12523
▁ദൗത്യം	-12524
ദ്മ	-12525
▁പാടി	-12526
▁അസീസ്	-12527
▁ട്രേഡ്	-12528
▁കേടുപാട	-12529
ബേ	-12530
ലേറ്റ	-12531
▁മനുഷ്യന്‍	-12532
▁കണ്‍വീനര്‍	-12533
ഹ്മണ്യ	-12534
▁ദുല്‍ഖര്‍	-12535
▁നേതൃത്വത്തിലാണ്	-12536
▁പാര്‍ട്ടികള്‍	-12537
െട	-12538
സ്തെ	-12539
▁ഭീഷണിപ്പെടുത്തി	-12540
▁ചെട	-12541
▁തെരേ	-12542
▁സലിം	-12543
▁നോട്ടുകള്‍	-12544
മഴ	-12545
മേഴ്	-12546
സിലും	-12547
▁ചെന്നു	-12548
▁തണുപ്പ	-12549
പ്രദേശില്‍	-12550
മണി	-12551
സിന്‍	-12552
▁കേന്ദ്രത്തില്‍	-12553
▁ഇളവ	-12554
▁ബിൻ	-12555
▁ടോസ്	-12556
▁വിളിക്കുന്ന	-12557
ഭാസ്	-12558
റിസ്	-12559
▁ഷാര	-12560
▁2002	-12561
▁വിലക്ക	-12562
▁വ്യതിയാന	-12563
▁ഷൂട്ടിംഗ്	-12564
▁രൂപത	-12565
▁കടകംപള്ളി	-12566
പിഎ	-12567
▁വേത	-12568
ണ്ടം	-12569
▁ലേക്ക്	-12570
▁ക്യാന്‍	-12571
▁തൊട	-12572
▁ഭാസ്	-12573
▁മൃ	-12574
ലോസ്	-12575
▁ക്ഷീ	-12576
▁ആതിഥേയ	-12577
▁അണ്ടര്‍	-12578
▁ഇതിനുള്ള	-12579
ിക്കേണ്ടിവ	-12580
▁ഓവർ	-12581
▁മദ്	-12582
▁വരണ	-12583
▁സമാജ	-12584
▁ഒഴിച്ചു	-12585
▁വേട്ടയാട	-12586
▁ഡിഫ	-12587
▁ലിമിറ്റഡ്	-12588
▁ഉത്തരേന്ത്യ	-12589
▁51	-12590
▁എപ്പി	-12591
േയുള്ളൂ	-12592
▁ലിങ്ക്	-12593
▁നൂറ്റാണ്ടിന്റെ	-12594
▁മംഗല	-12595
▁അനുഷ്ഠ	-12596
▁സംഭാഷണം	-12597
▁പെട്ടെന്നു	-12598
▁അര്‍ജു	-12599
▁ഖലീ	-12600
ിക്കുമോ	-12601
▁കഴിഞ്ഞത്	-12602
▁ഇതോടൊപ്പം	-12603
▁ഉണ്ടായിട്ട	-12604
▁സംഭവിക്കുന്ന	-12605
കൾക്കും	-12606
▁നിരീക്ഷണം	-12607
▁വർഷങ്ങളായി	-12608
▁ശില്‍	-12609
▁പിന്മാറ	-12610
▁പാർട്ടിയുടെ	-12611
▁ഒറ്റപ്പെട്ട	-12612
▁കോണ്‍ഗ്രസില്‍	-12613
ാപ്പ	-12614
▁നികു	-12615
സുമായി	-12616
▁58	-12617
▁മുതലാണ്	-12618
▁ലഭിക്കുക	-12619
▁മനസിലാക്ക	-12620
▁ഉപയോഗപ്രദമായ	-12621
▁എന്നിവരെയാണ്	-12622
▁കാരണമാകുന്നു	-12623
േശ്വര	-12624
ദ്ധ്യം	-12625
▁മാസിക	-12626
ുവെച്ചു	-12627
▁നിർത്തിയ	-12628
▁അപ്ഡേറ്റ്	-12629
▁ഡേറ്റ	-12630
െന്നുള്ള	-12631
ണവും	-12632
▁വിരല	-12633
ാരോപിച്ച്	-12634
ുമെങ്കിലും	-12635
ലിൻ	-12636
വാരി	-12637
ിവരെ	-12638
▁നാണം	-12639
▁വിലാസം	-12640
▁അഹമ്മദാ	-12641
പര്യമുള്ള	-12642
▁അറിയാന്‍	-12643
ക്റ്റ	-12644
▁2004	-12645
▁ഗായിക	-12646
▁അച്ചടക്ക	-12647
▁ഭൂമിയില്‍	-12648
▁കോര്‍പ്പറേഷന്‍	-12649
▁ബൗണ്ട	-12650
ത്തിലായി	-12651
▁പലയിടത്തും	-12652
റിനു	-12653
▁പദം	-12654
ട്രോള്‍	-12655
▁പ്രവര്‍ത്തകരുടെ	-12656
ചയ	-12657
പഴ	-12658
▁ഉടല	-12659
യോഗ്യ	-12660
സുകള്‍	-12661
▁തരത്തിൽ	-12662
▁സതീഷ്	-12663
▁സഹോദരൻ	-12664
▁എന്നിവയെ	-12665
▁ഏറ്റെടുത്തു	-12666
▁ശ്രീകുമാര്‍	-12667
▁കഴിഞ്ഞിട്ടും	-12668
▁ഉത്തേജ	-12669
ണ്ടെന്ന്	-12670
▁കമ്മിഷണ	-12671
▁കാഴ്ച്ച	-12672
▁സമീപമുള്ള	-12673
▁മാനന്ത	-12674
▁റോഡിലെ	-12675
▁ശീ	-12676
▁600	-12677
▁കമ്പനിയായ	-12678
▁അതിശയ	-12679
സര്‍ക്ക	-12680
▁തയ്യാറായ	-12681
ിക്കപ്പെടുന്നത്	-12682
കാർ	-12683
▁വായു	-12684
▁ക്രിക്കറ്റില്‍	-12685
ഹൃദം	-12686
▁സ്വാശ്രയ	-12687
▁പിന്തുണയും	-12688
ാസന	-12689
ത്തീസ്	-12690
▁കാര്യവും	-12691
▁രോഗിയുടെ	-12692
▁കൊൽക്കത്ത	-12693
▁ഫർണ	-12694
▁പൊലി	-12695
▁ഇന്തോ	-12696
യ്ക്കെതിരെ	-12697
▁രൂപീകരണ	-12698
ക്കെതിരെയുള്ള	-12699
▁ബ്	-12700
▁എത്രത്തോളം	-12701
▁കുല	-12702
▁സാക്ഷ്യം	-12703
▁പെരുമാറിയ	-12704
▁വേണ്ടെന്ന്	-12705
▁വര്	-12706
▁ഹമീ	-12707
▁ആരോഗ്യകരമായ	-12708
▁On	-12709
▁ആശ്രമ	-12710
ക്കേസിൽ	-12711
ശന്‍	-12712
▁കൊതി	-12713
ോത്സവം	-12714
▁ഭാരത്	-12715
മാണെന്നു	-12716
▁ഇൻഷുറൻസ്	-12717
മുട	-12718
നിയിലെ	-12719
▁മദ്ധ്യ	-12720
▁ലൈസൻസ്	-12721
▁മഹത്തായ	-12722
▁ഗോളുകള്‍	-12723
▁ചിത്രവും	-12724
ിയ്ക്കുന്ന	-12725
▁നിര്‍മ്മിച്ച	-12726
ിക്കുകയാണെങ്കിൽ	-12727
ണിയിൽ	-12728
▁ചന്ദ	-12729
▁ഹരജി	-12730
▁പൗരത്വം	-12731
▁എല്ലായിട	-12732
▁ട്രേഷന്‍	-12733
▁മുഹ	-12734
▁പെട്രോൾ	-12735
▁വിദഗ്ധർ	-12736
▁അങ്കമാലി	-12737
▁ബന്ധുക്കളും	-12738
▁ന്‍റെ	-12739
▁സ്വാഭാവികമായും	-12740
▁സജ	-12741
▁ഇവര	-12742
ിഡ്ജ്	-12743
▁ബല്‍	-12744
ational	-12745
▁റ്റേഴ്	-12746
ൻഡർ	-12747
▁അജയ്	-12748
▁ധനസഹായം	-12749
▁തോന്നുന്നില്ല	-12750
▁കോമഡി	-12751
പ്പെടാന്‍	-12752
▁പോർട്ട	-12753
▁വളർന്ന	-12754
യ്ക്കൽ	-12755
▁അത്താ	-12756
▁അളവിൽ	-12757
▁ധാരാള	-12758
▁അവസ്ഥയാണ്	-12759
▁വേദിയില്‍	-12760
ോർ	-12761
ഞാന്‍	-12762
▁ദേവി	-12763
▁വർണ്ണ	-12764
▁സാക്ഷി	-12765
ോടനുബന്ധിച്ച്	-12766
▁ഞങ്ങള	-12767
▁ഹോർമോ	-12768
▁ഇവർക്ക്	-12769
▁പ്രൈവറ്റ്	-12770
▁പോർ	-12771
ാന്തി	-12772
▁ഏജന്‍സി	-12773
▁സാദ്ധ്യ	-12774
ിക്കേണ്ടതാണ്	-12775
▁പങ്കാളിത്തം	-12776
▁ബോബ	-12777
ത്തന്‍	-12778
ുന്നതു	-12779
ാകുന്നില്ല	-12780
▁ഭൂപ	-12781
▁ദൈർഘ	-12782
▁തലപ്പ	-12783
▁കഴിവുള്ള	-12784
േയി	-12785
▁അജ്	-12786
ച്ചുഗ	-12787
റിച്ച	-12788
ജനങ്ങൾ	-12789
▁ഫയലുകൾ	-12790
▁രാജ്യങ്ങളും	-12791
▁പരിഹരിക്കാന്‍	-12792
▁കാശ	-12793
▁ഷിബു	-12794
ിക്കട്ടെ	-12795
ിതെ	-12796
▁അങ്ങേയ	-12797
▁വിനീത്	-12798
▁നിയമലംഘ	-12799
▁മാർക്ക്	-12800
▁തുമ്പ	-12801
▁തകര	-12802
▁ജനതാ	-12803
▁ഏകപക്ഷ	-12804
▁ടെലികോ	-12805
▁യെച്ചൂരി	-12806
ില്ലായിരുന്നു	-12807
▁പിയ	-12808
▁ഹൃദയാ	-12809
വിമുക്ത	-12810
▁ബാധിക്കും	-12811
28	-12812
കുമാരി	-12813
മാക്കുക	-12814
വുമുള്ള	-12815
ാര്‍ട്ട്	-12816
▁ബ്രസീ	-12817
മല്ലെന്ന്	-12818
▁കമ്മീഷന്റെ	-12819
▁കേരളത്തിലും	-12820
▁നഷ്ടപ്പെട്ടു	-12821
▁$	-12822
ന്ധം	-12823
▁നല്കിയ	-12824
▁കണ്ടെയ്	-12825
▁പ്രതിദിനം	-12826
▁യുക	-12827
▁ക്ലിക്കു	-12828
▁നിയമങ്ങള്‍	-12829
▁ആർക്ക	-12830
▁വിള്ള	-12831
കാരുണ്യ	-12832
▁ധരിച്ച്	-12833
ാഫ്	-12834
▁റാണ	-12835
ധികാര	-12836
▁കവിയ	-12837
▁സുധീ	-12838
▁ഉള്ളൂ	-12839
▁പര്യടന	-12840
▁പരിപാടിയിൽ	-12841
ോം	-12842
ാതല	-12843
▁പേരുകൾ	-12844
▁വമ്പന്‍	-12845
▁സാധ്യമായ	-12846
▁സുഖപ്രദമായ	-12847
▁പങ്കെടുക്കാന്‍	-12848
വിമ	-12849
▁നോൺ	-12850
▁എന്നിവയിൽ	-12851
▁എല്ലാത്തിനുമ	-12852
▁കേന്ദ്രത്തിൽ	-12853
▁10,000	-12854
▁കണക്കാക്കുന്നു	-12855
▁ഭക്തി	-12856
▁സമൃദ്ധ	-12857
കുമാറിനെ	-12858
▁റിമാന്‍	-12859
▁തിരിച്ചറിഞ്ഞു	-12860
▁സുഭാ	-12861
▁പിതാവ	-12862
▁തനിക്കു	-12863
▁പ്രധാനം	-12864
ദും	-12865
▁നെടു	-12866
▁പുല്‍	-12867
▁രക്ഷപ്പെട്ടു	-12868
▁കാഞ്ഞിര	-12869
ട്ടിരുന്നു	-12870
▁ഏറ്റെടുത്ത്	-12871
▁തൊഴിലാളികളെ	-12872
▁പ്രതിനിധികള്‍	-12873
ാര്	-12874
▁റയ	-12875
▁പറയുക	-12876
ങ്ങില്‍	-12877
▁സുധാകരന്‍	-12878
▁കെട്ടിടത്തിന്റെ	-12879
ക്കിൾ	-12880
▁ചൈനയുടെ	-12881
▁തന്ത്രി	-12882
▁പുരസ്കാര	-12883
▁ചിത്രീകരണ	-12884
▁നേതാവുമായ	-12885
▁വന്നപ്പോൾ	-12886
ബോള	-12887
ബില്‍	-12888
▁സഊദി	-12889
▁വീക്കം	-12890
▁നിറമുള്ള	-12891
▁മാധ്യമങ്ങൾ	-12892
▁യ്	-12893
▁ഷോട്ട്	-12894
▁നെറ്റ്വർ	-12895
ടിക്ക്	-12896
ാകാൻ	-12897
▁എളുപ്പം	-12898
റ്റുപുഴ	-12899
സിന്റെയും	-12900
▁ക്രിസ്തുമ	-12901
▁ആവർത്തിക്ക	-12902
);	-12903
▁അഭയം	-12904
ന്‍ഷന്‍	-12905
ിക്കുവാൻ	-12906
പൂര്‍ത്തിയ	-12907
▁ശരീരത്തിലെ	-12908
▁കഴിക്കുന്നത്	-12909
▁നാടു	-12910
▁ബാലന്‍	-12911
▁ആകാംക്ഷ	-12912
യുമായുള്ള	-12913
ുമില്ലാതെ	-12914
ത്തിനുവേണ്ടി	-12915
▁വ്യക്തിയാണ്	-12916
▁ഉണ്ടായിരിക്ക	-12917
▁ജോളി	-12918
ിക്കുന്നതിൽ	-12919
▁പ്രേക്ഷകരെ	-12920
▁ആഭ്യന്തരമന്ത്രി	-12921
ിന്‍	-12922
▁ണ്ട	-12923
▁നോക്കൂ	-12924
വിദ്യാഭ്യാസ	-12925
▁വൈവിധ്യമാർന്ന	-12926
▁മുഖ്യമന്ത്രിയെ	-12927
▁ള്ള	-12928
നികുതി	-12929
▁അകറ്റ	-12930
▁ഉപേക്ഷിച്ചു	-12931
▁ഹര്‍ജിയില്‍	-12932
▁കാര്യങ്ങളില്‍	-12933
▁പിടിച്ചെടുത്തു	-12934
▁ശ്വസ	-12935
▁കേരളത്തില	-12936
▁ഭര്‍ത്താവ	-12937
▁പ്രവര്‍ത്തകന്‍	-12938
▁പെൻ	-12939
യിലുണ്ട്	-12940
മുദ	-12941
പ്പിള	-12942
▁ദളിത	-12943
▁ശരിയല്ല	-12944
▁പരിസരത്ത്	-12945
ത്തുനിന്നും	-12946
പണ	-12947
▁വില്യം	-12948
▁മത്സരങ്ങൾ	-12949
ന്റുകൾ	-12950
▁കാൻസർ	-12951
▁സര്‍വ്വീസ്	-12952
▁ഇബ്	-12953
▁ധനു	-12954
ിലില്‍	-12955
▁ട്രാവ	-12956
▁കോണ്‍ഫറ	-12957
▁ഉപഭോക്തൃ	-12958
▁ഉറപ്പാക്കുക	-12959
▁ഹൈക്കോടതിയെ	-12960
▁പ്രതീക്ഷിച്ച	-12961
▁അതിഥികൾ	-12962
▁വല്ലാതെ	-12963
▁പാകിസ്ഥാന്‍	-12964
▁രക്ഷപ്പെട്ട	-12965
ാകാതെ	-12966
സിനോട്	-12967
▁എന്നതായിരുന്നു	-12968
ുമുമ്പ്	-12969
▁വർഷവും	-12970
▁ഓർക്കുക	-12971
▁ജൂനിയര്‍	-12972
്യമാണ്	-12973
▁പോണ്‍	-12974
▁പ്രേം	-12975
▁സമ്മര്‍ദ്ദ	-12976
▁മറ്റുള്ളവരുടെ	-12977
ഓളം	-12978
▁വിപരീ	-12979
▁ക്യാപ്റ്റൻ	-12980
▁കാത്തിരുന്ന	-12981
▁സേതു	-12982
ow	-12983
▁ജാഥ	-12984
ന്ററി	-12985
▁അഹങ്ക	-12986
ട്ടിയത്	-12987
▁വിജയിച്ചു	-12988
▁തുടങ്ങുന്നത്	-12989
▁കഴിഞ്ഞിട്ടില്ല	-12990
▁സ്പീക്കർ	-12991
▁തീരെ	-12992
▁വിഗ്രഹ	-12993
▁ബ്രേക്ക്	-12994
ുമ്മ	-12995
ന്റിൽ	-12996
▁രഹസ്യം	-12997
ക്കായുള്ള	-12998
▁ചിരി	-12999
▁ഭൂമിയ	-13000
▁ഭീകരര്‍	-13001
▁താഴേക്ക്	-13002
ുന്നതെന്നാണ്	-13003
▁ഉള്‍പ്പെടുത്തി	-13004
▁കൂൺ	-13005
ാകില്ല	-13006
▁മുംബൈയിലെ	-13007
▁പരമ്പരയിലെ	-13008
▁ഫ്രാന്‍സിസ്	-13009
▁സെന	-13010
▁കൊളു	-13011
▁ഫൈസി	-13012
▁മാനു	-13013
▁അപ്പ്	-13014
▁കവര്‍ച്ച	-13015
▁സഹായിക്കാൻ	-13016
ഹേള	-13017
ദേവന്‍	-13018
▁സഖാഫി	-13019
▁കടുവ	-13020
▁മറ്റൊരാള	-13021
▁കുട്ടിക്ക്	-13022
▁പൂർണ്ണമായി	-13023
▁മണ്ട	-13024
ചെയ്ത്	-13025
▁സമരത്തിന്	-13026
▁റിയാലിറ്റി	-13027
▁നിർമ്മാതാവ്	-13028
-4	-13029
ുകോ	-13030
ന്തപുരം	-13031
▁മണിയുടെ	-13032
▁സഹകരിക്ക	-13033
▁മുകുന്ദ	-13034
▁ഫിലിപ്പ്	-13035
▁വന്നിട്ടുണ്ട്	-13036
▁തപ	-13037
ോക്ക	-13038
▁വിന്യസ	-13039
▁കച്ചവടം	-13040
▁വിളിച്ചുവ	-13041
▁സൗകര്യങ്ങൾ	-13042
▁അടിയന്തരമായി	-13043
▁ചതു	-13044
ഹാന്‍	-13045
▁മൗനം	-13046
▁ഇരുമ്പ്	-13047
▁ഇരിങ്ങാലക്കുട	-13048
ot	-13049
▁പുലർച്ചെ	-13050
▁വര്‍ക്ക്	-13051
▁വേനൽക്കാലത്ത്	-13052
ൊയ	-13053
ിക്കല	-13054
ുകയാണ	-13055
▁അഭിഭാഷ	-13056
▁പ്രയോജനം	-13057
ചര്യ	-13058
▁നവീകരണ	-13059
വാറ്റുപുഴ	-13060
യ്ക്കുന്നത്	-13061
▁വേണമെങ്കിൽ	-13062
▁കഥാപാത്രങ്ങളെ	-13063
▁നുഴ	-13064
▁ഉദാഹരണം	-13065
▁വസ്തുക്കളുടെ	-13066
▁വിശ്വസിക്കുന്ന	-13067
മരം	-13068
▁കെഎം	-13069
▁ജനനം	-13070
▁വെടിവയ്	-13071
▁ശങ്കര്‍	-13072
▁ജനപ്രതിനിധ	-13073
വർഗ	-13074
ത്യ്	-13075
▁സാവ	-13076
▁അലങ്കരിച്ച	-13077
▁മാത്രമുള്ള	-13078
▁മാന്	-13079
ത്തന്ന	-13080
▁എന്നോ	-13081
▁കളിപ്പ	-13082
▁അപ്പോഴും	-13083
പമ	-13084
ലിവ	-13085
▁കോഫി	-13086
▁ലഭ്യത	-13087
▁പ്രതിജ്ഞ	-13088
▁സാമ്രാജ്യ	-13089
▁മലപ്പുറ	-13090
▁ലിയാര്‍	-13091
ുണ്ടാക്കുന്ന	-13092
▁ലംഘന	-13093
▁പൂട്ടിയ	-13094
▁വല്ലാത്ത	-13095
▁ദമ്പതികളുടെ	-13096
us	-13097
ഫിക്ക	-13098
▁ഒക്ക	-13099
▁കൊടി	-13100
▁ലൈവ്	-13101
▁നിയമപരമായ	-13102
irst	-13103
ട്ടിക്	-13104
▁എപ്പോൾ	-13105
▁ഉപയോഗിച്ചാണ്	-13106
▁ശൈലജ	-13107
▁സഹപാഠ	-13108
▁കണ്ടുമു	-13109
▁പുറത്തായ	-13110
ിക്കുകയാണെന്നും	-13111
▁കാറിന്റെ	-13112
▁ദമ്പതികൾ	-13113
▁പ്രാവശ്യം	-13114
ുകള്	-13115
രുള്ള	-13116
▁അകമ്പ	-13117
▁ടൊവിനോ	-13118
▁ഡയറക്ട	-13119
▁കംപ്യൂട്ട	-13120
▁മണ്ഡലത്തിൽ	-13121
യുളള	-13122
▁ബഷീ	-13123
▁വംശീയ	-13124
കളിലായി	-13125
▁രേഖകളും	-13126
▁വൃത്തങ്ങള്‍	-13127
പിപ്പ	-13128
▁ഫയല്‍	-13129
▁പെഷ്യല്‍	-13130
▁സംസാരിക്കുന്നത്	-13131
▁എന്തും	-13132
▁മൂന്നും	-13133
▁എടുത്തത്	-13134
▁യുവാക്കളെ	-13135
▁ഫലപ്രദമായി	-13136
▁പ്രെ	-13137
▁ചൊവ്വ	-13138
▁ളാറ്റ	-13139
▁കബള	-13140
▁പവി	-13141
▁ബാഡ്	-13142
▁ഹോട്ടലില്‍	-13143
▁ശിഖ	-13144
▁എടുക്കാൻ	-13145
▁ബാറ്റിങ്	-13146
തംഭ	-13147
▁വിവേചന	-13148
▁ഇതോടെയാണ്	-13149
▁സാധിച്ചില്ല	-13150
▁മൾട്ടി	-13151
▁ടെലികോം	-13152
▁ഭക്ഷണവും	-13153
▁ആനുകൂല്യം	-13154
▁താവ	-13155
▁തടവ്	-13156
ിന്‍റെ	-13157
▁വെയ	-13158
▁റീജിയ	-13159
യിലെയും	-13160
▁അഞ്ചിന്	-13161
ുകാര്‍ക്ക്	-13162
95	-13163
ുപാട	-13164
▁ആഹ്ലാദ	-13165
▁ലിവര്‍	-13166
▁മടക്കി	-13167
▁ഏക്കര്‍	-13168
▁ദഹന	-13169
രത്	-13170
▁ഇൗ	-13171
ാണിത	-13172
▁കലാപം	-13173
▁നിവേദ	-13174
ടനം	-13175
ുന്നുണ്ടോ	-13176
▁എകെ	-13177
നിന്റെ	-13178
▁ബട്ടൺ	-13179
▁സന്തു	-13180
▁വശത്ത്	-13181
▁മണിക്കൂറുകള്‍	-13182
▁കല്‍	-13183
പൂര്‍വം	-13184
ര്‍ട്ടം	-13185
▁സ്ക്രീൻ	-13186
ര്‍ക്കാണ്	-13187
▁മുൻകൂട്ടി	-13188
▁ടെലിവിഷന്‍	-13189
▁വസ്തുക്കള്‍	-13190
വ്ര	-13191
▁അൻ	-13192
▁കുല്‍	-13193
ങ്ങളിലേക്കും	-13194
▁സാധിക്കാത്ത	-13195
പൂജ	-13196
ഭീഷ	-13197
ട്ടിലെ	-13198
▁പതിവു	-13199
▁മീന്‍	-13200
യുണ്ടായ	-13201
▁പരിഗണിക്കുക	-13202
ുടനീളം	-13203
▁പതിപ്പ	-13204
▁പൊതുമേഖലാ	-13205
▁സ്ത്രീകൾക്ക്	-13206
ുകൊണ്ടും	-13207
▁മസ്ജിദ്	-13208
port	-13209
▁ആപ്	-13210
▁നിരവധ	-13211
▁ക്വാര്‍ട്ട	-13212
ാപ്ട	-13213
▁മണൽ	-13214
▁കൗണ്ട	-13215
▁യഥാർഥ	-13216
▁ഭ്രാന്ത	-13217
ുമുതല്‍	-13218
ിക്കുന്നതിനു	-13219
വർഷ	-13220
▁ടൗണ്‍	-13221
▁ഡൌ	-13222
ഡന്റ്	-13223
▁സാഹി	-13224
▁സ്പ്ര	-13225
▁അവസാനത്തെ	-13226
▁സമ്മതിച്ചു	-13227
പരിധി	-13228
▁നിർവ	-13229
▁കരിങ്ക	-13230
▁അനുവാദം	-13231
▁നിങ്ങൾക്ക	-13232
▁പ്രവര്‍ത്തകരും	-13233
തയില്‍	-13234
▁അറിഞ്ഞു	-13235
▁കുതിച്ചു	-13236
▁ഡോക്യുമെന്റ	-13237
വുകൾ	-13238
ാട്ര	-13239
ിടിച്ച	-13240
▁സുഹൃത്തുക്കള്‍	-13241
സിറ്റ്	-13242
▁മൊഴിയ	-13243
▁ഓപ്പണ്‍	-13244
▁ആപ്പിള്‍	-13245
▁മക്കളുടെ	-13246
▁സമൂഹത്തെ	-13247
▁ജോര്‍ജ്ജ്	-13248
▁റിസ	-13249
മ്പുഴ	-13250
ുറം	-13251
▁68	-13252
▁മത്സരിക്കുന്ന	-13253
നയുടെ	-13254
▁മസ്തി	-13255
ങ്കില്‍	-13256
▁ചെയ്തതായി	-13257
▁ഫോട്ടോകൾ	-13258
ീസും	-13259
▁ഏതോ	-13260
ഭക്ഷണം	-13261
▁കമ്യൂണിസ്റ്റ്	-13262
▁തെറ്റിദ്ധരിപ്പ	-13263
▁95	-13264
▁ആണു	-13265
▁ഓർഡർ	-13266
സംവിധാന	-13267
പ്രസിദ്ധ	-13268
▁വീട്ടിലെത്തി	-13269
ഡോക്	-13270
▁വേണമെങ്കിലും	-13271
▁കഥകള	-13272
ൊടുക്ക	-13273
▁വെക്ക	-13274
പ്പെരിയ	-13275
▁ഉപകാര	-13276
▁ടെന്ന	-13277
▁കൈക്കൊള്ള	-13278
ിച്ചുവെന്ന്	-13279
▁റോമ	-13280
ോടാണ്	-13281
നിവ	-13282
സേനാ	-13283
▁പേട	-13284
▁വെല്‍	-13285
▁ഫെബ്രുവ	-13286
▁സമയത്തും	-13287
▁സുരേന്ദ്രൻ	-13288
ുവന്നു	-13289
▁തിയതി	-13290
▁സമയത്താണ്	-13291
ip	-13292
▁ഇമാം	-13293
▁മൽസര	-13294
▁ഉണങ്ങിയ	-13295
▁തിരക്ക്	-13296
▁ഇല്ലാതാക്ക	-13297
▁പൂര്‍ണമായി	-13298
പ്പാള	-13299
▁വിലമതി	-13300
▁തന്നോട്	-13301
▁വേറിട്ട	-13302
▁മമ	-13303
ിക്കിടെ	-13304
▁സ്ഥിതിയ	-13305
▁കാനം	-13306
▁ഗ്രേഡ്	-13307
▁മാസ്റ്റ	-13308
▁ആദരിച്ചു	-13309
ിക്കപ്പെട്ടത്	-13310
മിന്‍	-13311
ധികള്‍	-13312
▁അതൊക്കെ	-13313
art	-13314
▁ടേബിൾ	-13315
▁മൗലിക	-13316
▁ഫിൽ	-13317
▁ശക്	-13318
▁മെറ്റൽ	-13319
▁അടച്ചുപ	-13320
▁ജന്മദിന	-13321
കൃത	-13322
ൺസ്	-13323
▁കുമാറ	-13324
▁വീടുകൾ	-13325
ത്തിലൊരു	-13326
▁ചെലവേറിയ	-13327
▁രാജ്യങ്ങളുടെ	-13328
▁യൂനി	-13329
▁ചുവടു	-13330
▁മുമ്പും	-13331
▁വൈവിധ്യ	-13332
▁ഭൂരിഭാഗവും	-13333
ec	-13334
ാപുര	-13335
▁പാണ	-13336
▁യഥാ	-13337
▁ഒടിയ	-13338
ാനുമതി	-13339
ത്തിയുടെ	-13340
▁കൈയില്‍	-13341
▁ചോദ്യങ്ങള്‍	-13342
ക്കുള്ളിൽ	-13343
നേരെ	-13344
▁അല്‍പം	-13345
▁സുഭാഷ്	-13346
▁പൂര്‍ത്തിയാക്ക	-13347
ലിക്	-13348
▁തീർത്ഥ	-13349
▁കായംകുളം	-13350
um	-13351
▁സൂര	-13352
▁കേൾക്ക	-13353
▁കുഞ്ഞിന്	-13354
ാതീത	-13355
ത്തിനെത്തിയ	-13356
▁വിഷയങ്ങളില്‍	-13357
ാർജ	-13358
▁ഇളം	-13359
▁ഷീല	-13360
▁വരച്ച	-13361
▁ശ്യാമ	-13362
▁സംഘാടക	-13363
▁നൈജീരിയ	-13364
▁ഇങ്ങനെയൊരു	-13365
▁വെള്ളത്തില്‍	-13366
ബായ	-13367
▁ഗ്രി	-13368
▁മിഡ്	-13369
▁kerala	-13370
▁തിയറ്ററ	-13371
▁ചുവടെ	-13372
▁മൊയ്തീ	-13373
▁പരാതികള്‍	-13374
▁പുറത്തുവിട	-13375
▁ജോള	-13376
ിച്ചപ്പോൾ	-13377
▁പ്രേക്ഷകരുടെ	-13378
ഹൗ	-13379
▁നോവ	-13380
പ്രകാശ	-13381
▁മഹേഷ്	-13382
പ്പെടേണ്ട	-13383
▁നേരിട്ടുള്ള	-13384
▁വിൽപന	-13385
▁ചിദംബര	-13386
▁സിറ്റ്	-13387
ിലൂടെയും	-13388
▁ഇടിച്ചു	-13389
▁തമിഴ്നാട്	-13390
ബദ്ധ	-13391
▁മികവ്	-13392
ാമെന്നു	-13393
സിലേക്ക്	-13394
▁തിരുവിതാം	-13395
▁വ്യക്തമല്ല	-13396
▁സജ്ജീകരിച്ച	-13397
▁മെഷീൻ	-13398
▁യില്‍	-13399
▁അതിനിട	-13400
▁ഈയിടെ	-13401
▁താത്പര്യ	-13402
▁ഗവണ്‍മെന്റ്	-13403
▁റിപ്പോർട്ടിൽ	-13404
മുഖം	-13405
▁സ്തംഭ	-13406
ര്‍മാരായ	-13407
▁നിർബന്ധിത	-13408
▁ഭൂത	-13409
പ്പുല	-13410
▁റാഷി	-13411
▁കോള്‍	-13412
സിൻ	-13413
ാവിലെ	-13414
▁ഹരിക	-13415
ിക്കോട്	-13416
▁സൗഹൃദം	-13417
▁ഞങ്ങൾക്ക്	-13418
ളിൽ	-13419
▁ആധിക	-13420
മാണെങ്കിലും	-13421
ോക്ക്	-13422
▁ഒഴികെ	-13423
▁പകല്‍	-13424
ങ്ങളുമുണ്ട്	-13425
▁പ്രതികളുടെ	-13426
▁സൃഷ്ടിച്ചു	-13427
ജാല	-13428
▁66	-13429
▁വഴിയും	-13430
▁നടക്കുന്നുണ്ട്	-13431
ക്കണക്ക	-13432
▁ചെയ്യുകയാണ്	-13433
▁ബുദ്ധിമുട്ട്	-13434
▁മല്യ	-13435
▁വൈക്കം	-13436
▁പ്രാപ്ത	-13437
▁ഇടപെട്ട്	-13438
▁ശേഷിയുള്ള	-13439
ാർട്ട	-13440
▁വാസ്തു	-13441
▁ഫിലിപ്പ	-13442
ത്തോടുള്ള	-13443
▁കമ്മിഷന്‍	-13444
▁അനുയോജ്യമാണ്	-13445
▁നിലവില	-13446
▁വരുമെന്ന്	-13447
▁കസ്റ്റഡിയിൽ	-13448
▁•	-13449
ാമിന	-13450
യിയുടെ	-13451
▁ഫലസ്ത	-13452
▁വേദനി	-13453
▁ഇവയുടെ	-13454
ങ്ങളുടേയും	-13455
ുമ്പോഴേക്കും	-13456
▁വരവേ	-13457
▁തെരേസ	-13458
▁നമ്പൂതിരി	-13459
ാലേ	-13460
ൾട്ട	-13461
▁മാറുന്ന	-13462
ത്തിനായുള്ള	-13463
▁കാരണമെന്ന്	-13464
▁നിപ	-13465
▁ഫിഫ	-13466
▁ഷാഹി	-13467
ിനിയായ	-13468
▁യാക്കോ	-13469
▁സിനിമകൾ	-13470
▁പുറത്തുവിട്ടത്	-13471
▁ബന്ദ	-13472
ep	-13473
▁ഭുവ	-13474
▁സംഗതി	-13475
▁കോഴ്സ്	-13476
▁ബ്ലോഗ്	-13477
▁ഷായുടെ	-13478
നിര്‍മാണ	-13479
ാറുള്ളത്	-13480
▁ഓണ്‍ലൈന	-13481
26	-13482
രാജിന്റെ	-13483
▁നിര്‍ണയ	-13484
ന്മാർക്ക്	-13485
▁കേന്ദ്രങ്ങളില്‍	-13486
ക്കൂലി	-13487
▁ബാലഭാസ്	-13488
▁പട്ടേല്‍	-13489
▁മെനു	-13490
ണ്ണാടക	-13491
▁ചിലത്	-13492
▁അംബേദ്	-13493
▁താക്കോ	-13494
▁ദ്രാവി	-13495
▁തകര്‍പ്പന്‍	-13496
▁യുപ	-13497
▁കളിച്ചു	-13498
ണാൾ	-13499
ശേഖര	-13500
▁വാഗ	-13501
▁വിരൽ	-13502
▁തടസ്സം	-13503
▁മുസ്ലീ	-13504
▁സിനെ	-13505
▁ഇരുപത്തിയ	-13506
▁നല്‍കണമെന്ന്	-13507
▁പഠിപ്പ	-13508
▁ആർഎസ്എസ്	-13509
▁സംസ്കാരം	-13510
▁കത്തോലിക്ക	-13511
▁തീര്‍ത്തും	-13512
നിർണ	-13513
▁കണക്	-13514
▁കെഎസ്ആർ	-13515
▁ദല്‍ഹ	-13516
▁വാഷിങ	-13517
▁ചുവപ്പ്	-13518
▁ജനിച്ചു	-13519
ൂം	-13520
ജിൻ	-13521
▁എന്നത	-13522
▁കമന്റ്	-13523
▁ട്രേറ്റ്	-13524
9,	-13525
സൈസ്	-13526
സ്സും	-13527
▁സാര്‍	-13528
▁അങ്ങിനെ	-13529
പല	-13530
▁3000	-13531
▁അറ്റ്	-13532
▁േ	-13533
ഡോക്സ്	-13534
ച്ചേ	-13535
▁തരും	-13536
▁ഉടമകൾ	-13537
▁കരിച്ച	-13538
▁കണക്കിന്	-13539
▁മധ്യപ്രദേശ്	-13540
▁മാന്‍	-13541
ിക്കാണ്	-13542
▁പറഞ്ഞിട്ടുണ്ട്	-13543
▁ഡെമോ	-13544
▁അവഹേള	-13545
▁കടക്ക	-13546
▁ദിവസങ്ങൾ	-13547
▁രുചികരമായ	-13548
▁ഇഷ്ടപ്പെട്ട	-13549
ജാ	-13550
▁കട്ട്	-13551
▁മലയോര	-13552
ാരിന്റെ	-13553
▁നിര്യാത	-13554
▁സയന്‍സ്	-13555
▁തയ്യാറാക്കി	-13556
▁വഴങ്ങ	-13557
▁വെടിയുതി	-13558
▁നല്‍കുമെന്ന്	-13559
ിക്കുന്നതിന്റെ	-13560
98	-13561
സന്‍	-13562
ക്കോട്	-13563
▁കോംപ്ല	-13564
▁തോട്ടം	-13565
▁വാര്‍ഡ	-13566
.15	-13567
▁എസിന്റെ	-13568
ത്തായിരുന്നു	-13569
▁കണ്ണന്ത	-13570
▁ചാര്‍ജ്	-13571
▁ഉള്ളടക്ക	-13572
▁സമൂഹത്തിൽ	-13573
▁നില്‍ക്കുന്നു	-13574
2,	-13575
ിനിൽ	-13576
▁കഥകള്‍	-13577
▁കാത്ത്	-13578
▁പിടിയിൽ	-13579
▁അടിയന്തരാവസ്ഥ	-13580
▁യാത്രക്കാര	-13581
▁ചുട്ട	-13582
▁മുംബൈയില്‍	-13583
▁പേസ്	-13584
37	-13585
▁ഡാം	-13586
വെയാണ്	-13587
▁ഇതിലെ	-13588
▁ജന്മം	-13589
▁മുള്ള	-13590
▁കൊണ്ടുവരുന്ന	-13591
▁സ്ഥാപനങ്ങളുടെ	-13592
▁ഇടു	-13593
ലിന്‍	-13594
ുകളായ	-13595
▁കഴിച്ചു	-13596
▁നിർഭാഗ്യ	-13597
▁പറയുമ്പോള്‍	-13598
ാവുക	-13599
രിപ്പ്	-13600
സാക്ഷി	-13601
▁സ്പെഷ്യ	-13602
▁സായ	-13603
▁ബിനോയ്	-13604
▁തൂങ്ങ	-13605
▁പോർട്ട്	-13606
▁റൊണാള്‍ഡോ	-13607
▁ലോഹ	-13608
▁ടോപ്	-13609
പ്പാടി	-13610
കുമാറ	-13611
ര്‍ച്ച്	-13612
▁കരൾ	-13613
▁ജാല	-13614
▁ഐയുടെ	-13615
▁വട്ടം	-13616
▁വയസ്സിൽ	-13617
ക്കെതിരെയും	-13618
▁ആവശ്യമെങ്കിൽ	-13619
▁ഉമ്മന്‍ചാണ്ട	-13620
▁പെണ്‍കുട്ടികള്‍	-13621
കളോ	-13622
ുകര	-13623
▁സമ്മത	-13624
▁വിസ്മയ	-13625
ദൈവ	-13626
▁ഒറ്റയ്ക്ക്	-13627
▁പരിധിയില്‍	-13628
▁800	-13629
▁പോക്	-13630
▁തലയിൽ	-13631
▁കൊലയാള	-13632
▁ധൈര്യം	-13633
▁പ്രതിഭാ	-13634
▁വീട്ടിലെത്തിയ	-13635
കരില്‍	-13636
▁പ്രമേഹ	-13637
▁നിരാഹാര	-13638
▁അഞ്ഞ	-13639
▁കലാഭവ	-13640
▁ഹൈന്ദവ	-13641
റം	-13642
ലോകം	-13643
▁താറ	-13644
ർക്കി	-13645
▁അഹ്മ	-13646
ൊരുക്ക	-13647
▁ലീഗിന്റെ	-13648
▁ഉപേക്ഷിച്ച	-13649
▁പലര്‍ക്കും	-13650
ലിനു	-13651
നേയും	-13652
ഭക്ഷണ	-13653
▁കോതമ	-13654
റിഞ്ഞത്	-13655
▁അന്തര്‍	-13656
▁ജീവപര്യ	-13657
ുന്നതുവരെ	-13658
▁ഉള്‍പ്പെടുന്ന	-13659
▁കൺവീന	-13660
▁വർഗ്ഗ	-13661
ാനാകാത്ത	-13662
▁ഹെല്‍ത്ത്	-13663
തവണ	-13664
േനെ	-13665
▁നൂറ്റാണ്ടിൽ	-13666
▁പ്രായപൂര്‍ത്തിയ	-13667
▁അവാർ	-13668
ത്തേക്കുള്ള	-13669
ാതിഥ	-13670
ദേശീയ	-13671
▁ജനപ്ര	-13672
ൊക്കെയോ	-13673
▁കാന്‍സര്‍	-13674
▁റണ്‍സെടുത്ത	-13675
▁(4	-13676
▁യുപിഎ	-13677
▁പ്രീമിയം	-13678
▁പ്രകാരമാണ്	-13679
പ്രൊ	-13680
ിനിയെ	-13681
▁അസഹി	-13682
▁സഹകരണം	-13683
▁അടുത്തു	-13684
▁തളിപ്പറ	-13685
▁ജനങ്ങൾക്ക്	-13686
▁ഹയർ	-13687
▁ശ്രീശ	-13688
▁സംഘടനകൾ	-13689
▁സ്വരാജ്	-13690
▁അവഗണിക്ക	-13691
▁ശ്രീകൃഷ്ണ	-13692
▁സാധ്യമല്ല	-13693
ലിയുടെ	-13694
സ്ഥാപന	-13695
▁ഇടയ്ക്ക്	-13696
▁തയ്യാറായി	-13697
▁വിമര്‍ശിച്ച്	-13698
▁ശ്രീറാം	-13699
ുമില്ലാത്ത	-13700
▁താരങ്ങളും	-13701
▁ഉത്തരകൊറിയ	-13702
▁സുഹൃത്തുക്കളും	-13703
സിനും	-13704
▁മസാല	-13705
▁വേണമെന്നും	-13706
▁കേന്ദ്രങ്ങള്‍	-13707
ാരാമ	-13708
പുസ്തക	-13709
▁ബേക്ക	-13710
▁വഴക്ക	-13711
▁ആധികാരിക	-13712
▁ആഴ്	-13713
▁രൂപയ	-13714
പ്രകാരമാണ്	-13715
▁ആരംഭിക്കുക	-13716
▁ഉപയോഗിക്കാന്‍	-13717
▁മുന്നോട്ടുപോക	-13718
▁Ch	-13719
ത്വത്തെ	-13720
▁നോർത്ത്	-13721
▁ഗുഡ്	-13722
ുകാരിയായ	-13723
▁വാർത്താ	-13724
▁പൂര്‍ത്തിയായ	-13725
യാളെ	-13726
വെച്ചു	-13727
ലുകളുടെ	-13728
▁ബാക്ക്	-13729
▁എന്തൊക്കെ	-13730
▁പങ്കെടുത്തത്	-13731
▁വയോ	-13732
ക്കാരനായി	-13733
▁നിവ	-13734
▁ശ്രേ	-13735
▁ഉയര്‍	-13736
▁കടലില്‍	-13737
പ്പതി	-13738
റുന്ന	-13739
▁ചാർജ്	-13740
ദർശ	-13741
▁വാൽ	-13742
▁അവതരണ	-13743
ക്കേറിയ	-13744
ക്രട്ടറി	-13745
▁ഇടത്തരം	-13746
▁ഹരജ	-13747
ഫ്റ്റ	-13748
▁ആഘാത	-13749
റിലാണ്	-13750
ചെയ്യാൻ	-13751
▁ചെയ്യാതെ	-13752
▁വിഴു	-13753
▁സോഫ്റ്റ്വെയർ	-13754
ോൾ	-13755
▁ഇതുവഴി	-13756
▁കണക്കു	-13757
▁നടത്തുന്നുണ്ട്	-13758
.....	-13759
റിന്‍	-13760
▁ആരോപണവുമായി	-13761
:30	-13762
▁ബീച്ച	-13763
പ്പെടുക	-13764
പ്രതിരോധ	-13765
▁നിർമാണം	-13766
ബിന്	-13767
▁സ്തു	-13768
ര്‍മാരും	-13769
▁വീടുകളിൽ	-13770
▁കൃഷ്	-13771
ാലില്‍	-13772
▁ആയുര്‍	-13773
▁മൂന്നര	-13774
▁നിരപരാധ	-13775
▁ശേഖരിക്ക	-13776
▁മരിച്ചവരുടെ	-13777
▁ഇറാന	-13778
▁ഒഴിയ	-13779
▁കണ്‍ട്രോള്‍	-13780
▁പാവം	-13781
▁ഭിന്നത	-13782
മുണ്ടാകും	-13783
ുപയോഗിച്ച്	-13784
▁പാർലമെന്റ	-13785
▁കൊട്ടാരക്കര	-13786
▁ഗേറ്റ്	-13787
▁പുരുഷന്‍	-13788
▁പുനരധിവാസ	-13789
▁സംഘത്തിന്	-13790
▁നിര്‍ബന്ധിത	-13791
▁യുവമോ	-13792
▁ഐപിഎല്‍	-13793
▁മെക്കാന	-13794
▁ലളിതമായി	-13795
▁രഞ്ജിത്ത്	-13796
▁ആവര്‍ത്തിക്ക	-13797
ക്ഷന	-13798
▁അസ്വാ	-13799
▁അവലോകനം	-13800
▁ആസൂത്രി	-13801
ിക്കെതിരേ	-13802
,"	-13803
▁സൗര	-13804
▁അബ്ദുറ	-13805
▁പെയിന്	-13806
ഡഡ്	-13807
ദിച	-13808
ാഗി	-13809
▁ജോഷി	-13810
▁പൊതുസമൂഹ	-13811
▁സഞ്ചരിക്ക	-13812
ത്തിനെതിരായ	-13813
▁പിരിച്ചുവിട	-13814
▁വിശദീകരിച്ച	-13815
▁മറ്റേതെങ്കിലും	-13816
▁നാശം	-13817
▁പതിനെട്ട	-13818
▁മര്യാദ	-13819
▁യാത്രക്കാരെ	-13820
▁വര്‍ഷങ്ങള്‍	-13821
▁ഒഴിവാക്കാന്‍	-13822
▁5,	-13823
▁ബ്ലാസ്	-13824
ുപൊ	-13825
ടങ്കം	-13826
വച്ചു	-13827
▁ആയുധം	-13828
▁കളക്ടർ	-13829
▁കുത്തനെ	-13830
▁മറ്റൊന്ന	-13831
▁റിപ്പബ്ലിക്	-13832
▁തില	-13833
ക്കാട്ട്	-13834
▁ഇരട്ടിയ	-13835
▁പ്രകോപന	-13836
കൂട്ട	-13837
▁ലേഖന	-13838
ങ്ങളോടെ	-13839
od	-13840
▁കരയ	-13841
▁ഹോളി	-13842
▁First	-13843
▁അസാധുവ	-13844
▁ജുഡീഷ്യല്‍	-13845
▁ആമി	-13846
▁സോമ	-13847
▁തെരു	-13848
▁പൊളിച്ചു	-13849
▁കള്ളപ്പണം	-13850
▁സംവിധാനവും	-13851
ഘ്	-13852
▁അബ്ബ	-13853
▁കാറ്റ്	-13854
▁മേല്‍നോട്ട	-13855
▁നദി	-13856
▁രംഗത്തു	-13857
▁റിസോർട്ട്	-13858
▁മുനീ	-13859
കരെയും	-13860
▁ഗള്‍ഫ	-13861
▁ട്രോഫ	-13862
ത്തിനിറ	-13863
ലിലേക്ക്	-13864
▁കുടിവെള്ളം	-13865
▁ഗുജറാത്തിലെ	-13866
ത്തിലേക്കും	-13867
▁സമൂഹത്തിന്	-13868
▁ജാവ	-13869
▁പിണ	-13870
▁നഴ്സ	-13871
▁പുനല	-13872
▁ഗോപിന	-13873
ത്തിന്‍	-13874
▁തൊട്ട്	-13875
▁ഷോപ്പിംഗ്	-13876
സ്നേ	-13877
▁ഒരോ	-13878
▁ഓർഗ	-13879
▁റഷീദ്	-13880
▁പ്രഭാഷണ	-13881
▁കണക്കിലെടുത്ത	-13882
▁വർക്ക	-13883
ിടം	-13884
▁പ്രീമിയര്‍	-13885
▁വിധത്തില്‍	-13886
▁തിരഞ്ഞെടുത്തു	-13887
▁നില്‍ക്കുന്നത്	-13888
ല്ലം	-13889
▁ബച്ച	-13890
മുതല്‍	-13891
▁വീണത്	-13892
▁പോളിങ്	-13893
ാര്യമ	-13894
▁മോചന	-13895
ത്തേരി	-13896
▁ആശയങ്ങൾ	-13897
▁ടെലിവിഷൻ	-13898
മുയ	-13899
ഡാണ്	-13900
സിക്ക്	-13901
▁നിവിന്‍	-13902
▁വീട്ടു	-13903
▁സിയുടെ	-13904
▁ക്രമസമാ	-13905
▁ഉല്‍പ്പന്ന	-13906
▁ഉപരിതലത്തിൽ	-13907
▁സർട്ടിഫിക്കറ്റ്	-13908
ഷ്ഠിത	-13909
▁സേവാ	-13910
▁ഏജന്റ്	-13911
▁മലയാളത്തിന്റെ	-13912
െയിലെ	-13913
▁ഉക്ര	-13914
▁ഇതെ	-13915
▁ഗിരി	-13916
ണാള്‍ഡ്	-13917
▁ലക്ഷ്യമിട്ട്	-13918
▁പരാമർശം	-13919
▁തിരിച്ചറിയാൻ	-13920
ുമൂലം	-13921
▁ഒന്നായി	-13922
സെക്ക	-13923
▁മദീന	-13924
▁അല്ലേ	-13925
ികൊണ്ട്	-13926
▁മുസ്തഫ	-13927
▁ഒരേയൊരു	-13928
▁ചോദിച്ച്	-13929
▁മ്യൂസിക്	-13930
▁ആവശ്യപ്പെടുന്നു	-13931
പയോഗ	-13932
▁മിച്ച	-13933
▁പിന്തി	-13934
ിക്കാനായില്ല	-13935
▁സ്ഥലത്തെത്തി	-13936
ബിൽ	-13937
▁വലത്	-13938
▁അമിതാ	-13939
▁അഭിനയിച്ചു	-13940
▁ലൈംഗികമായി	-13941
▁ഷെയര്‍	-13942
▁പരിമിതി	-13943
▁ഘോഷയാത്ര	-13944
പ്പണി	-13945
▁ക്വട്ട	-13946
ാനുമുള്ള	-13947
▁ഉൾപ്പെടുത്ത	-13948
▁എമ	-13949
ലിലും	-13950
▁മെത്രാ	-13951
▁ശെ	-13952
▁കരോ	-13953
▁സാറ	-13954
കന്റെ	-13955
▁അസ്സ	-13956
കളെല്ലാം	-13957
▁ഇരുചക്ര	-13958
▁തോതില്‍	-13959
▁ഉത്തരവാദ	-13960
▁ട്വിറ്റര്‍	-13961
▁സംയുക്തമായി	-13962
ത്തുവ	-13963
▁നാലിന്	-13964
▁പുരോഗമന	-13965
▁ജീവിതവും	-13966
▁ഡീല	-13967
▁ആസിഫ്	-13968
▁നാള്‍	-13969
▁54	-13970
▁ബെയ്	-13971
▁ഉരുള്‍	-13972
▁മഹാത്മ	-13973
▁ശിഹാബ്	-13974
▁ഭക്ഷണത്തിൽ	-13975
▁സ്വീകരിക്കും	-13976
ജിക്	-13977
ണ്ഡം	-13978
▁ആസ്തി	-13979
▁മുടക്ക	-13980
▁അമിതമായ	-13981
▁കഠിനമായ	-13982
▁അതൊന്നും	-13983
▁നെയ്യാറ്റി	-13984
▁സൃഷ്ടിക്കുന്നു	-13985
▁ചെവ	-13986
▁ദൃക്	-13987
▁സ്മരണ	-13988
▁മദ്രാസ്	-13989
▁ബജറ്റില്‍	-13990
▁രക്ഷിക്കാന്‍	-13991
ath	-13992
ഴുക	-13993
▁ലാൽ	-13994
▁ഗോഡ്	-13995
▁പോഷകാഹ	-13996
▁മുമ്പു	-13997
ാടിസ്ഥാന	-13998
▁മിക്കപ്പോഴും	-13999
▁അപ്രതീക്ഷിതമായി	-14000
ഹാസം	-14001
കൂടിയ	-14002
▁ആകർഷണ	-14003
▁ടച്ച്	-14004
▁ബെന്നി	-14005
▁മിടുക്ക	-14006
▁മോഹന്‍ലാലിന്റെ	-14007
▁57	-14008
പക്ഷെ	-14009
വിമാന	-14010
▁മെയിൽ	-14011
▁മാണിയുടെ	-14012
▁ഹംസ	-14013
▁നവാസ്	-14014
▁വാതില്‍	-14015
▁വെളുപ്പ	-14016
▁ടീച്ചര്‍	-14017
▁അനുഭവിച്ച	-14018
▁കെജ്	-14019
▁ദോഷം	-14020
▁സോസ്	-14021
▁അതിവേഗ	-14022
▁താരമായി	-14023
▁പത്മനാഭ	-14024
▁തകര്‍ത്തു	-14025
-5	-14026
പകട	-14027
▁ഷീ	-14028
▁ഹേ	-14029
വാര്‍ത്ത	-14030
▁വെള്ളവും	-14031
മനുസരിച്ച്	-14032
▁നിലയില	-14033
ക്കേസിലെ	-14034
▁പിടിപ്പ	-14035
▁ഫർണിച്ച	-14036
▁കോൾ	-14037
കോട്ട	-14038
▁Last	-14039
▁ന്ന്	-14040
യാണിത്	-14041
▁അലക്സ	-14042
▁പാപ്പാ	-14043
▁യുവതിയ	-14044
▁ആണ്‍കുട്ട	-14045
▁ഗ്രൂപ്പിന്റെ	-14046
▁ചിത്രങ്ങളില്‍	-14047
▁ആരി	-14048
▁പുറത്തും	-14049
▁സഹായവും	-14050
രുമ്പോള്‍	-14051
▁ഇന്റീരിയർ	-14052
ുണ്ടായിരുന്നില്ല	-14053
▁മാതാപിതാക്കളുടെ	-14054
▁സഭയിൽ	-14055
സിഡന്റ്	-14056
▁ദഹ	-14057
▁കിള	-14058
ഖണ്ഡ്	-14059
▁ചന്ത	-14060
▁പ്രഗ	-14061
▁മറച്ച	-14062
▁ബലം	-14063
രിക്കു	-14064
ത്തിലെത്തി	-14065
▁കാലയളവില്‍	-14066
▁ഹൈക്കോടതിയുടെ	-14067
▁അധിന	-14068
▁വാതക	-14069
▁ഏജന്റ	-14070
▁സ്കോർ	-14071
▁ബോക്സ്	-14072
സ്യൂ	-14073
▁മാരക	-14074
▁വഴിമ	-14075
▁അടൂര്‍	-14076
▁ശുചീകരണ	-14077
▁വിരമിച്ച	-14078
▁›	-14079
വിഷയ	-14080
േഷിനെ	-14081
▁മുന്‍കൂര്‍	-14082
▁റഫീ	-14083
പിടിപ്പ	-14084
▁അറിയപ്പെടുന്നത്	-14085
▁ഹന	-14086
▁കണ്ടാൽ	-14087
▁വരില്ല	-14088
▁അക്കാദമ	-14089
▁ഇളക്കുക	-14090
▁ഏല	-14091
കളോട്	-14092
▁വിളി	-14093
▁കണ്ടില്ല	-14094
▁വിട്ടുവീഴ്ച	-14095
▁ജേ	-14096
▁വിളവ	-14097
ങ്ങളുമ	-14098
ബാക്ക്	-14099
▁പറയാനുള്ളത്	-14100
ാണു്	-14101
▁സോഫ	-14102
റിലും	-14103
ിലിന്റെ	-14104
▁ഉപാധ്യ	-14105
▁തെളിഞ്ഞു	-14106
ുമെന്നായിരുന്നു	-14107
ങ്ങുകൾ	-14108
േശ്വരം	-14109
▁പ്രതിഭാസ	-14110
▁സംസ്ഥാനങ്ങളിലെ	-14111
മശ	-14112
▁ഇന്‍ഷുറ	-14113
▁വയസുള്ള	-14114
▁കൂട്ടുകാര	-14115
▁രാത്രിയിൽ	-14116
▁ക്രിസ്ത്യന്‍	-14117
ടനാശ	-14118
▁അനുശോ	-14119
▁അംഗങ്ങളായ	-14120
▁മുകളിലുള്ള	-14121
ഖ്യം	-14122
ന്യായ	-14123
മുട്ട	-14124
▁ഗണേഷ്	-14125
ത്തിയും	-14126
▁പകരുന്ന	-14127
▁ലോട്ടറി	-14128
▁ഇത്തവണത്തെ	-14129
ത്തിലൂടെയാണ്	-14130
ിക്കിടക്കുന്ന	-14131
ികളില	-14132
▁തന്നു	-14133
▁ട്രസ്റ്റ്	-14134
▁പരാജയപ്പെട്ടു	-14135
▁ലക്ഷക്കണക്കിന്	-14136
▁67	-14137
▁പ്രാരംഭ	-14138
▁വര്‍ഷത്തില്‍	-14139
▁സമ്മേളനത്തിൽ	-14140
പത	-14141
കുഞ്ഞ	-14142
ത്തമാന	-14143
കേന്ദ്രം	-14144
▁ഇൻസ്റ്റലേഷൻ	-14145
▁പരിശോധിക്കുക	-14146
ൊല	-14147
▁ഫയർ	-14148
ക്കുളം	-14149
▁വിവാദത്തില്‍	-14150
▁ദാനം	-14151
ഷ്യന്‍	-14152
▁മറുവശ	-14153
▁മുത്തലാ	-14154
▁വേള്‍ഡ്	-14155
▁വ്യക്തത	-14156
▁ഗ്രാഫിക്	-14157
▁ബാധകമാണ്	-14158
▁മോദിക്ക്	-14159
▁കൊണ്ടുവന്നു	-14160
▁നിർമ്മാതാക്കൾ	-14161
▁അഭിനയം	-14162
▁കിടപ്പ	-14163
▁ഇതുപോലെ	-14164
▁ലാലേട്ട	-14165
ിക്കുന്നതെന്ന്	-14166
▁സുലൈ	-14167
▁വിശദാംശങ്ങൾ	-14168
▁ഗ്രീ	-14169
▁വേതനം	-14170
▁കളിക്കാൻ	-14171
▁നിന്നായി	-14172
▁എത്തിക്കുന്ന	-14173
ത്തിനോ	-14174
▁പ്രീതി	-14175
▁ആറ്റിങ്ങ	-14176
▁കേന്ദ്രസർക്കാർ	-14177
കത്തെ	-14178
▁വിഹിതം	-14179
▁സർക്കാര	-14180
▁നായകനാക്കി	-14181
▁റജി	-14182
▁നാട്ടുകാര	-14183
▁ഇരുവരുടെയും	-14184
▁ഉത്തര്‍പ്രദേശ്	-14185
റസ്	-14186
▁99	-14187
ള്ള്	-14188
ദ്ദീൻ	-14189
കാരന്‍	-14190
▁പവര്‍	-14191
▁ഉത്പാദന	-14192
▁അവസാനിച്ചു	-14193
▁ക്രിസ്ത്യാന	-14194
ഹ്ന	-14195
▁മ്	-14196
▁അസൂ	-14197
▁വാൾ	-14198
▁മേനോൻ	-14199
▁പാക്കേജ്	-14200
▁മാര്‍ഗ്ഗ	-14201
▁പ്രത്യാഘാത	-14202
ുപറയ	-14203
▁അപരി	-14204
▁തണ്ണ	-14205
▁ബിനു	-14206
▁ജെറ്റ്	-14207
▁നടത്തുമെന്ന്	-14208
▁the	-14209
▁തലയ	-14210
▁ഒഡീഷ	-14211
▁ദല്‍ഹി	-14212
▁കശ്മീരില്‍	-14213
ിക്കേണ്ടതില്ല	-14214
▁പുറത്തിറക്കി	-14215
ഗഢ	-14216
▁77	-14217
▁ചവിട്ട	-14218
▁ഫ്ലാറ്റ്	-14219
▁എഴുന്നേറ്റു	-14220
▁ഇന്ത്യയിലേക്ക്	-14221
യാസം	-14222
▁അരങ്ങേറ	-14223
ാമ്മ	-14224
▁പായ്	-14225
▁ഒഴുകി	-14226
ിടിച്ച്	-14227
▁മുമ്പാകെ	-14228
▁രാജ്യസഭാ	-14229
▁അനീഷ്	-14230
▁ദീർഘകാല	-14231
ബാല	-14232
ാനന്തര	-14233
▁മുകളിലെ	-14234
ത്തെക്കുറിച്ചും	-14235
ാംശം	-14236
▁നടനും	-14237
▁പ്രസക്ത	-14238
▁മീര	-14239
▁വരവ	-14240
മിപ്പ	-14241
▁റിയൽ	-14242
ത്രയും	-14243
▁അക്ഷയ്	-14244
▁ഡിപ്പോ	-14245
ത്തിലേയ്ക്ക്	-14246
ള്‍പ്പെടെയുള്ള	-14247
ട്ടിന്‍	-14248
ദോ	-14249
നാഗ	-14250
▁ഓമന	-14251
ഘാടനം	-14252
▁ഇൻസ്	-14253
▁കണ്ണീ	-14254
ക്കുറവ്	-14255
മുണ്ടാക്കിയ	-14256
▁പിടിച്ചെടുത്ത	-14257
▁യൂട്യൂ	-14258
▁കഴിച്ച്	-14259
▁വിജയന്റെ	-14260
▁പങ്കെടുക്കാൻ	-14261
▁6.	-14262
▁വിളമ്പ	-14263
▁ജയി	-14264
▁ദാന	-14265
ാറുള്ള	-14266
▁ഇരട്ടി	-14267
▁മുങ്ങിയ	-14268
ിച്ചുവരുന്ന	-14269
▁ഉൾപ്പെടുന്ന	-14270
▁ചമ	-14271
▁തേൻ	-14272
▁ജോണി	-14273
യിലെത്തി	-14274
▁റോഡിന്റെ	-14275
▁അവസാനിപ്പിക്ക	-14276
മാർക്ക്	-14277
▁ജോര്‍ജ	-14278
▁അഭ്യൂഹ	-14279
▁ദുരിതം	-14280
മല്ലെന്നും	-14281
▁ഹാജരാക്കിയ	-14282
▁രാത്രിയില്‍	-14283
▁തഹ	-14284
▁വചനം	-14285
▁നിരൂപ	-14286
▁പെയ്യ	-14287
▁ടൂർണമെ	-14288
▁മാറിയത്	-14289
▁ബാധിച്ച്	-14290
▁മാതാപിതാക്കള	-14291
▁മോഡ്	-14292
▁യുവതീ	-14293
▁ഉപരോധം	-14294
ക്ഷേത്രം	-14295
ിയാണെന്ന്	-14296
ലീഗ്	-14297
▁പിയും	-14298
▁സന്ദർശനം	-14299
രാതെ	-14300
▁ഇത്തവണയും	-14301
▁തള്ളിക്കളയ	-14302
▁കുറയ്ക്കുന്ന	-14303
സ്സില്‍	-14304
▁ഇക്കൂട്ട	-14305
ഡാ	-14306
alayal	-14307
▁വഹിക്കും	-14308
▁ബാറ്റിംഗ്	-14309
▁അധ്യക്ഷനായി	-14310
▁രംഗത്തുവന്ന	-14311
ര്യ്	-14312
ിഷ്ട	-14313
സൂക്ഷ	-14314
സ്ത്യ	-14315
ത്തിയെ	-14316
ിക്കുറ	-14317
▁ദൃശ്യം	-14318
്ല്‍	-14319
▁പിശ	-14320
▁വെല്ല	-14321
▁മാര്‍ക്	-14322
▁ചുരുക്കം	-14323
▁ചേർക്കാൻ	-14324
▁ചിന്തിച്ച	-14325
▁ബന്ധമുള്ള	-14326
▁അഭിമുഖത്തിലാണ്	-14327
▁ഉയർത്തിയ	-14328
▁താങ്കളുടെ	-14329
▁പഠിക്കാന്‍	-14330
▁to	-14331
▁കശ	-14332
▁ഭൂചല	-14333
▁വടക്കൻ	-14334
▁‹	-14335
▁എമിറ	-14336
▁അലർജി	-14337
▁ഈടാക്ക	-14338
▁നമ്മളെ	-14339
▁ഇടക്കാല	-14340
▁ഇരുവരെയും	-14341
▁ജമ	-14342
▁മണ്‍	-14343
▁നയന്‍	-14344
▁തുടക്കമായി	-14345
▁ഉള്‍പ്പെടുത്ത	-14346
ത്തെയ	-14347
▁ക്രൂരത	-14348
▁മെഡല്‍	-14349
യായിരിക്കും	-14350
▁കൾ	-14351
കരും	-14352
നിക്	-14353
aking	-14354
▁ഉള്ളില്‍	-14355
ിക്കാനാകും	-14356
▁അതുല്യമായ	-14357
▁ഹരീഷ്	-14358
▁സെന്ററില്‍	-14359
▁വെടിക്കെട്ട്	-14360
ധാരണം	-14361
▁വാജ്	-14362
▁ദിവസേന	-14363
▁ഏല്‍പ്പ	-14364
▁ലൈബ്രറി	-14365
▁സെക്കൻഡ	-14366
ുന്നതില്‍	-14367
▁ബ്രസീല്‍	-14368
▁പ്രോട്ടീൻ	-14369
▁വിഷയങ്ങള്‍	-14370
▁രഹസ്യാന്വേഷണ	-14371
▁Y	-14372
▁ജിം	-14373
ജ്രിവ	-14374
ദേഷ്ട	-14375
▁ചരിത്രത്തിൽ	-14376
▁പ്രളയക്കെടു	-14377
(2	-14378
ചില	-14379
▁വചന	-14380
▁വാചക	-14381
▁ശ്യാം	-14382
കണ്ണ	-14383
▁1500	-14384
ത്തിലായ	-14385
വെങ്കില്‍	-14386
ിരിക്കെയാണ്	-14387
▁പരമ്പരയില്‍	-14388
ri	-14389
ഭൂരി	-14390
▁10,	-14391
▁നീയ	-14392
▁അതിലൂടെ	-14393
▁ജീവനക്കാരും	-14394
ബർഗ്	-14395
ുകളോളം	-14396
▁ലിവര്‍പൂ	-14397
ചെയ്യുന്നത്	-14398
▁ധര്‍മ	-14399
▁റിസർവ്	-14400
▁ലംഘിച്ച്	-14401
▁സംസാരിക്കാൻ	-14402
ലിത്	-14403
▁ടിക്ക	-14404
െന്നതാണ്	-14405
ങ്ങളൊക്കെ	-14406
▁സ്വതന്ത്രമായി	-14407
ജം	-14408
▁രൂപവത്ക	-14409
ടുത്തുള്ള	-14410
▁വിമാനത്തില്‍	-14411
▁വിശ്വാസികള്‍	-14412
▁കേന്ദ്രത്തിന്റെ	-14413
വയ്	-14414
റുക്ക	-14415
▁ഉല്ല	-14416
▁അന്ത്യം	-14417
▁കിഴക്കൻ	-14418
▁ആരംഭിക്കുന്നു	-14419
▁അവന്	-14420
▁അസുഖം	-14421
▁സമിതിയ	-14422
▁ക്രൂരമായ	-14423
ായിരത്തോളം	-14424
▁ഫോള	-14425
റിയാണ്	-14426
▁കല്‍പ്പറ്റ	-14427
▁മാവേല	-14428
േണ്ടിവന്ന	-14429
▁എന്നിവിടങ്ങളിൽ	-14430
▁and	-14431
കാരണം	-14432
▁നടേശ	-14433
▁പിഴയും	-14434
▁നിയോഗിച്ച	-14435
▁പ്രവചന	-14436
▁വിദ്വേഷ	-14437
▁വിറ്റാമി	-14438
▁അടിസ്ഥാനം	-14439
▁വിജയകരമായ	-14440
▁ശ്രദ്ധിക്കണം	-14441
▁ഏർപ്പെടുത്തിയ	-14442
▁ശേഖര	-14443
▁ഓൺലൈന	-14444
▁പുള്ള	-14445
▁ധോണിയുടെ	-14446
ഡ്ക	-14447
സ്‍	-14448
രിക്കെ	-14449
▁തത്ത്വ	-14450
▁എവിടെയും	-14451
▁സുധീരന്‍	-14452
▁അപ്പോഴാണ്	-14453
ിച്ചായിരുന്നു	-14454
മോട	-14455
▁പൊളി	-14456
▁ആറിന്	-14457
▁ലണ്ടൻ	-14458
▁എത്രമാത്രം	-14459
ബുദ	-14460
ൊഴു	-14461
▁ക്രാ	-14462
▁കുരിശ	-14463
▁തീർന്ന	-14464
▁കാട്ടാന	-14465
▁നിരോധനാ	-14466
▁പൊലീസിൽ	-14467
▁സാധിച്ച	-14468
▁കള്ളപ്പണ	-14469
▁Mar	-14470
ഷിന്റെ	-14471
▁ഉയരുന്നത്	-14472
▁കണ്ടെത്തല്‍	-14473
ക്കണോ	-14474
ട്രിക്	-14475
▁ഇമെയിൽ	-14476
▁ഗവര്‍ണ	-14477
▁സീനിയർ	-14478
▁നിസ്സാര	-14479
മണ	-14480
വേഷം	-14481
▁അഭിലാ	-14482
▁ക്രിസ്റ്റ്യ	-14483
യുണ്ടായിരുന്ന	-14484
▁നാഥ	-14485
മേശ്വര	-14486
▁ഗൂഗിൾ	-14487
ോടുകൂടിയ	-14488
നൈസ	-14489
ാറി	-14490
▁ഗൗരി	-14491
▁പാഠം	-14492
▁ലോക്കല്‍	-14493
▁സമ്പന്നമായ	-14494
ഞ്ജന	-14495
▁ഗൗതം	-14496
ചിതമായ	-14497
▁തങ്ങള	-14498
▁ഊർജ്ജം	-14499
▁വാര്‍ഡ്	-14500
▁ചെറിയൊരു	-14501
െച്ച	-14502
▁സ്ആ	-14503
▁സോളി	-14504
▁ഒരുക്കി	-14505
▁പരാതിയെ	-14506
മാക്കുകയും	-14507
▁കണ്ണൂരിലെ	-14508
▁സ്ഥിതിഗതി	-14509
▁ചുമതലയുള്ള	-14510
ിപ്പിക്കാനും	-14511
▁സുബ്രഹ്മണ്യ	-14512
സിബി	-14513
ഫാന്‍	-14514
ൃതമായി	-14515
▁വീട്ടില	-14516
▁നങ്ങൾ	-14517
ശങ്കര്‍	-14518
ണമോ	-14519
▁തെറ	-14520
▁പോരാട	-14521
▁നഷ്ടപരിഹാര	-14522
▁സമൂഹത്തിലെ	-14523
മുഖ്യമന്ത്രി	-14524
▁ജവഹ	-14525
▁പരീ	-14526
▁ദുഷ്	-14527
▁ദയനീയ	-14528
▁മേയര്‍	-14529
▁സീറ്റില്‍	-14530
▁പിറന്നാള്‍	-14531
▁ഹാർ	-14532
മാനും	-14533
▁സായുധ	-14534
▁വ്യക്തിപരമായി	-14535
▁തൃക്ക	-14536
ത്തിനെതിരേ	-14537
▁ഉറപ്പിച്ച	-14538
▁മരണത്തില്‍	-14539
▁മൂവാറ്റുപുഴ	-14540
▁ധാന്യ	-14541
▁എട്ടിന്	-14542
▁വിരുന്ന	-14543
▁റഹ്മാന്‍	-14544
▁തൊട്ടുപിന്ന	-14545
live	-14546
▁പോസ്	-14547
പോകുന്ന	-14548
▁ഉത്തമം	-14549
▁കൊടുങ്ങ	-14550
▁ഡബ്ല്യു	-14551
▁ഭാഷയില്‍	-14552
▁ഒന്നടങ്കം	-14553
ങ്ങളിലെല്ലാം	-14554
ൂക്ക	-14555
▁അകത്ത്	-14556
▁ഫാമിലി	-14557
ൊരുക്കിയ	-14558
്യൂണിക്ക	-14559
▁കണ്ടാണ്	-14560
▁ലോകകപ്പ	-14561
▁ഗുണനിലവാര	-14562
്രെ	-14563
▁സുന്നി	-14564
▁സംവിധാനങ്ങൾ	-14565
ച്ഛായ	-14566
നായും	-14567
▁ഇസ്രയേ	-14568
▁അമേരിക്കയിൽ	-14569
▁നവജാത	-14570
▁തകർത്ത	-14571
▁പ്രൊഫഷണ	-14572
▁സംസ്ഥാനങ്ങളിൽ	-14573
▁കേരളത്തിലേക്ക്	-14574
മാവും	-14575
▁ഫീല്‍	-14576
▁സൽമാൻ	-14577
ിക്കുന്നതെന്നും	-14578
്ക്ക	-14579
▁ഐതി	-14580
▁യഥാക്രമം	-14581
▁എന്‍ജിന	-14582
▁ടൂറിസ്റ്റ്	-14583
▁വകുപ്പുകള്‍	-14584
പുരു	-14585
▁പ്ലാന്‍	-14586
▁ചോദിച്ചത്	-14587
▁ഡീ	-14588
ക്രമിച്ച്	-14589
▁നോക്കുന്ന	-14590
▁കഴിയുമെന്ന്	-14591
▁തേജ	-14592
▁അങ്ങ്	-14593
▁ആസ്പദ	-14594
▁ചോക്ല	-14595
▁ബ്രസീല	-14596
▁ജെയ്റ്റ്	-14597
▁കൊണ്ടുപോയ	-14598
▁തയാറാക്കിയ	-14599
▁വാടകയ്ക്ക്	-14600
▁നിര്‍വഹിച്ചു	-14601
▁ട്ടി	-14602
▁ട്രീയ	-14603
▁മാർഗ്ഗ	-14604
▁കീഴടങ്ങ	-14605
▁തിരക്കഥാകൃ	-14606
▁ദിവസത്തിനകം	-14607
▁എംഎ	-14608
▁കാളി	-14609
▁കൈയിൽ	-14610
▁തമ്മില	-14611
▁പ്രാക്ട	-14612
▁തൊഴിലാളികൾ	-14613
▁76	-14614
ത്തോട്ട	-14615
▁ഇരുപത്	-14616
▁ഉണ്ടായിരിക്കും	-14617
ഇഒ	-14618
സ്ഥലത്ത്	-14619
▁കോളജില്‍	-14620
▁വസ്തുക്കള	-14621
▁പരിഗണിച്ച്	-14622
രണ്ട	-14623
▁എന്നാ	-14624
സമ്പന്ന	-14625
▁തലയില്‍	-14626
▁സംവിധാനങ്ങള്‍	-14627
▁മഹാരാഷ്ട്രയിലെ	-14628
▁ബഹള	-14629
▁കണക്ഷൻ	-14630
▁അംഗങ്ങളുടെ	-14631
▁മലയാളിയുടെ	-14632
പങ്ക	-14633
▁ചിന്ന	-14634
ലഭ	-14635
മാണിത	-14636
▁വിജ്ഞാന	-14637
▁സെഞ്ച്വറി	-14638
[...]
